{
  "version": "1.0",
  "truncation": null,
  "padding": null,
  "added_tokens": [
    {
      "id": 0,
      "content": "[UNK]",
      "single_word": false,
      "lstrip": false,
      "rstrip": false,
      "normalized": false,
      "special": true
    },
    {
      "id": 1,
      "content": "[PAD]",
      "single_word": false,
      "lstrip": false,
      "rstrip": false,
      "normalized": false,
      "special": true
    },
    {
      "id": 2,
      "content": "[CLS]",
      "single_word": false,
      "lstrip": false,
      "rstrip": false,
      "normalized": false,
      "special": true
    },
    {
      "id": 3,
      "content": "[SEP]",
      "single_word": false,
      "lstrip": false,
      "rstrip": false,
      "normalized": false,
      "special": true
    },
    {
      "id": 4,
      "content": "[MASK]",
      "single_word": false,
      "lstrip": false,
      "rstrip": false,
      "normalized": false,
      "special": true
    }
  ],
  "normalizer": {
    "type": "Sequence",
    "normalizers": [
      {
        "type": "NFD"
      }
    ]
  },
  "pre_tokenizer": {
    "type": "BertPreTokenizer"
  },
  "post_processor": {
    "type": "TemplateProcessing",
    "single": [
      {
        "SpecialToken": {
          "id": "[CLS]",
          "type_id": 0
        }
      },
      {
        "Sequence": {
          "id": "A",
          "type_id": 0
        }
      },
      {
        "SpecialToken": {
          "id": "[SEP]",
          "type_id": 0
        }
      }
    ],
    "pair": [
      {
        "SpecialToken": {
          "id": "[CLS]",
          "type_id": 0
        }
      },
      {
        "Sequence": {
          "id": "A",
          "type_id": 0
        }
      },
      {
        "SpecialToken": {
          "id": "[SEP]",
          "type_id": 0
        }
      },
      {
        "Sequence": {
          "id": "B",
          "type_id": 1
        }
      },
      {
        "SpecialToken": {
          "id": "[SEP]",
          "type_id": 1
        }
      }
    ],
    "special_tokens": {
      "[CLS]": {
        "id": "[CLS]",
        "ids": [
          2
        ],
        "tokens": [
          "[CLS]"
        ]
      },
      "[SEP]": {
        "id": "[SEP]",
        "ids": [
          3
        ],
        "tokens": [
          "[SEP]"
        ]
      }
    }
  },
  "decoder": {
    "type": "WordPiece",
    "prefix": "##",
    "cleanup": true
  },
  "model": {
    "type": "WordPiece",
    "unk_token": "[UNK]",
    "continuing_subword_prefix": "##",
    "max_input_chars_per_word": 100,
    "vocab": {
      "[UNK]": 0,
      "[PAD]": 1,
      "[CLS]": 2,
      "[SEP]": 3,
      "[MASK]": 4,
      "!": 5,
      "\"": 6,
      "#": 7,
      "$": 8,
      "%": 9,
      "&": 10,
      "'": 11,
      "(": 12,
      ")": 13,
      "*": 14,
      "+": 15,
      ",": 16,
      "-": 17,
      ".": 18,
      "/": 19,
      "0": 20,
      "1": 21,
      "2": 22,
      "3": 23,
      "4": 24,
      "5": 25,
      "6": 26,
      "7": 27,
      "8": 28,
      "9": 29,
      ":": 30,
      ";": 31,
      "<": 32,
      "=": 33,
      ">": 34,
      "?": 35,
      "@": 36,
      "A": 37,
      "B": 38,
      "C": 39,
      "D": 40,
      "E": 41,
      "F": 42,
      "G": 43,
      "H": 44,
      "I": 45,
      "J": 46,
      "K": 47,
      "L": 48,
      "M": 49,
      "N": 50,
      "O": 51,
      "P": 52,
      "Q": 53,
      "R": 54,
      "S": 55,
      "T": 56,
      "U": 57,
      "V": 58,
      "W": 59,
      "X": 60,
      "Y": 61,
      "Z": 62,
      "[": 63,
      "\\": 64,
      "]": 65,
      "^": 66,
      "_": 67,
      "`": 68,
      "a": 69,
      "b": 70,
      "c": 71,
      "d": 72,
      "e": 73,
      "f": 74,
      "g": 75,
      "h": 76,
      "i": 77,
      "j": 78,
      "k": 79,
      "l": 80,
      "m": 81,
      "n": 82,
      "o": 83,
      "p": 84,
      "q": 85,
      "r": 86,
      "s": 87,
      "t": 88,
      "u": 89,
      "v": 90,
      "w": 91,
      "x": 92,
      "y": 93,
      "z": 94,
      "{": 95,
      "|": 96,
      "}": 97,
      "~": 98,
      "©": 99,
      "®": 100,
      "Đ": 101,
      "đ": 102,
      "̀": 103,
      "́": 104,
      "̂": 105,
      "̃": 106,
      "̆": 107,
      "̉": 108,
      "̛": 109,
      "̣": 110,
      "‼": 111,
      "⁉": 112,
      "™": 113,
      "ℹ": 114,
      "→": 115,
      "↔": 116,
      "↕": 117,
      "↖": 118,
      "↗": 119,
      "↘": 120,
      "↙": 121,
      "↩": 122,
      "↪": 123,
      "⌚": 124,
      "⌛": 125,
      "⌨": 126,
      "⏩": 127,
      "⏪": 128,
      "⏫": 129,
      "⏬": 130,
      "⏭": 131,
      "⏰": 132,
      "⏱": 133,
      "⏳": 134,
      "⏸": 135,
      "⏹": 136,
      "⏺": 137,
      "▪": 138,
      "▫": 139,
      "▶": 140,
      "◀": 141,
      "◻": 142,
      "◼": 143,
      "◾": 144,
      "☀": 145,
      "☁": 146,
      "☂": 147,
      "☃": 148,
      "☄": 149,
      "☎": 150,
      "☑": 151,
      "☔": 152,
      "☕": 153,
      "☘": 154,
      "☝": 155,
      "☠": 156,
      "☢": 157,
      "☣": 158,
      "☪": 159,
      "☮": 160,
      "☯": 161,
      "☸": 162,
      "☹": 163,
      "☺": 164,
      "♀": 165,
      "♂": 166,
      "♈": 167,
      "♉": 168,
      "♊": 169,
      "♋": 170,
      "♍": 171,
      "♎": 172,
      "♏": 173,
      "♐": 174,
      "♑": 175,
      "♠": 176,
      "♣": 177,
      "♥": 178,
      "♦": 179,
      "♨": 180,
      "♻": 181,
      "♾": 182,
      "♿": 183,
      "⚒": 184,
      "⚓": 185,
      "⚔": 186,
      "⚕": 187,
      "⚖": 188,
      "⚙": 189,
      "⚛": 190,
      "⚜": 191,
      "⚠": 192,
      "⚡": 193,
      "⚪": 194,
      "⚫": 195,
      "⚰": 196,
      "⚱": 197,
      "⚽": 198,
      "⛄": 199,
      "⛅": 200,
      "⛈": 201,
      "⛏": 202,
      "⛓": 203,
      "⛔": 204,
      "⛩": 205,
      "⛪": 206,
      "⛰": 207,
      "⛱": 208,
      "⛲": 209,
      "⛳": 210,
      "⛴": 211,
      "⛵": 212,
      "⛷": 213,
      "⛹": 214,
      "⛽": 215,
      "✂": 216,
      "✅": 217,
      "✈": 218,
      "✉": 219,
      "✊": 220,
      "✋": 221,
      "✌": 222,
      "✍": 223,
      "✏": 224,
      "✒": 225,
      "✔": 226,
      "✖": 227,
      "✝": 228,
      "✡": 229,
      "✨": 230,
      "✳": 231,
      "✴": 232,
      "❄": 233,
      "❇": 234,
      "❌": 235,
      "❎": 236,
      "❓": 237,
      "❔": 238,
      "❗": 239,
      "❣": 240,
      "❤": 241,
      "➕": 242,
      "➖": 243,
      "➡": 244,
      "➿": 245,
      "⤵": 246,
      "⬅": 247,
      "⬆": 248,
      "⬇": 249,
      "⭐": 250,
      "⭕": 251,
      "〰": 252,
      "〽": 253,
      "㊗": 254,
      "️": 255,
      "🅰": 256,
      "🅱": 257,
      "🅾": 258,
      "🆒": 259,
      "🆓": 260,
      "🆕": 261,
      "🆖": 262,
      "🆗": 263,
      "🆘": 264,
      "🆙": 265,
      "🆚": 266,
      "🈂": 267,
      "🌀": 268,
      "🌄": 269,
      "🌅": 270,
      "🌆": 271,
      "🌈": 272,
      "🌊": 273,
      "🌋": 274,
      "🌍": 275,
      "🌎": 276,
      "🌏": 277,
      "🌐": 278,
      "🌕": 279,
      "🌘": 280,
      "🌙": 281,
      "🌛": 282,
      "🌜": 283,
      "🌞": 284,
      "🌟": 285,
      "🌠": 286,
      "🌡": 287,
      "🌤": 288,
      "🌧": 289,
      "🌨": 290,
      "🌩": 291,
      "🌪": 292,
      "🌫": 293,
      "🌬": 294,
      "🌱": 295,
      "🌲": 296,
      "🌳": 297,
      "🌴": 298,
      "🌵": 299,
      "🌶": 300,
      "🌷": 301,
      "🌸": 302,
      "🌹": 303,
      "🌺": 304,
      "🌻": 305,
      "🌼": 306,
      "🌽": 307,
      "🌾": 308,
      "🌿": 309,
      "🍀": 310,
      "🍁": 311,
      "🍂": 312,
      "🍃": 313,
      "🍄": 314,
      "🍅": 315,
      "🍇": 316,
      "🍉": 317,
      "🍊": 318,
      "🍋": 319,
      "🍌": 320,
      "🍎": 321,
      "🍏": 322,
      "🍑": 323,
      "🍒": 324,
      "🍓": 325,
      "🍔": 326,
      "🍕": 327,
      "🍖": 328,
      "🍗": 329,
      "🍘": 330,
      "🍚": 331,
      "🍜": 332,
      "🍝": 333,
      "🍟": 334,
      "🍠": 335,
      "🍣": 336,
      "🍤": 337,
      "🍥": 338,
      "🍧": 339,
      "🍩": 340,
      "🍫": 341,
      "🍬": 342,
      "🍭": 343,
      "🍰": 344,
      "🍲": 345,
      "🍳": 346,
      "🍴": 347,
      "🍵": 348,
      "🍷": 349,
      "🍹": 350,
      "🍺": 351,
      "🍻": 352,
      "🍽": 353,
      "🍾": 354,
      "🎀": 355,
      "🎁": 356,
      "🎂": 357,
      "🎃": 358,
      "🎄": 359,
      "🎅": 360,
      "🎆": 361,
      "🎈": 362,
      "🎉": 363,
      "🎊": 364,
      "🎋": 365,
      "🎎": 366,
      "🎏": 367,
      "🎐": 368,
      "🎒": 369,
      "🎓": 370,
      "🎖": 371,
      "🎗": 372,
      "🎙": 373,
      "🎛": 374,
      "🎞": 375,
      "🎟": 376,
      "🎠": 377,
      "🎡": 378,
      "🎤": 379,
      "🎥": 380,
      "🎧": 381,
      "🎨": 382,
      "🎩": 383,
      "🎬": 384,
      "🎭": 385,
      "🎯": 386,
      "🎲": 387,
      "🎵": 388,
      "🎶": 389,
      "🎷": 390,
      "🎸": 391,
      "🎺": 392,
      "🎻": 393,
      "🎼": 394,
      "🏁": 395,
      "🏃": 396,
      "🏄": 397,
      "🏅": 398,
      "🏆": 399,
      "🏈": 400,
      "🏊": 401,
      "🏋": 402,
      "🏍": 403,
      "🏎": 404,
      "🏔": 405,
      "🏕": 406,
      "🏖": 407,
      "🏗": 408,
      "🏘": 409,
      "🏙": 410,
      "🏚": 411,
      "🏛": 412,
      "🏜": 413,
      "🏝": 414,
      "🏞": 415,
      "🏟": 416,
      "🏠": 417,
      "🏡": 418,
      "🏢": 419,
      "🏣": 420,
      "🏤": 421,
      "🏥": 422,
      "🏦": 423,
      "🏧": 424,
      "🏩": 425,
      "🏪": 426,
      "🏫": 427,
      "🏬": 428,
      "🏮": 429,
      "🏯": 430,
      "🏳": 431,
      "🏵": 432,
      "🏷": 433,
      "🏺": 434,
      "🏻": 435,
      "🏼": 436,
      "🏽": 437,
      "🏾": 438,
      "🏿": 439,
      "🐁": 440,
      "🐂": 441,
      "🐃": 442,
      "🐅": 443,
      "🐇": 444,
      "🐈": 445,
      "🐉": 446,
      "🐊": 447,
      "🐋": 448,
      "🐍": 449,
      "🐎": 450,
      "🐐": 451,
      "🐓": 452,
      "🐕": 453,
      "🐖": 454,
      "🐗": 455,
      "🐘": 456,
      "🐟": 457,
      "🐠": 458,
      "🐢": 459,
      "🐣": 460,
      "🐤": 461,
      "🐥": 462,
      "🐦": 463,
      "🐬": 464,
      "🐮": 465,
      "🐯": 466,
      "🐰": 467,
      "🐲": 468,
      "🐳": 469,
      "🐴": 470,
      "🐶": 471,
      "🐷": 472,
      "🐸": 473,
      "🐺": 474,
      "🐻": 475,
      "🐽": 476,
      "🐾": 477,
      "🐿": 478,
      "👀": 479,
      "👁": 480,
      "👂": 481,
      "👄": 482,
      "👆": 483,
      "👇": 484,
      "👈": 485,
      "👉": 486,
      "👊": 487,
      "👋": 488,
      "👌": 489,
      "👍": 490,
      "👎": 491,
      "👏": 492,
      "👐": 493,
      "👑": 494,
      "👓": 495,
      "👔": 496,
      "👗": 497,
      "👟": 498,
      "👠": 499,
      "👣": 500,
      "👤": 501,
      "👥": 502,
      "👦": 503,
      "👧": 504,
      "👨": 505,
      "👩": 506,
      "👫": 507,
      "👱": 508,
      "👶": 509,
      "👷": 510,
      "👸": 511,
      "👹": 512,
      "👺": 513,
      "👻": 514,
      "👼": 515,
      "👽": 516,
      "👾": 517,
      "👿": 518,
      "💀": 519,
      "💁": 520,
      "💃": 521,
      "💄": 522,
      "💅": 523,
      "💇": 524,
      "💉": 525,
      "💊": 526,
      "💋": 527,
      "💌": 528,
      "💍": 529,
      "💎": 530,
      "💐": 531,
      "💑": 532,
      "💒": 533,
      "💓": 534,
      "💔": 535,
      "💕": 536,
      "💖": 537,
      "💗": 538,
      "💘": 539,
      "💙": 540,
      "💚": 541,
      "💛": 542,
      "💜": 543,
      "💝": 544,
      "💞": 545,
      "💟": 546,
      "💠": 547,
      "💡": 548,
      "💢": 549,
      "💣": 550,
      "💥": 551,
      "💦": 552,
      "💧": 553,
      "💨": 554,
      "💪": 555,
      "💫": 556,
      "💬": 557,
      "💭": 558,
      "💮": 559,
      "💯": 560,
      "💰": 561,
      "💱": 562,
      "💲": 563,
      "💳": 564,
      "💴": 565,
      "💵": 566,
      "💶": 567,
      "💷": 568,
      "💸": 569,
      "💹": 570,
      "💻": 571,
      "💼": 572,
      "💾": 573,
      "📀": 574,
      "📁": 575,
      "📄": 576,
      "📅": 577,
      "📆": 578,
      "📈": 579,
      "📉": 580,
      "📊": 581,
      "📌": 582,
      "📍": 583,
      "📎": 584,
      "📑": 585,
      "📒": 586,
      "📔": 587,
      "📖": 588,
      "📗": 589,
      "📘": 590,
      "📙": 591,
      "📚": 592,
      "📛": 593,
      "📜": 594,
      "📝": 595,
      "📞": 596,
      "📡": 597,
      "📢": 598,
      "📣": 599,
      "📥": 600,
      "📦": 601,
      "📧": 602,
      "📨": 603,
      "📩": 604,
      "📪": 605,
      "📫": 606,
      "📬": 607,
      "📭": 608,
      "📰": 609,
      "📱": 610,
      "📲": 611,
      "📶": 612,
      "📷": 613,
      "📺": 614,
      "📽": 615,
      "🔅": 616,
      "🔆": 617,
      "🔇": 618,
      "🔈": 619,
      "🔊": 620,
      "🔍": 621,
      "🔎": 622,
      "🔐": 623,
      "🔑": 624,
      "🔒": 625,
      "🔔": 626,
      "🔕": 627,
      "🔖": 628,
      "🔗": 629,
      "🔘": 630,
      "🔛": 631,
      "🔜": 632,
      "🔝": 633,
      "🔞": 634,
      "🔟": 635,
      "🔤": 636,
      "🔥": 637,
      "🔧": 638,
      "🔨": 639,
      "🔫": 640,
      "🔬": 641,
      "🔭": 642,
      "🔮": 643,
      "🔰": 644,
      "🔱": 645,
      "🔴": 646,
      "🔵": 647,
      "🔶": 648,
      "🔷": 649,
      "🔸": 650,
      "🔹": 651,
      "🔺": 652,
      "🔻": 653,
      "🔽": 654,
      "🕊": 655,
      "🕌": 656,
      "🕍": 657,
      "🕒": 658,
      "🕔": 659,
      "🕗": 660,
      "🕘": 661,
      "🕙": 662,
      "🕟": 663,
      "🕡": 664,
      "🕦": 665,
      "🕰": 666,
      "🕳": 667,
      "🕵": 668,
      "🕶": 669,
      "🕷": 670,
      "🕸": 671,
      "🕹": 672,
      "🕺": 673,
      "🖇": 674,
      "🖊": 675,
      "🖌": 676,
      "🖍": 677,
      "🖐": 678,
      "🖕": 679,
      "🖤": 680,
      "🖥": 681,
      "🖱": 682,
      "🗂": 683,
      "🗑": 684,
      "🗒": 685,
      "🗓": 686,
      "🗝": 687,
      "🗞": 688,
      "🗡": 689,
      "🗣": 690,
      "🗨": 691,
      "🗯": 692,
      "🗳": 693,
      "🗺": 694,
      "🗼": 695,
      "🗽": 696,
      "🗾": 697,
      "😀": 698,
      "😁": 699,
      "😂": 700,
      "😃": 701,
      "😄": 702,
      "😅": 703,
      "😆": 704,
      "😇": 705,
      "😈": 706,
      "😉": 707,
      "😊": 708,
      "😋": 709,
      "😌": 710,
      "😍": 711,
      "😎": 712,
      "😏": 713,
      "😐": 714,
      "😑": 715,
      "😒": 716,
      "😓": 717,
      "😔": 718,
      "😕": 719,
      "😖": 720,
      "😗": 721,
      "😘": 722,
      "😙": 723,
      "😚": 724,
      "😛": 725,
      "😜": 726,
      "😝": 727,
      "😞": 728,
      "😟": 729,
      "😠": 730,
      "😡": 731,
      "😢": 732,
      "😣": 733,
      "😤": 734,
      "😥": 735,
      "😦": 736,
      "😩": 737,
      "😪": 738,
      "😫": 739,
      "😬": 740,
      "😭": 741,
      "😮": 742,
      "😯": 743,
      "😰": 744,
      "😱": 745,
      "😲": 746,
      "😳": 747,
      "😴": 748,
      "😵": 749,
      "😶": 750,
      "😷": 751,
      "😹": 752,
      "😺": 753,
      "😼": 754,
      "😽": 755,
      "😾": 756,
      "😿": 757,
      "🙁": 758,
      "🙂": 759,
      "🙃": 760,
      "🙄": 761,
      "🙅": 762,
      "🙆": 763,
      "🙈": 764,
      "🙉": 765,
      "🙊": 766,
      "🙋": 767,
      "🙌": 768,
      "🙍": 769,
      "🙏": 770,
      "🚀": 771,
      "🚂": 772,
      "🚄": 773,
      "🚅": 774,
      "🚈": 775,
      "🚉": 776,
      "🚊": 777,
      "🚋": 778,
      "🚌": 779,
      "🚏": 780,
      "🚖": 781,
      "🚗": 782,
      "🚘": 783,
      "🚙": 784,
      "🚚": 785,
      "🚛": 786,
      "🚠": 787,
      "🚡": 788,
      "🚣": 789,
      "🚦": 790,
      "🚨": 791,
      "🚩": 792,
      "🚫": 793,
      "🚬": 794,
      "🚭": 795,
      "🚮": 796,
      "🚲": 797,
      "🚴": 798,
      "🚶": 799,
      "🚹": 800,
      "🚽": 801,
      "🚿": 802,
      "🛁": 803,
      "🛋": 804,
      "🛌": 805,
      "🛍": 806,
      "🛎": 807,
      "🛏": 808,
      "🛑": 809,
      "🛒": 810,
      "🛠": 811,
      "🛡": 812,
      "🛣": 813,
      "🛥": 814,
      "🛩": 815,
      "🛫": 816,
      "🛬": 817,
      "🛰": 818,
      "🛳": 819,
      "🛵": 820,
      "🤐": 821,
      "🤑": 822,
      "🤒": 823,
      "🤓": 824,
      "🤔": 825,
      "🤖": 826,
      "🤗": 827,
      "🤘": 828,
      "🤙": 829,
      "🤛": 830,
      "🤜": 831,
      "🤝": 832,
      "🤟": 833,
      "🤡": 834,
      "🤢": 835,
      "🤣": 836,
      "🤤": 837,
      "🤥": 838,
      "🤦": 839,
      "🤩": 840,
      "🤪": 841,
      "🤫": 842,
      "🤭": 843,
      "🤯": 844,
      "🤳": 845,
      "🤴": 846,
      "🤵": 847,
      "🤷": 848,
      "🤹": 849,
      "🥀": 850,
      "🥁": 851,
      "🥂": 852,
      "🥅": 853,
      "🥇": 854,
      "🥈": 855,
      "🥉": 856,
      "🥊": 857,
      "🥒": 858,
      "🥔": 859,
      "🥗": 860,
      "🥘": 861,
      "🥙": 862,
      "🥚": 863,
      "🥛": 864,
      "🥝": 865,
      "🥤": 866,
      "🥦": 867,
      "🥬": 868,
      "🥰": 869,
      "🥱": 870,
      "🥲": 871,
      "🥳": 872,
      "🥴": 873,
      "🥶": 874,
      "🥹": 875,
      "🥺": 876,
      "🦂": 877,
      "🦄": 878,
      "🦅": 879,
      "🦇": 880,
      "🦈": 881,
      "🦊": 882,
      "🦋": 883,
      "🦌": 884,
      "🦐": 885,
      "🦕": 886,
      "🦖": 887,
      "🦗": 888,
      "🦢": 889,
      "🦸": 890,
      "🧐": 891,
      "🧘": 892,
      "🧚": 893,
      "🧛": 894,
      "🧠": 895,
      "🧡": 896,
      "🧧": 897,
      "🧨": 898,
      "🧮": 899,
      "🧳": 900,
      "🪫": 901,
      "🪷": 902,
      "🫠": 903,
      "🫡": 904,
      "🫢": 905,
      "🫣": 906,
      "🫤": 907,
      "🫥": 908,
      "🫱": 909,
      "🫲": 910,
      "🫵": 911,
      "🫶": 912,
      "##e": 913,
      "##i": 914,
      "##m": 915,
      "##n": 916,
      "##D": 917,
      "##Đ": 918,
      "##V": 919,
      "##o": 920,
      "##r": 921,
      "##a": 922,
      "##y": 923,
      "##F": 924,
      "##P": 925,
      "##T": 926,
      "##d": 927,
      "##̆": 928,
      "##g": 929,
      "##q": 930,
      "##u": 931,
      "##h": 932,
      "##f": 933,
      "##̣": 934,
      "##̂": 935,
      "##Q": 936,
      "##́": 937,
      "##̛": 938,
      "##p": 939,
      "##t": 940,
      "##I": 941,
      "##C": 942,
      "##2": 943,
      "##0": 944,
      "##8": 945,
      "##9": 946,
      "##B": 947,
      "##z": 948,
      "##c": 949,
      "##̀": 950,
      "##s": 951,
      "##k": 952,
      "##l": 953,
      "##M": 954,
      "##O": 955,
      "##X": 956,
      "##E": 957,
      "##L": 958,
      "##K": 959,
      "##N": 960,
      "##b": 961,
      "##R": 962,
      "##S": 963,
      "##5": 964,
      "##4": 965,
      "##3": 966,
      "##v": 967,
      "##̉": 968,
      "##H": 969,
      "##A": 970,
      "##x": 971,
      "##̃": 972,
      "##1": 973,
      "##7": 974,
      "##6": 975,
      "##U": 976,
      "##W": 977,
      "##w": 978,
      "##G": 979,
      "##Y": 980,
      "##j": 981,
      "##đ": 982,
      "##J": 983,
      "##Z": 984,
      "##→": 985,
      "##🅱": 986,
      "##🅰": 987,
      "##️": 988,
      "##🅾": 989,
      "##ng": 990,
      "##ư": 991,
      "##ê": 992,
      "##ơ": 993,
      "##à": 994,
      "##ô": 995,
      "##̣̂": 996,
      "##â": 997,
      "th": 998,
      "##nh": 999,
      "##á": 1000,
      "##ươ": 1001,
      "##iê": 1002,
      "ch": 1003,
      "tr": 1004,
      "##ạ": 1005,
      "nh": 1006,
      "##ệ": 1007,
      "kh": 1008,
      "##ả": 1009,
      "##́t": 1010,
      "##ộ": 1011,
      "##ă": 1012,
      "ng": 1013,
      "##́c": 1014,
      "##ó": 1015,
      "##̣c": 1016,
      "##iệ": 1017,
      "ph": 1018,
      "##̀ng": 1019,
      "cu": 1020,
      "gi": 1021,
      "##́n": 1022,
      "##ác": 1023,
      "##́i": 1024,
      "##ông": 1025,
      "và": 1026,
      "##̀n": 1027,
      "##uy": 1028,
      "##ậ": 1029,
      "##ị": 1030,
      "##ì": 1031,
      "##̀u": 1032,
      "##̉a": 1033,
      "##̀i": 1034,
      "là": 1035,
      "##ới": 1036,
      "##́ng": 1037,
      "của": 1038,
      "qu": 1039,
      "##ại": 1040,
      "##ã": 1041,
      "##ên": 1042,
      "đê": 1043,
      "##ong": 1044,
      "##ất": 1045,
      "các": 1046,
      "có": 1047,
      "##ân": 1048,
      "##̃ng": 1049,
      "như": 1050,
      "##an": 1051,
      "##í": 1052,
      "đươ": 1053,
      "##ình": 1054,
      "##ế": 1055,
      "ho": 1056,
      "Th": 1057,
      "##ổ": 1058,
      "tư": 1059,
      "##ày": 1060,
      "cho": 1061,
      "##́p": 1062,
      "##iện": 1063,
      "##̣ng": 1064,
      "trong": 1065,
      "##iên": 1066,
      "được": 1067,
      "đô": 1068,
      "##inh": 1069,
      "đâ": 1070,
      "##ột": 1071,
      "với": 1072,
      "##iể": 1073,
      "##iều": 1074,
      "##uyê": 1075,
      "đã": 1076,
      "ngh": 1077,
      "không": 1078,
      "##ười": 1079,
      "##ành": 1080,
      "##ay": 1081,
      "tiê": 1082,
      "##ần": 1083,
      "##ao": 1084,
      "Tr": 1085,
      "##ủ": 1086,
      "##ải": 1087,
      "nă": 1088,
      "người": 1089,
      "##uô": 1090,
      "##ực": 1091,
      "một": 1092,
      "##ước": 1093,
      "##ố": 1094,
      "##ang": 1095,
      "##ợ": 1096,
      "##am": 1097,
      "##ương": 1098,
      "độ": 1099,
      "##ặ": 1100,
      "##ai": 1101,
      "##ự": 1102,
      "##ản": 1103,
      "##ức": 1104,
      "##anh": 1105,
      "##ỉ": 1106,
      "##ận": 1107,
      "##̃n": 1108,
      "##àn": 1109,
      "Ng": 1110,
      "##ường": 1111,
      "##àng": 1112,
      "##ề": 1113,
      "công": 1114,
      "##ính": 1115,
      "##ài": 1116,
      "co": 1117,
      "Ch": 1118,
      "20": 1119,
      "##ội": 1120,
      "##ung": 1121,
      "để": 1122,
      "thu": 1123,
      "##át": 1124,
      "những": 1125,
      "tô": 1126,
      "này": 1127,
      "##ể": 1128,
      "câ": 1129,
      "##iệt": 1130,
      "đó": 1131,
      "##ở": 1132,
      "##ữ": 1133,
      "##ụ": 1134,
      "##ời": 1135,
      "ơ": 1136,
      "đị": 1137,
      "khi": 1138,
      "năm": 1139,
      "##ơn": 1140,
      "về": 1141,
      "do": 1142,
      "ra": 1143,
      "##eo": 1144,
      "##ạn": 1145,
      "du": 1146,
      "##ẽ": 1147,
      "##́u": 1148,
      "ti": 1149,
      "ở": 1150,
      "tại": 1151,
      "##̉ng": 1152,
      "đến": 1153,
      "##au": 1154,
      "giá": 1155,
      "##ật": 1156,
      "##iến": 1157,
      "đầu": 1158,
      "##ăng": 1159,
      "từ": 1160,
      "đồng": 1161,
      "##án": 1162,
      "vào": 1163,
      "Ph": 1164,
      "##iệc": 1165,
      "##ập": 1166,
      "Nh": 1167,
      "ô": 1168,
      "thể": 1169,
      "cũng": 1170,
      "trên": 1171,
      "##ống": 1172,
      "##áng": 1173,
      "tu": 1174,
      "sẽ": 1175,
      "##ái": 1176,
      "##iết": 1177,
      "kho": 1178,
      "hiện": 1179,
      "động": 1180,
      "cả": 1181,
      "nhiều": 1182,
      "việc": 1183,
      "##́y": 1184,
      "bị": 1185,
      "##ây": 1186,
      "##ết": 1187,
      "nước": 1188,
      "##iệu": 1189,
      "nhà": 1190,
      "##̣ch": 1191,
      "số": 1192,
      "làm": 1193,
      "##áo": 1194,
      "hàng": 1195,
      "định": 1196,
      "##ử": 1197,
      "chỉ": 1198,
      "##iểm": 1199,
      "##ạt": 1200,
      "ngày": 1201,
      "to": 1202,
      "quan": 1203,
      "##ăn": 1204,
      "##ách": 1205,
      "##ượng": 1206,
      "lại": 1207,
      "sự": 1208,
      "201": 1209,
      "##̀m": 1210,
      "##ổi": 1211,
      "Nam": 1212,
      "##ẩ": 1213,
      "phải": 1214,
      "##ưa": 1215,
      "trường": 1216,
      "##̀a": 1217,
      "##́m": 1218,
      "##ằng": 1219,
      "ty": 1220,
      "xe": 1221,
      "thành": 1222,
      "##ý": 1223,
      "##ộc": 1224,
      "chính": 1225,
      "##ảng": 1226,
      "nhân": 1227,
      "Việt": 1228,
      "##ảo": 1229,
      "##ĩ": 1230,
      "cơ": 1231,
      "##ứ": 1232,
      "##ạo": 1233,
      "chu": 1234,
      "##ối": 1235,
      "gia": 1236,
      "##uyên": 1237,
      "##ẫn": 1238,
      "ông": 1239,
      "##ịch": 1240,
      "##ào": 1241,
      "##iển": 1242,
      "##ưởng": 1243,
      "##iệp": 1244,
      "hơn": 1245,
      "##ấy": 1246,
      "thì": 1247,
      "lu": 1248,
      "nó": 1249,
      "##́ch": 1250,
      "##ấn": 1251,
      "##ắc": 1252,
      "xu": 1253,
      "mu": 1254,
      "##ạc": 1255,
      "##in": 1256,
      "##ỗ": 1257,
      "mà": 1258,
      "lo": 1259,
      "nhất": 1260,
      "đi": 1261,
      "##on": 1262,
      "thời": 1263,
      "##ờ": 1264,
      "##ợp": 1265,
      "tăng": 1266,
      "phát": 1267,
      "##er": 1268,
      "thực": 1269,
      "tôi": 1270,
      "##00": 1271,
      "còn": 1272,
      "tế": 1273,
      "đo": 1274,
      "điều": 1275,
      "đang": 1276,
      "thông": 1277,
      "hợp": 1278,
      "quyê": 1279,
      "vụ": 1280,
      "##uốc": 1281,
      "dân": 1282,
      "sản": 1283,
      "##ạnh": 1284,
      "hành": 1285,
      "##ỹ": 1286,
      "theo": 1287,
      "##ẻ": 1288,
      "học": 1289,
      "##âm": 1290,
      "biết": 1291,
      "mới": 1292,
      "##ặt": 1293,
      "##uyệ": 1294,
      "Kh": 1295,
      "##ánh": 1296,
      "##ặc": 1297,
      "##ảm": 1298,
      "##ắt": 1299,
      "cao": 1300,
      "con": 1301,
      "sau": 1302,
      "##en": 1303,
      "nhưng": 1304,
      "nghiệp": 1305,
      "hội": 1306,
      "lý": 1307,
      "tổ": 1308,
      "qua": 1309,
      "##ia": 1310,
      "##òng": 1311,
      "thị": 1312,
      "thế": 1313,
      "đối": 1314,
      "##ọ": 1315,
      "##̉n": 1316,
      "dụng": 1317,
      "##áp": 1318,
      "kinh": 1319,
      "##ốc": 1320,
      "viên": 1321,
      "nhận": 1322,
      "##̉nh": 1323,
      "##ôi": 1324,
      "chức": 1325,
      "##ồi": 1326,
      "doanh": 1327,
      "##ẹ": 1328,
      "Quốc": 1329,
      "sinh": 1330,
      "dự": 1331,
      "xuất": 1332,
      "tiếp": 1333,
      "lơ": 1334,
      "##ữa": 1335,
      "##ar": 1336,
      "##iệm": 1337,
      "hình": 1338,
      "##uyện": 1339,
      "lượng": 1340,
      "lên": 1341,
      "##ọng": 1342,
      "quy": 1343,
      "cư": 1344,
      "tin": 1345,
      "trước": 1346,
      "điểm": 1347,
      "##ếu": 1348,
      "tiền": 1349,
      "cùng": 1350,
      "ư": 1351,
      "##ạm": 1352,
      "trình": 1353,
      "bộ": 1354,
      "rất": 1355,
      "Trung": 1356,
      "nên": 1357,
      "##ồng": 1358,
      "phu": 1359,
      "##iểu": 1360,
      "##ạng": 1361,
      "Ho": 1362,
      "ngo": 1363,
      "tác": 1364,
      "##ơi": 1365,
      "mình": 1366,
      "Gi": 1367,
      "án": 1368,
      "##ướng": 1369,
      "cấp": 1370,
      "Công": 1371,
      "##ệnh": 1372,
      "tỉ": 1373,
      "##ứng": 1374,
      "bạn": 1375,
      "anh": 1376,
      "dư": 1377,
      "thi": 1378,
      "tháng": 1379,
      "triển": 1380,
      "báo": 1381,
      "##ỏ": 1382,
      "##âu": 1383,
      "chủ": 1384,
      "giao": 1385,
      "##óa": 1386,
      "kết": 1387,
      "dịch": 1388,
      "họ": 1389,
      "vẫn": 1390,
      "nay": 1391,
      "tài": 1392,
      "cầu": 1393,
      "tới": 1394,
      "năng": 1395,
      "##áy": 1396,
      "an": 1397,
      "cách": 1398,
      "đây": 1399,
      "đường": 1400,
      "tỷ": 1401,
      "##iếu": 1402,
      "vì": 1403,
      "Hà": 1404,
      "toàn": 1405,
      "nói": 1406,
      "Bộ": 1407,
      "lực": 1408,
      "tình": 1409,
      "khác": 1410,
      "đề": 1411,
      "##al": 1412,
      "lớn": 1413,
      "khu": 1414,
      "so": 1415,
      "giải": 1416,
      "##iễn": 1417,
      "bảo": 1418,
      "Theo": 1419,
      "Qu": 1420,
      "##ạch": 1421,
      "Mỹ": 1422,
      "vô": 1423,
      "##êu": 1424,
      "##ừa": 1425,
      "giới": 1426,
      "quốc": 1427,
      "##ùng": 1428,
      "##ầu": 1429,
      "10": 1430,
      "xã": 1431,
      "hai": 1432,
      "##ấp": 1433,
      "â": 1434,
      "tỉnh": 1435,
      "giảm": 1436,
      "##uyễn": 1437,
      "cuộc": 1438,
      "##ẩm": 1439,
      "##uyển": 1440,
      "phần": 1441,
      "bán": 1442,
      "thủ": 1443,
      "##óng": 1444,
      "##é": 1445,
      "Nguyễn": 1446,
      "tâm": 1447,
      "thống": 1448,
      "##im": 1449,
      "cần": 1450,
      "quả": 1451,
      "tự": 1452,
      "ky": 1453,
      "thấy": 1454,
      "##ợi": 1455,
      "rằng": 1456,
      "chưa": 1457,
      "Trong": 1458,
      "quyết": 1459,
      "##es": 1460,
      "nào": 1461,
      "gian": 1462,
      "pháp": 1463,
      "cổ": 1464,
      "triệu": 1465,
      "hô": 1466,
      "tiêu": 1467,
      "tục": 1468,
      "nhiên": 1469,
      "vị": 1470,
      "##ậy": 1471,
      "19": 1472,
      "tạo": 1473,
      "bằng": 1474,
      "thương": 1475,
      "phương": 1476,
      "mặt": 1477,
      "trị": 1478,
      "ảnh": 1479,
      "phòng": 1480,
      "địa": 1481,
      "mạnh": 1482,
      "bản": 1483,
      "##ắn": 1484,
      "ý": 1485,
      "tra": 1486,
      "liên": 1487,
      "vực": 1488,
      "sử": 1489,
      "đại": 1490,
      "lần": 1491,
      "mức": 1492,
      "trưởng": 1493,
      "trọng": 1494,
      "phí": 1495,
      "mua": 1496,
      "##or": 1497,
      "hoạt": 1498,
      "tính": 1499,
      "hiệu": 1500,
      "lã": 1501,
      "chúng": 1502,
      "đạo": 1503,
      "hệ": 1504,
      "khách": 1505,
      "bệnh": 1506,
      "cô": 1507,
      "##ộng": 1508,
      "TP": 1509,
      "hay": 1510,
      "hóa": 1511,
      "##ắng": 1512,
      "##ọi": 1513,
      "Như": 1514,
      "##et": 1515,
      "##úng": 1516,
      "thường": 1517,
      "diễn": 1518,
      "tập": 1519,
      "máy": 1520,
      "vi": 1521,
      "quá": 1522,
      "##uyền": 1523,
      "##ăm": 1524,
      "thức": 1525,
      "Tổ": 1526,
      "Nội": 1527,
      "em": 1528,
      "đưa": 1529,
      "##̉y": 1530,
      "dựng": 1531,
      "điện": 1532,
      "chị": 1533,
      "ta": 1534,
      "khai": 1535,
      "sở": 1536,
      "trung": 1537,
      "trở": 1538,
      "gần": 1539,
      "##ỗi": 1540,
      "yêu": 1541,
      "chất": 1542,
      "Anh": 1543,
      "đất": 1544,
      "tham": 1545,
      "bất": 1546,
      "đổi": 1547,
      "giờ": 1548,
      "##el": 1549,
      "tho": 1550,
      "quyền": 1551,
      "chiến": 1552,
      "000": 1553,
      "phẩm": 1554,
      "##ởi": 1555,
      "##ám": 1556,
      "chiê": 1557,
      "tích": 1558,
      "khoảng": 1559,
      "##̆n": 1560,
      "khó": 1561,
      "gì": 1562,
      "tuổi": 1563,
      "##ẳng": 1564,
      "vốn": 1565,
      "##̉i": 1566,
      "xây": 1567,
      "##ậu": 1568,
      "chế": 1569,
      "ăn": 1570,
      "sách": 1571,
      "Ngo": 1572,
      "sống": 1573,
      "vậy": 1574,
      "nhiệm": 1575,
      "tốt": 1576,
      "ngoài": 1577,
      "vừa": 1578,
      "bu": 1579,
      "##uồn": 1580,
      "chứng": 1581,
      "12": 1582,
      "bắt": 1583,
      "kỳ": 1584,
      "sát": 1585,
      "##êm": 1586,
      "thứ": 1587,
      "vấn": 1588,
      "chuyển": 1589,
      "Văn": 1590,
      "cáo": 1591,
      "đội": 1592,
      "đơn": 1593,
      "##ôn": 1594,
      "##ấu": 1595,
      "ro": 1596,
      "lợi": 1597,
      "kiến": 1598,
      "đánh": 1599,
      "##ìm": 1600,
      "##ẩn": 1601,
      "biệt": 1602,
      "##ễ": 1603,
      "muô": 1604,
      "bố": 1605,
      "nhập": 1606,
      "rồi": 1607,
      "loại": 1608,
      "##úp": 1609,
      "ngân": 1610,
      "US": 1611,
      "bà": 1612,
      "phố": 1613,
      "khiến": 1614,
      "##uyến": 1615,
      "kiểm": 1616,
      "phủ": 1617,
      "Chính": 1618,
      "bình": 1619,
      "Tổng": 1620,
      "đều": 1621,
      "hoàn": 1622,
      "##̀y": 1623,
      "##ảy": 1624,
      "##ừng": 1625,
      "##uôn": 1626,
      "đình": 1627,
      "cảnh": 1628,
      "##ic": 1629,
      "##ượ": 1630,
      "thêm": 1631,
      "đạt": 1632,
      "cứu": 1633,
      "Tuy": 1634,
      "lập": 1635,
      "USD": 1636,
      "11": 1637,
      "dùng": 1638,
      "thiết": 1639,
      "chi": 1640,
      "##ửa": 1641,
      "##ũ": 1642,
      "sĩ": 1643,
      "gây": 1644,
      "Thủ": 1645,
      "##àu": 1646,
      "nghị": 1647,
      "ứng": 1648,
      "giúp": 1649,
      "nghĩ": 1650,
      "tượng": 1651,
      "##hi": 1652,
      "cảm": 1653,
      "trợ": 1654,
      "hoặc": 1655,
      "hướng": 1656,
      "quản": 1657,
      "sáng": 1658,
      "ban": 1659,
      "Các": 1660,
      "phạm": 1661,
      "Bình": 1662,
      "văn": 1663,
      "dẫn": 1664,
      "bên": 1665,
      "##ưới": 1666,
      "hạn": 1667,
      "tìm": 1668,
      "##ặp": 1669,
      "diện": 1670,
      "muốn": 1671,
      "kế": 1672,
      "##ầm": 1673,
      "##it": 1674,
      "hộ": 1675,
      "huyện": 1676,
      "trang": 1677,
      "ngành": 1678,
      "trẻ": 1679,
      "xử": 1680,
      "Ảnh": 1681,
      "##iền": 1682,
      "nếu": 1683,
      "quân": 1684,
      "##ép": 1685,
      "giữa": 1686,
      "đoàn": 1687,
      "tổng": 1688,
      "chí": 1689,
      "Cu": 1690,
      "biến": 1691,
      "nhau": 1692,
      "##ưu": 1693,
      "phiếu": 1694,
      "đấu": 1695,
      "phục": 1696,
      "nghệ": 1697,
      "tịch": 1698,
      "##ND": 1699,
      "sức": 1700,
      "Ô": 1701,
      "##iêm": 1702,
      "su": 1703,
      "hết": 1704,
      "giữ": 1705,
      "Thanh": 1706,
      "đặc": 1707,
      "##ặng": 1708,
      "cái": 1709,
      "tay": 1710,
      "##ĩnh": 1711,
      "mang": 1712,
      "bàn": 1713,
      "##óm": 1714,
      "##ược": 1715,
      "bao": 1716,
      "Chủ": 1717,
      "##at": 1718,
      "##as": 1719,
      "luật": 1720,
      "tiến": 1721,
      "cá": 1722,
      "##ẩu": 1723,
      "từng": 1724,
      "sơ": 1725,
      "biểu": 1726,
      "##ú": 1727,
      "##è": 1728,
      "##̣n": 1729,
      "200": 1730,
      "thuộc": 1731,
      "tiên": 1732,
      "hoạch": 1733,
      "chuyên": 1734,
      "Sau": 1735,
      "nguyên": 1736,
      "phân": 1737,
      "nữ": 1738,
      "##ìn": 1739,
      "lời": 1740,
      "Nhà": 1741,
      "thanh": 1742,
      "nhu": 1743,
      "kiện": 1744,
      "Ông": 1745,
      "##om": 1746,
      "##ẹp": 1747,
      "sao": 1748,
      "Minh": 1749,
      "vệ": 1750,
      "tên": 1751,
      "tướng": 1752,
      "##uống": 1753,
      "khẩu": 1754,
      "##il": 1755,
      "truyền": 1756,
      "xác": 1757,
      "nơi": 1758,
      "thân": 1759,
      "chung": 1760,
      "bỏ": 1761,
      "vàng": 1762,
      "mẹ": 1763,
      "chọn": 1764,
      "An": 1765,
      "lúc": 1766,
      "nguồn": 1767,
      "30": 1768,
      "thay": 1769,
      "Ngh": 1770,
      "trí": 1771,
      "bay": 1772,
      "Đại": 1773,
      "##ạy": 1774,
      "tiếng": 1775,
      "15": 1776,
      "##ac": 1777,
      "tranh": 1778,
      "phụ": 1779,
      "lịch": 1780,
      "liệu": 1781,
      "##út": 1782,
      "##ượt": 1783,
      "tử": 1784,
      "Thị": 1785,
      "##ền": 1786,
      "dài": 1787,
      "##ò": 1788,
      "xem": 1789,
      "mạng": 1790,
      "giáo": 1791,
      "rõ": 1792,
      "gó": 1793,
      "##áu": 1794,
      "minh": 1795,
      "đảm": 1796,
      "##is": 1797,
      "viện": 1798,
      "trả": 1799,
      "ký": 1800,
      "##ẫ": 1801,
      "##ro": 1802,
      "mục": 1803,
      "nội": 1804,
      "##ắp": 1805,
      "chuyện": 1806,
      "cuối": 1807,
      "chiếc": 1808,
      "Một": 1809,
      "mất": 1810,
      "ca": 1811,
      "##ồ": 1812,
      "đủ": 1813,
      "vùng": 1814,
      "mở": 1815,
      "hưởng": 1816,
      "chia": 1817,
      "tương": 1818,
      "##ữu": 1819,
      "mọi": 1820,
      "nữa": 1821,
      "mỗi": 1822,
      "gặp": 1823,
      "khả": 1824,
      "##iêu": 1825,
      "Hải": 1826,
      "luôn": 1827,
      "##ad": 1828,
      "vật": 1829,
      "yếu": 1830,
      "ươ": 1831,
      "thuật": 1832,
      "nạn": 1833,
      "xuống": 1834,
      "trận": 1835,
      "##iêng": 1836,
      "##us": 1837,
      "lãnh": 1838,
      "đẹp": 1839,
      "ngay": 1840,
      "##ch": 1841,
      "##id": 1842,
      "nhỏ": 1843,
      "khoản": 1844,
      "lệ": 1845,
      "##ậm": 1846,
      "trực": 1847,
      "##ol": 1848,
      "##CM": 1849,
      "biển": 1850,
      "kể": 1851,
      "##ỡ": 1852,
      "##ằm": 1853,
      "luận": 1854,
      "Bắc": 1855,
      "tiết": 1856,
      "hỗ": 1857,
      "chống": 1858,
      "khí": 1859,
      "cạnh": 1860,
      "đặt": 1861,
      "danh": 1862,
      "Du": 1863,
      "202": 1864,
      "Nga": 1865,
      "chuẩn": 1866,
      "đúng": 1867,
      "Thu": 1868,
      "xảy": 1869,
      "Ban": 1870,
      "Hội": 1871,
      "Lu": 1872,
      "đoạn": 1873,
      "Đức": 1874,
      "xét": 1875,
      "dù": 1876,
      "cửa": 1877,
      "##ắm": 1878,
      "vận": 1879,
      "Thành": 1880,
      "##ãi": 1881,
      "Đông": 1882,
      "##ừ": 1883,
      "phiên": 1884,
      "vợ": 1885,
      "áp": 1886,
      "bóng": 1887,
      "giả": 1888,
      "##âng": 1889,
      "Phó": 1890,
      "##éo": 1891,
      "ít": 1892,
      "Tôi": 1893,
      "cung": 1894,
      "suất": 1895,
      "nhóm": 1896,
      "nợ": 1897,
      "chồng": 1898,
      "nhanh": 1899,
      "tàu": 1900,
      "##em": 1901,
      "thích": 1902,
      "chương": 1903,
      "cố": 1904,
      "sang": 1905,
      "nghiệm": 1906,
      "##ến": 1907,
      "ai": 1908,
      "trạng": 1909,
      "đốc": 1910,
      "##ing": 1911,
      "trái": 1912,
      "đóng": 1913,
      "UB": 1914,
      "khăn": 1915,
      "##ẫu": 1916,
      "Hoàng": 1917,
      "cứ": 1918,
      "bởi": 1919,
      "Những": 1920,
      "phía": 1921,
      "Co": 1922,
      "chứ": 1923,
      "gái": 1924,
      "##ồm": 1925,
      "cực": 1926,
      "##ưng": 1927,
      "tuần": 1928,
      "thư": 1929,
      "lao": 1930,
      "lấy": 1931,
      "chơi": 1932,
      "mại": 1933,
      "##ửi": 1934,
      "nhằm": 1935,
      "##le": 1936,
      "Sơn": 1937,
      "##iếm": 1938,
      "##ích": 1939,
      "ấy": 1940,
      "góp": 1941,
      "tố": 1942,
      "hồi": 1943,
      "sân": 1944,
      "đời": 1945,
      "á": 1946,
      "ngoại": 1947,
      "##uyết": 1948,
      "##ter": 1949,
      "hỏi": 1950,
      "phép": 1951,
      "bài": 1952,
      "gồm": 1953,
      "nổi": 1954,
      "gọi": 1955,
      "mô": 1956,
      "tất": 1957,
      "Tu": 1958,
      "In": 1959,
      "tín": 1960,
      "hữu": 1961,
      "toán": 1962,
      "Lê": 1963,
      "##ịp": 1964,
      "khá": 1965,
      "vay": 1966,
      "càng": 1967,
      "tối": 1968,
      "Nhật": 1969,
      "mắt": 1970,
      "Thái": 1971,
      "thấp": 1972,
      "nông": 1973,
      "huy": 1974,
      "đáng": 1975,
      "thuế": 1976,
      "dưới": 1977,
      "UBND": 1978,
      "Khi": 1979,
      "To": 1980,
      "Trần": 1981,
      "Nếu": 1982,
      "trách": 1983,
      "Ngày": 1984,
      "rộng": 1985,
      "chiều": 1986,
      "cụ": 1987,
      "Đồng": 1988,
      "nền": 1989,
      "tấn": 1990,
      "Xu": 1991,
      "nâng": 1992,
      "Â": 1993,
      "sẻ": 1994,
      "##ra": 1995,
      "phim": 1996,
      "##̃i": 1997,
      "hã": 1998,
      "hôm": 1999,
      "Không": 2000,
      "đá": 2001,
      "Trước": 2002,
      "đăng": 2003,
      "##ưỡng": 2004,
      "Vi": 2005,
      "Do": 2006,
      "khoán": 2007,
      "đẩy": 2008,
      "lưu": 2009,
      "đông": 2010,
      "hậu": 2011,
      "giám": 2012,
      "phối": 2013,
      "Đây": 2014,
      "vu": 2015,
      "2018": 2016,
      "TT": 2017,
      "lĩnh": 2018,
      "Người": 2019,
      "tâ": 2020,
      "14": 2021,
      "18": 2022,
      "ghi": 2023,
      "kỹ": 2024,
      "thật": 2025,
      "sắc": 2026,
      "hiểu": 2027,
      "dục": 2028,
      "13": 2029,
      "câu": 2030,
      "16": 2031,
      "ba": 2032,
      "Có": 2033,
      "cây": 2034,
      "Dương": 2035,
      "đu": 2036,
      "vọng": 2037,
      "nhìn": 2038,
      "nghĩa": 2039,
      "tải": 2040,
      "tinh": 2041,
      "cán": 2042,
      "##ét": 2043,
      "##ốn": 2044,
      "Đảng": 2045,
      "thuận": 2046,
      "chết": 2047,
      "hồ": 2048,
      "vòng": 2049,
      "quận": 2050,
      "căn": 2051,
      "trò": 2052,
      "đa": 2053,
      "##oo": 2054,
      "riêng": 2055,
      "HCM": 2056,
      "lãi": 2057,
      "Tây": 2058,
      "100": 2059,
      "25": 2060,
      "di": 2061,
      "Hồ": 2062,
      "Tại": 2063,
      "tội": 2064,
      "chạy": 2065,
      "Nhưng": 2066,
      "Ngọc": 2067,
      "khoa": 2068,
      "Với": 2069,
      "Hiện": 2070,
      "cộng": 2071,
      "đồ": 2072,
      "bé": 2073,
      "môi": 2074,
      "chân": 2075,
      "gửi": 2076,
      "châu": 2077,
      "dung": 2078,
      "tuyển": 2079,
      "##os": 2080,
      "chấp": 2081,
      "dễ": 2082,
      "2017": 2083,
      "thắng": 2084,
      "đảo": 2085,
      "tuyến": 2086,
      "##un": 2087,
      "Quy": 2088,
      "Long": 2089,
      "lộ": 2090,
      "##ạp": 2091,
      "soát": 2092,
      "độc": 2093,
      "chịu": 2094,
      "##ed": 2095,
      "##um": 2096,
      "cử": 2097,
      "chú": 2098,
      "Á": 2099,
      "phản": 2100,
      "Ngoài": 2101,
      "thiếu": 2102,
      "Điều": 2103,
      "dầu": 2104,
      "Liên": 2105,
      "lòng": 2106,
      "Xuân": 2107,
      "đàn": 2108,
      "Quảng": 2109,
      "thần": 2110,
      "đầy": 2111,
      "2016": 2112,
      "phá": 2113,
      "nguy": 2114,
      "khỏi": 2115,
      "đứng": 2116,
      "thuốc": 2117,
      "##úc": 2118,
      "##ur": 2119,
      "phong": 2120,
      "17": 2121,
      "bác": 2122,
      "23": 2123,
      "##ag": 2124,
      "VN": 2125,
      "2019": 2126,
      "##ex": 2127,
      "##àm": 2128,
      "Bản": 2129,
      "Trường": 2130,
      "hại": 2131,
      "ổn": 2132,
      "đâu": 2133,
      "Lan": 2134,
      "Từ": 2135,
      "hiểm": 2136,
      "nghiên": 2137,
      "thiện": 2138,
      "bước": 2139,
      "mẫu": 2140,
      "vài": 2141,
      "bổ": 2142,
      "kỷ": 2143,
      "hoa": 2144,
      "tưởng": 2145,
      "Sở": 2146,
      "2020": 2147,
      "vượt": 2148,
      "##uyệt": 2149,
      "##uôi": 2150,
      "##ếp": 2151,
      "tuyên": 2152,
      "22": 2153,
      "vai": 2154,
      "thúc": 2155,
      "nằm": 2156,
      "xin": 2157,
      "##iễ": 2158,
      "cường": 2159,
      "thoại": 2160,
      "2015": 2161,
      "24": 2162,
      "quý": 2163,
      "cải": 2164,
      "khẳng": 2165,
      "màu": 2166,
      "tức": 2167,
      "hòa": 2168,
      "##ốt": 2169,
      "Ngân": 2170,
      "50": 2171,
      "Viet": 2172,
      "trai": 2173,
      "Ky": 2174,
      "nghiêm": 2175,
      "lễ": 2176,
      "##ot": 2177,
      "đêm": 2178,
      "hạ": 2179,
      "tai": 2180,
      "21": 2181,
      "nam": 2182,
      "kiếm": 2183,
      "Hoa": 2184,
      "mùa": 2185,
      "Hòa": 2186,
      "duy": 2187,
      "DN": 2188,
      "ke": 2189,
      "##èo": 2190,
      "dành": 2191,
      "ương": 2192,
      "##ứa": 2193,
      "phạt": 2194,
      "chắc": 2195,
      "##ảnh": 2196,
      "##ựa": 2197,
      "nghe": 2198,
      "kéo": 2199,
      "niên": 2200,
      "khởi": 2201,
      "ngờ": 2202,
      "xúc": 2203,
      "chỉnh": 2204,
      "xa": 2205,
      "khỏ": 2206,
      "khỏe": 2207,
      "ủy": 2208,
      "nặng": 2209,
      "họp": 2210,
      "thôi": 2211,
      "##ap": 2212,
      "##ọn": 2213,
      "lâu": 2214,
      "kê": 2215,
      "buổi": 2216,
      "lớp": 2217,
      "##VN": 2218,
      "trì": 2219,
      "chiếm": 2220,
      "Quang": 2221,
      "##and": 2222,
      "phù": 2223,
      "nhạc": 2224,
      "tiện": 2225,
      "thảo": 2226,
      "Phú": 2227,
      "Nguyên": 2228,
      "##eb": 2229,
      "Ủy": 2230,
      "mưa": 2231,
      "đôi": 2232,
      "nghề": 2233,
      "sớm": 2234,
      "##ớ": 2235,
      "biên": 2236,
      "sai": 2237,
      "giai": 2238,
      "Hàn": 2239,
      "thí": 2240,
      "##óc": 2241,
      "Vì": 2242,
      "phút": 2243,
      "Giang": 2244,
      "sâu": 2245,
      "mã": 2246,
      "Tài": 2247,
      "Giám": 2248,
      "trao": 2249,
      "hút": 2250,
      "##ip": 2251,
      "Năm": 2252,
      "##ỉnh": 2253,
      "môn": 2254,
      "##one": 2255,
      "tầng": 2256,
      "##ank": 2257,
      "tốc": 2258,
      "##ut": 2259,
      "vui": 2260,
      "Phạm": 2261,
      "nuôi": 2262,
      "vũ": 2263,
      "##ew": 2264,
      "lửa": 2265,
      "Phương": 2266,
      "##iễm": 2267,
      "đào": 2268,
      "Chỉ": 2269,
      "2014": 2270,
      "Đà": 2271,
      "dòng": 2272,
      "##ón": 2273,
      "nghỉ": 2274,
      "Nhiều": 2275,
      "##ão": 2276,
      "Vũ": 2277,
      "##ầy": 2278,
      "mong": 2279,
      "##ent": 2280,
      "giống": 2281,
      "##ir": 2282,
      "mấy": 2283,
      "Việc": 2284,
      "cháu": 2285,
      "viết": 2286,
      "xuyên": 2287,
      "##TC": 2288,
      "Luật": 2289,
      "ninh": 2290,
      "giấy": 2291,
      "Phòng": 2292,
      "ưu": 2293,
      "##ặn": 2294,
      "âm": 2295,
      "Để": 2296,
      "biện": 2297,
      "thất": 2298,
      "phường": 2299,
      "sư": 2300,
      "Dự": 2301,
      "áo": 2302,
      "phóng": 2303,
      "Kỳ": 2304,
      "tệ": 2305,
      "Tân": 2306,
      "Ninh": 2307,
      "lược": 2308,
      "Kim": 2309,
      "Hu": 2310,
      "Thế": 2311,
      "Hồng": 2312,
      "lương": 2313,
      "buộc": 2314,
      "vư": 2315,
      "gh": 2316,
      "Chí": 2317,
      "##ủng": 2318,
      "mắc": 2319,
      "Thông": 2320,
      "Chúng": 2321,
      "tái": 2322,
      "thôn": 2323,
      "chỗ": 2324,
      "dấu": 2325,
      "thăm": 2326,
      "##ấm": 2327,
      "##ak": 2328,
      "Kho": 2329,
      "xấu": 2330,
      "nhuận": 2331,
      "thủy": 2332,
      "thẩm": 2333,
      "khối": 2334,
      "tránh": 2335,
      "tạm": 2336,
      "TH": 2337,
      "bầu": 2338,
      "miền": 2339,
      "Phát": 2340,
      "cấu": 2341,
      "Pháp": 2342,
      "500": 2343,
      "uống": 2344,
      "2013": 2345,
      "mối": 2346,
      "thuê": 2347,
      "phê": 2348,
      "đáp": 2349,
      "ngôi": 2350,
      "nhiễm": 2351,
      "nóng": 2352,
      "thái": 2353,
      "##ow": 2354,
      "siêu": 2355,
      "tòa": 2356,
      "##ine": 2357,
      "quay": 2358,
      "Bên": 2359,
      "nghi": 2360,
      "Châu": 2361,
      "quán": 2362,
      "khủng": 2363,
      "Đo": 2364,
      "cam": 2365,
      "40": 2366,
      "Tuấn": 2367,
      "thưởng": 2368,
      "mặc": 2369,
      "Kinh": 2370,
      "Mai": 2371,
      "hãng": 2372,
      "Bảo": 2373,
      "##ịnh": 2374,
      "lựa": 2375,
      "Cục": 2376,
      "suy": 2377,
      "Bà": 2378,
      "Nghị": 2379,
      "da": 2380,
      "Tiên": 2381,
      "27": 2382,
      "đổ": 2383,
      "sông": 2384,
      "26": 2385,
      "đau": 2386,
      "ma": 2387,
      "nhờ": 2388,
      "vững": 2389,
      "cân": 2390,
      "2012": 2391,
      "bức": 2392,
      "28": 2393,
      "tỏ": 2394,
      "##uốt": 2395,
      "hạng": 2396,
      "trú": 2397,
      "Âu": 2398,
      "chữa": 2399,
      "kích": 2400,
      "Linh": 2401,
      "cháy": 2402,
      "xanh": 2403,
      "thử": 2404,
      "##òn": 2405,
      "ko": 2406,
      "Tết": 2407,
      "Đến": 2408,
      "##ẵn": 2409,
      "Còn": 2410,
      "##ẵng": 2411,
      "họa": 2412,
      "khắc": 2413,
      "in": 2414,
      "Huy": 2415,
      "tầm": 2416,
      "lệnh": 2417,
      "thiệt": 2418,
      "chẳng": 2419,
      "chờ": 2420,
      "nhẹ": 2421,
      "Hai": 2422,
      "ích": 2423,
      "trời": 2424,
      "##ion": 2425,
      "sàn": 2426,
      "hát": 2427,
      "Báo": 2428,
      "chuyến": 2429,
      "sửa": 2430,
      "rút": 2431,
      "Le": 2432,
      "nhớ": 2433,
      "##ain": 2434,
      "loạt": 2435,
      "##ig": 2436,
      "xếp": 2437,
      "Nẵng": 2438,
      "đỏ": 2439,
      "thác": 2440,
      "Về": 2441,
      "##re": 2442,
      "dưỡng": 2443,
      "quanh": 2444,
      "sẵn": 2445,
      "bày": 2446,
      "chăm": 2447,
      "##iềm": 2448,
      "cập": 2449,
      "kịp": 2450,
      "2011": 2451,
      "Thương": 2452,
      "Tập": 2453,
      "nhiệt": 2454,
      "may": 2455,
      "Cơ": 2456,
      "cục": 2457,
      "khám": 2458,
      "máu": 2459,
      "##LV": 2460,
      "thẳng": 2461,
      "Dũng": 2462,
      "GD": 2463,
      "đe": 2464,
      "NH": 2465,
      "nối": 2466,
      "##̣a": 2467,
      "29": 2468,
      "khóa": 2469,
      "Ind": 2470,
      "vẻ": 2471,
      "##ói": 2472,
      "chặt": 2473,
      "coi": 2474,
      "cắt": 2475,
      "sung": 2476,
      "##ump": 2477,
      "Nhân": 2478,
      "đón": 2479,
      "song": 2480,
      "##iv": 2481,
      "km": 2482,
      "CP": 2483,
      "thỏa": 2484,
      "nhấn": 2485,
      "lái": 2486,
      "tộc": 2487,
      "vong": 2488,
      "Và": 2489,
      "HLV": 2490,
      "Bí": 2491,
      "199": 2492,
      "##TV": 2493,
      "##co": 2494,
      "ước": 2495,
      "##ợt": 2496,
      "##ãn": 2497,
      "ngồi": 2498,
      "lượt": 2499,
      "cận": 2500,
      "Re": 2501,
      "Thứ": 2502,
      "chóng": 2503,
      "Lo": 2504,
      "khán": 2505,
      "Bệnh": 2506,
      "thậm": 2507,
      "bảng": 2508,
      "rủ": 2509,
      "Gia": 2510,
      "##te": 2511,
      "ngại": 2512,
      "lai": 2513,
      "##NH": 2514,
      "quen": 2515,
      "nghèo": 2516,
      "ly": 2517,
      "cũ": 2518,
      "cầm": 2519,
      "ngắn": 2520,
      "Đối": 2521,
      "##õ": 2522,
      "Hiệp": 2523,
      "Chi": 2524,
      "##ue": 2525,
      "gắn": 2526,
      "tắc": 2527,
      "##iếp": 2528,
      "hôn": 2529,
      "Ơ": 2530,
      "khổ": 2531,
      "Trump": 2532,
      "##lo": 2533,
      "đột": 2534,
      "##ly": 2535,
      "Bu": 2536,
      "35": 2537,
      "dạng": 2538,
      "niệm": 2539,
      "màn": 2540,
      "Hùng": 2541,
      "đương": 2542,
      "tồn": 2543,
      "##ụp": 2544,
      "sắp": 2545,
      "Triều": 2546,
      "2010": 2547,
      "Tiến": 2548,
      "hạt": 2549,
      "31": 2550,
      "quỹ": 2551,
      "##ab": 2552,
      "trồng": 2553,
      "nắm": 2554,
      "HĐ": 2555,
      "quê": 2556,
      "##art": 2557,
      "làng": 2558,
      "Giá": 2559,
      "kém": 2560,
      "Đình": 2561,
      "lạc": 2562,
      "tặng": 2563,
      "##SE": 2564,
      "lẽ": 2565,
      "##NN": 2566,
      "##ton": 2567,
      "sợ": 2568,
      "can": 2569,
      "giành": 2570,
      "Khánh": 2571,
      "thừa": 2572,
      "hải": 2573,
      "Ở": 2574,
      "dừng": 2575,
      "##ụt": 2576,
      "Cũng": 2577,
      "ngủ": 2578,
      "thụ": 2579,
      "##ỏi": 2580,
      "ấn": 2581,
      "nêu": 2582,
      "nỗ": 2583,
      "cha": 2584,
      "trụ": 2585,
      "ánh": 2586,
      "lỗi": 2587,
      "##av": 2588,
      "luyện": 2589,
      "bạc": 2590,
      "Đoàn": 2591,
      "Yên": 2592,
      "truy": 2593,
      "suốt": 2594,
      "##ục": 2595,
      "ngăn": 2596,
      "dần": 2597,
      "cánh": 2598,
      "trương": 2599,
      "phúc": 2600,
      "chắn": 2601,
      "nghìn": 2602,
      "##̀nh": 2603,
      "Đầu": 2604,
      "60": 2605,
      "tờ": 2606,
      "món": 2607,
      "khảo": 2608,
      "##NG": 2609,
      "Lâm": 2610,
      "TTX": 2611,
      "trăm": 2612,
      "mật": 2613,
      "thiên": 2614,
      "Cô": 2615,
      "tận": 2616,
      "đọc": 2617,
      "##pp": 2618,
      "trải": 2619,
      "##ard": 2620,
      "##PT": 2621,
      "New": 2622,
      "kg": 2623,
      "trắng": 2624,
      "Phúc": 2625,
      "##uối": 2626,
      "Đó": 2627,
      "Ba": 2628,
      "rừng": 2629,
      "liệt": 2630,
      "##ov": 2631,
      "Hưng": 2632,
      "lắm": 2633,
      "ĐT": 2634,
      "Hương": 2635,
      "đích": 2636,
      "##ọt": 2637,
      "Lý": 2638,
      "quần": 2639,
      "##nam": 2640,
      "dạy": 2641,
      "##hone": 2642,
      "nu": 2643,
      "tuy": 2644,
      "thịt": 2645,
      "lũ": 2646,
      "Thời": 2647,
      "thơ": 2648,
      "sóng": 2649,
      "giản": 2650,
      "TTXVN": 2651,
      "phổ": 2652,
      "##ik": 2653,
      "Khu": 2654,
      "##ce": 2655,
      "ủng": 2656,
      "nổ": 2657,
      "Cảnh": 2658,
      "kiểu": 2659,
      "sàng": 2660,
      "##ộp": 2661,
      "thoát": 2662,
      "gốc": 2663,
      "dây": 2664,
      "PV": 2665,
      "hấp": 2666,
      "Cụ": 2667,
      "rơi": 2668,
      "Sy": 2669,
      "binh": 2670,
      "Sự": 2671,
      "giác": 2672,
      "rủi": 2673,
      "##ran": 2674,
      "xong": 2675,
      "ru": 2676,
      "Quân": 2677,
      "đợt": 2678,
      "##TT": 2679,
      "kim": 2680,
      "bánh": 2681,
      "Hóa": 2682,
      "thú": 2683,
      "##ie": 2684,
      "##ark": 2685,
      "dịp": 2686,
      "đảng": 2687,
      "sạch": 2688,
      "phi": 2689,
      "Al": 2690,
      "thao": 2691,
      "Con": 2692,
      "Trang": 2693,
      "khuyến": 2694,
      "##ẹn": 2695,
      "##ul": 2696,
      "chục": 2697,
      "giàu": 2698,
      "##AN": 2699,
      "Ngoại": 2700,
      "gió": 2701,
      "cậu": 2702,
      "bão": 2703,
      "##tr": 2704,
      "##ck": 2705,
      "hơi": 2706,
      "Trưởng": 2707,
      "chợ": 2708,
      "##OV": 2709,
      "túy": 2710,
      "thầy": 2711,
      "Bạn": 2712,
      "tạp": 2713,
      "dữ": 2714,
      "cấm": 2715,
      "##ID": 2716,
      "chậm": 2717,
      "hãy": 2718,
      "##ộn": 2719,
      "Trên": 2720,
      "xung": 2721,
      "xăng": 2722,
      "tiểu": 2723,
      "phán": 2724,
      "đứa": 2725,
      "300": 2726,
      "đòi": 2727,
      "##bank": 2728,
      "cự": 2729,
      "bật": 2730,
      "thua": 2731,
      "Phong": 2732,
      "tuyệt": 2733,
      "kẻ": 2734,
      "ĐH": 2735,
      "45": 2736,
      "Độ": 2737,
      "đen": 2738,
      "nhật": 2739,
      "nhắc": 2740,
      "bối": 2741,
      "##ist": 2742,
      "Ngay": 2743,
      "lan": 2744,
      "SN": 2745,
      "tù": 2746,
      "Ar": 2747,
      "mộ": 2748,
      "khúc": 2749,
      "##ess": 2750,
      "hầu": 2751,
      "phận": 2752,
      "Dù": 2753,
      "Đặc": 2754,
      "##iếng": 2755,
      "phó": 2756,
      "chứa": 2757,
      "hy": 2758,
      "##est": 2759,
      "mẽ": 2760,
      "Vụ": 2761,
      "##ria": 2762,
      "##ỏng": 2763,
      "lá": 2764,
      "chụp": 2765,
      "ràng": 2766,
      "##ook": 2767,
      "Nghệ": 2768,
      "lạ": 2769,
      "đoán": 2770,
      "lạnh": 2771,
      "dõi": 2772,
      "núi": 2773,
      "niềm": 2774,
      "Viện": 2775,
      "##amp": 2776,
      "hài": 2777,
      "Kết": 2778,
      "mừng": 2779,
      "kêu": 2780,
      "sóc": 2781,
      "đám": 2782,
      "Thủy": 2783,
      "xo": 2784,
      "##ill": 2785,
      "Mo": 2786,
      "Vin": 2787,
      "chở": 2788,
      "quảng": 2789,
      "mời": 2790,
      "##ệt": 2791,
      "Phan": 2792,
      "lỗ": 2793,
      "thầu": 2794,
      "Syria": 2795,
      "##ald": 2796,
      "lục": 2797,
      "##II": 2798,
      "Thực": 2799,
      "Vĩnh": 2800,
      "CS": 2801,
      "Vietnam": 2802,
      "đàm": 2803,
      "36": 2804,
      "70": 2805,
      "##ty": 2806,
      "Hàng": 2807,
      "Sh": 2808,
      "##ĐT": 2809,
      "Họ": 2810,
      "thiệu": 2811,
      "##ươi": 2812,
      "Thường": 2813,
      "che": 2814,
      "Dân": 2815,
      "thải": 2816,
      "Em": 2817,
      "miễn": 2818,
      "sỹ": 2819,
      "nộp": 2820,
      "vé": 2821,
      "Ấn": 2822,
      "Được": 2823,
      "ngược": 2824,
      "Nguồn": 2825,
      "Biên": 2826,
      "bí": 2827,
      "hạnh": 2828,
      "Cùng": 2829,
      "đua": 2830,
      "TS": 2831,
      "hoàng": 2832,
      "bại": 2833,
      "198": 2834,
      "đỡ": 2835,
      "##ore": 2836,
      "Tư": 2837,
      "##ber": 2838,
      "##ớt": 2839,
      "đấy": 2840,
      "nửa": 2841,
      "##ềm": 2842,
      "tim": 2843,
      "##vid": 2844,
      "súng": 2845,
      "gắng": 2846,
      "##́a": 2847,
      "chặn": 2848,
      "cà": 2849,
      "đem": 2850,
      "Vinh": 2851,
      "bang": 2852,
      "băng": 2853,
      "##ĩa": 2854,
      "ha": 2855,
      "vươ": 2856,
      "St": 2857,
      "##ãy": 2858,
      "Thiên": 2859,
      "bền": 2860,
      "liền": 2861,
      "mỹ": 2862,
      "lẻ": 2863,
      "gói": 2864,
      "dựa": 2865,
      "gấp": 2866,
      "Vân": 2867,
      "##ines": 2868,
      "##se": 2869,
      "sắt": 2870,
      "##ín": 2871,
      "thằng": 2872,
      "##ah": 2873,
      "Sáng": 2874,
      "Ro": 2875,
      "linh": 2876,
      "##st": 2877,
      "sữa": 2878,
      "Cần": 2879,
      "Man": 2880,
      "lắng": 2881,
      "##net": 2882,
      "32": 2883,
      "Giao": 2884,
      "hoảng": 2885,
      "trừ": 2886,
      "thẻ": 2887,
      "nguyện": 2888,
      "la": 2889,
      "bắn": 2890,
      "kịch": 2891,
      "chào": 2892,
      "hu": 2893,
      "Mặc": 2894,
      "cười": 2895,
      "thách": 2896,
      "80": 2897,
      "hủ": 2898,
      "tôn": 2899,
      "2009": 2900,
      "##ộm": 2901,
      "duyệt": 2902,
      "đỉnh": 2903,
      "đợi": 2904,
      "##ướp": 2905,
      "cưới": 2906,
      "chút": 2907,
      "La": 2908,
      "##HCM": 2909,
      "ASE": 2910,
      "kia": 2911,
      "địch": 2912,
      "Sài": 2913,
      "cặp": 2914,
      "dàng": 2915,
      "trữ": 2916,
      "##ênh": 2917,
      "Lào": 2918,
      "Thuận": 2919,
      "TPHCM": 2920,
      "kiệm": 2921,
      "hương": 2922,
      "tiềm": 2923,
      "##ít": 2924,
      "Chương": 2925,
      "vn": 2926,
      "##ượu": 2927,
      "rời": 2928,
      "Cổ": 2929,
      "The": 2930,
      "Giáo": 2931,
      "kênh": 2932,
      "ASEAN": 2933,
      "niêm": 2934,
      "Cao": 2935,
      "Nha": 2936,
      "dương": 2937,
      "Đào": 2938,
      "chữ": 2939,
      "##onald": 2940,
      "chiếu": 2941,
      "mái": 2942,
      "Định": 2943,
      "ơn": 2944,
      "hiệp": 2945,
      "lẫn": 2946,
      "Quyết": 2947,
      "dao": 2948,
      "##ack": 2949,
      "cơn": 2950,
      "khẩn": 2951,
      "pha": 2952,
      "ngừng": 2953,
      "##ian": 2954,
      "Tiền": 2955,
      "90": 2956,
      "giết": 2957,
      "lưới": 2958,
      "##op": 2959,
      "Quản": 2960,
      "ngang": 2961,
      "dứt": 2962,
      "nắng": 2963,
      "bào": 2964,
      "iP": 2965,
      "Trọng": 2966,
      "Xây": 2967,
      "##ina": 2968,
      "Tháng": 2969,
      "trấn": 2970,
      "rau": 2971,
      "##ôm": 2972,
      "Gòn": 2973,
      "Br": 2974,
      "dụ": 2975,
      "##ebook": 2976,
      "Điện": 2977,
      "sứ": 2978,
      "Duy": 2979,
      "rác": 2980,
      "hủy": 2981,
      "Cường": 2982,
      "##up": 2983,
      "##az": 2984,
      "##acebook": 2985,
      "rượu": 2986,
      "Thắng": 2987,
      "thiểu": 2988,
      "bờ": 2989,
      "thai": 2990,
      "bè": 2991,
      "gỡ": 2992,
      "kính": 2993,
      "ngàn": 2994,
      "cướp": 2995,
      "Trương": 2996,
      "buồn": 2997,
      "bãi": 2998,
      "vỡ": 2999,
      "chốt": 3000,
      "##ld": 3001,
      "quà": 3002,
      "##if": 3003,
      "tấm": 3004,
      "khắp": 3005,
      "gương": 3006,
      "EU": 3007,
      "mê": 3008,
      "Chiến": 3009,
      "mềm": 3010,
      "phức": 3011,
      "căng": 3012,
      "Jo": 3013,
      "yên": 3014,
      "01": 3015,
      "kháng": 3016,
      "##ort": 3017,
      "thận": 3018,
      "##ague": 3019,
      "##Ư": 3020,
      "yết": 3021,
      "##ne": 3022,
      "dị": 3023,
      "cựu": 3024,
      "cuốn": 3025,
      "bồi": 3026,
      "gà": 3027,
      "tụ": 3028,
      "thuyết": 3029,
      "dọa": 3030,
      "tùy": 3031,
      "Mal": 3032,
      "lối": 3033,
      "tri": 3034,
      "Inter": 3035,
      "rẻ": 3036,
      "Khoa": 3037,
      "Hữu": 3038,
      "Đội": 3039,
      "##ib": 3040,
      "400": 3041,
      "ngũ": 3042,
      "##ond": 3043,
      "Số": 3044,
      "Hy": 3045,
      "Cộng": 3046,
      "##ok": 3047,
      "ngôn": 3048,
      "CA": 3049,
      "##sia": 3050,
      "##ity": 3051,
      "##ồn": 3052,
      "Huế": 3053,
      "sh": 3054,
      "33": 3055,
      "Mar": 3056,
      "Tâm": 3057,
      "Phi": 3058,
      "Covid": 3059,
      "tung": 3060,
      "khiển": 3061,
      "lạm": 3062,
      "Cách": 3063,
      "Nông": 3064,
      "nhé": 3065,
      "ép": 3066,
      "buôn": 3067,
      "League": 3068,
      "Toàn": 3069,
      "##ry": 3070,
      "##ich": 3071,
      "hè": 3072,
      "mơ": 3073,
      "đừng": 3074,
      "ngon": 3075,
      "sạn": 3076,
      "phú": 3077,
      "hề": 3078,
      "khích": 3079,
      "trúc": 3080,
      "chấm": 3081,
      "Bùi": 3082,
      "Thượng": 3083,
      "Chị": 3084,
      "##mp": 3085,
      "tá": 3086,
      "Mu": 3087,
      "##̉m": 3088,
      "##ev": 3089,
      "Qua": 3090,
      "##CB": 3091,
      "chẽ": 3092,
      "thập": 3093,
      "Sa": 3094,
      "chạm": 3095,
      "Lương": 3096,
      "Giải": 3097,
      "##Ê": 3098,
      "gạo": 3099,
      "197": 3100,
      "Võ": 3101,
      "nhiêu": 3102,
      "tươi": 3103,
      "So": 3104,
      "giật": 3105,
      "##CC": 3106,
      "tóc": 3107,
      "##GT": 3108,
      "mai": 3109,
      "kèm": 3110,
      "Bar": 3111,
      "túi": 3112,
      "bây": 3113,
      "##io": 3114,
      "##lip": 3115,
      "tỏa": 3116,
      "My": 3117,
      "##ell": 3118,
      "BH": 3119,
      "34": 3120,
      "Cuộc": 3121,
      "Lúc": 3122,
      "37": 3123,
      "trích": 3124,
      "##iz": 3125,
      "Tin": 3126,
      "chàng": 3127,
      "huyết": 3128,
      "già": 3129,
      "Phước": 3130,
      "2021": 3131,
      "Cho": 3132,
      "Vương": 3133,
      "##ers": 3134,
      "đoạt": 3135,
      "à": 3136,
      "ung": 3137,
      "##ones": 3138,
      "##uro": 3139,
      "lừa": 3140,
      "##ợn": 3141,
      "##kr": 3142,
      "##ụy": 3143,
      "ngữ": 3144,
      "CL": 3145,
      "trào": 3146,
      "Đài": 3147,
      "App": 3148,
      "đuổi": 3149,
      "Biển": 3150,
      "ngoái": 3151,
      "##ãng": 3152,
      "Index": 3153,
      "Cup": 3154,
      "trộm": 3155,
      "hào": 3156,
      "Mỗi": 3157,
      "mãi": 3158,
      "THPT": 3159,
      "chấn": 3160,
      "ví": 3161,
      "Tình": 3162,
      "trật": 3163,
      "lâm": 3164,
      "đèn": 3165,
      "hă": 3166,
      "ẩn": 3167,
      "vo": 3168,
      "web": 3169,
      "Tất": 3170,
      "##th": 3171,
      "vết": 3172,
      "xế": 3173,
      "khấu": 3174,
      "uy": 3175,
      "thuyền": 3176,
      "hẹn": 3177,
      "tiêm": 3178,
      "huấn": 3179,
      "Bởi": 3180,
      "##ff": 3181,
      "ngập": 3182,
      "iPhone": 3183,
      "đẳng": 3184,
      "nỗi": 3185,
      "mắn": 3186,
      "Chiều": 3187,
      "Sing": 3188,
      "TNH": 3189,
      "##ậc": 3190,
      "dáng": 3191,
      "tháo": 3192,
      "trốn": 3193,
      "Iran": 3194,
      "bạch": 3195,
      "lô": 3196,
      "##ub": 3197,
      "gỗ": 3198,
      "Đỗ": 3199,
      "38": 3200,
      "TNHH": 3201,
      "##ord": 3202,
      "Ngô": 3203,
      "Sam": 3204,
      "Tỉnh": 3205,
      "trúng": 3206,
      "2008": 3207,
      "cảng": 3208,
      "trưng": 3209,
      "bọn": 3210,
      "CTC": 3211,
      "bậc": 3212,
      "góc": 3213,
      "ấm": 3214,
      "chuô": 3215,
      "xứ": 3216,
      "##ez": 3217,
      "TA": 3218,
      "hối": 3219,
      "Bài": 3220,
      "khuôn": 3221,
      "55": 3222,
      "phấn": 3223,
      "tán": 3224,
      "Tàu": 3225,
      "đãi": 3226,
      "lắp": 3227,
      "thép": 3228,
      "Kế": 3229,
      "##deo": 3230,
      "khung": 3231,
      "Lộc": 3232,
      "Kiểm": 3233,
      "lành": 3234,
      "hẳn": 3235,
      "##ri": 3236,
      "Vào": 3237,
      "quên": 3238,
      "Cầu": 3239,
      "video": 3240,
      "trạm": 3241,
      "trùng": 3242,
      "Facebook": 3243,
      "ngã": 3244,
      "rào": 3245,
      "mạch": 3246,
      "Vu": 3247,
      "Tĩnh": 3248,
      "dám": 3249,
      "Phil": 3250,
      "sổ": 3251,
      "bò": 3252,
      "##ec": 3253,
      "Ư": 3254,
      "Doanh": 3255,
      "trần": 3256,
      "sốt": 3257,
      "Apple": 3258,
      "Nghĩa": 3259,
      "##krain": 3260,
      "Thảo": 3261,
      "##ipp": 3262,
      "Hồi": 3263,
      "Chu": 3264,
      "trông": 3265,
      "CLB": 3266,
      "rối": 3267,
      "đập": 3268,
      "đạn": 3269,
      "đâm": 3270,
      "ngưỡng": 3271,
      "Bác": 3272,
      "Thơ": 3273,
      "Mạnh": 3274,
      "Ukrain": 3275,
      "thù": 3276,
      "##ắ": 3277,
      "mưu": 3278,
      "Mặt": 3279,
      "dậy": 3280,
      "tảng": 3281,
      "đức": 3282,
      "##ắk": 3283,
      "75": 3284,
      "loạn": 3285,
      "##line": 3286,
      "ghế": 3287,
      "##apore": 3288,
      "BĐ": 3289,
      "chảy": 3290,
      "##era": 3291,
      "mạc": 3292,
      "##ứt": 3293,
      "giam": 3294,
      "rà": 3295,
      "nét": 3296,
      "##ọc": 3297,
      "##uch": 3298,
      "##XH": 3299,
      "Đường": 3300,
      "COV": 3301,
      "Học": 3302,
      "##aw": 3303,
      "cản": 3304,
      "cơm": 3305,
      "bom": 3306,
      "Hạ": 3307,
      "Tính": 3308,
      "##alia": 3309,
      "Hơn": 3310,
      "Hậu": 3311,
      "Singapore": 3312,
      "##ớp": 3313,
      "COVID": 3314,
      "Chứng": 3315,
      "NHNN": 3316,
      "hâm": 3317,
      "Đặng": 3318,
      "giỏi": 3319,
      "##ick": 3320,
      "khen": 3321,
      "bó": 3322,
      "##ama": 3323,
      "kiên": 3324,
      "Đa": 3325,
      "huống": 3326,
      "##all": 3327,
      "02": 3328,
      "vườn": 3329,
      "09": 3330,
      "đà": 3331,
      "đáo": 3332,
      "Tấn": 3333,
      "Lai": 3334,
      "bữa": 3335,
      "Quỳnh": 3336,
      "the": 3337,
      "##aysia": 3338,
      "##ph": 3339,
      "nhũng": 3340,
      "hồng": 3341,
      "ngụ": 3342,
      "Vậy": 3343,
      "lợn": 3344,
      "nhảy": 3345,
      "##rus": 3346,
      "Air": 3347,
      "Hình": 3348,
      "thượng": 3349,
      "làn": 3350,
      "đài": 3351,
      "bạo": 3352,
      "Mới": 3353,
      "HN": 3354,
      "CN": 3355,
      "Tiếp": 3356,
      "Thống": 3357,
      "hiếm": 3358,
      "##son": 3359,
      "##Bank": 3360,
      "##ud": 3361,
      "##ax": 3362,
      "xóm": 3363,
      "gam": 3364,
      "##iếc": 3365,
      "xâm": 3366,
      "Malaysia": 3367,
      "tang": 3368,
      "lúa": 3369,
      "cú": 3370,
      "tổn": 3371,
      "thổ": 3372,
      "Tùng": 3373,
      "túc": 3374,
      "thảm": 3375,
      "600": 3376,
      "nhánh": 3377,
      "Đề": 3378,
      "giảng": 3379,
      "Lễ": 3380,
      "hứng": 3381,
      "##od": 3382,
      "##uter": 3383,
      "Cả": 3384,
      "##CK": 3385,
      "chúc": 3386,
      "nhượng": 3387,
      "HA": 3388,
      "hùng": 3389,
      "Can": 3390,
      "ngầm": 3391,
      "xưa": 3392,
      "Ukraine": 3393,
      "Loan": 3394,
      "Hợp": 3395,
      "##orld": 3396,
      "ngọt": 3397,
      "##TVT": 3398,
      "AF": 3399,
      "##onesia": 3400,
      "Ty": 3401,
      "Đinh": 3402,
      "khô": 3403,
      "đai": 3404,
      "dâm": 3405,
      "Is": 3406,
      "##ẩy": 3407,
      "nàng": 3408,
      "Cái": 3409,
      "xinh": 3410,
      "khóc": 3411,
      "Lao": 3412,
      "mũi": 3413,
      "05": 3414,
      "viêm": 3415,
      "##SC": 3416,
      "65": 3417,
      "42": 3418,
      "##ork": 3419,
      "thở": 3420,
      "39": 3421,
      "trại": 3422,
      "00": 3423,
      "##iệng": 3424,
      "đồn": 3425,
      "Lưu": 3426,
      "vĩ": 3427,
      "hộp": 3428,
      "Song": 3429,
      "Bằng": 3430,
      "hoang": 3431,
      "Indonesia": 3432,
      "Philipp": 3433,
      "Sp": 3434,
      "Kiên": 3435,
      "Camp": 3436,
      "Quý": 3437,
      "thang": 3438,
      "chó": 3439,
      "Cl": 3440,
      "Nói": 3441,
      "##ashi": 3442,
      "Huỳnh": 3443,
      "dày": 3444,
      "chuỗi": 3445,
      "miệng": 3446,
      "Nai": 3447,
      "ống": 3448,
      "ả": 3449,
      "##QT": 3450,
      "GTVT": 3451,
      "BV": 3452,
      "hư": 3453,
      "Lực": 3454,
      "Pr": 3455,
      "tiếc": 3456,
      "48": 3457,
      "##ịa": 3458,
      "thoái": 3459,
      "ngư": 3460,
      "Thọ": 3461,
      "##com": 3462,
      "##NT": 3463,
      "Nữ": 3464,
      "##ẫy": 3465,
      "bù": 3466,
      "bụng": 3467,
      "##ey": 3468,
      "loài": 3469,
      "nhắn": 3470,
      "nhị": 3471,
      "##LĐ": 3472,
      "chối": 3473,
      "ga": 3474,
      "08": 3475,
      "thùng": 3476,
      "đốt": 3477,
      "Ai": 3478,
      "03": 3479,
      "##man": 3480,
      "41": 3481,
      "lệch": 3482,
      "kín": 3483,
      "rửa": 3484,
      "##uters": 3485,
      "##ico": 3486,
      "As": 3487,
      "lây": 3488,
      "Hoàn": 3489,
      "##lymp": 3490,
      "clip": 3491,
      "##̣t": 3492,
      "Hôm": 3493,
      "Nó": 3494,
      "tràn": 3495,
      "Yo": 3496,
      "hỏng": 3497,
      "Su": 3498,
      "Hoài": 3499,
      "mệnh": 3500,
      "Diễn": 3501,
      "Lợi": 3502,
      "non": 3503,
      "43": 3504,
      "tốn": 3505,
      "##ite": 3506,
      "GDP": 3507,
      "##uồng": 3508,
      "cột": 3509,
      "giọng": 3510,
      "cãi": 3511,
      "Hằng": 3512,
      "Quan": 3513,
      "cứng": 3514,
      "##CN": 3515,
      "hỏa": 3516,
      "IS": 3517,
      "chăn": 3518,
      "đậu": 3519,
      "tây": 3520,
      "##ei": 3521,
      "##ail": 3522,
      "hiến": 3523,
      "World": 3524,
      "Nhất": 3525,
      "ôm": 3526,
      "Philippines": 3527,
      "Tuyên": 3528,
      "##eg": 3529,
      "al": 3530,
      "Olymp": 3531,
      "City": 3532,
      "điển": 3533,
      "##ep": 3534,
      "Tòa": 3535,
      "phẫu": 3536,
      "Thổ": 3537,
      "##sen": 3538,
      "não": 3539,
      "Là": 3540,
      "mát": 3541,
      "mốc": 3542,
      "##han": 3543,
      "ruột": 3544,
      "vinh": 3545,
      "huynh": 3546,
      "150": 3547,
      "Internet": 3548,
      "46": 3549,
      "hứa": 3550,
      "cờ": 3551,
      "##ãnh": 3552,
      "tật": 3553,
      "tru": 3554,
      "ne": 3555,
      "Hãy": 3556,
      "##sung": 3557,
      "##TM": 3558,
      "##ía": 3559,
      "virus": 3560,
      "Am": 3561,
      "VI": 3562,
      "Reuters": 3563,
      "HĐQT": 3564,
      "sắm": 3565,
      "Hiếu": 3566,
      "##nline": 3567,
      "va": 3568,
      "đắt": 3569,
      "Trà": 3570,
      "tường": 3571,
      "pháo": 3572,
      "nấu": 3573,
      "bốn": 3574,
      "ảo": 3575,
      "Quỹ": 3576,
      "##uchia": 3577,
      "than": 3578,
      "Park": 3579,
      "lầm": 3580,
      "800": 3581,
      "51": 3582,
      "##KS": 3583,
      "52": 3584,
      "196": 3585,
      "đền": 3586,
      "treo": 3587,
      "##ustr": 3588,
      "04": 3589,
      "47": 3590,
      "mực": 3591,
      "Làm": 3592,
      "CĐ": 3593,
      "CH": 3594,
      "xóa": 3595,
      "##ada": 3596,
      "tông": 3597,
      "Tăng": 3598,
      "bắc": 3599,
      "06": 3600,
      "chủng": 3601,
      "Chung": 3602,
      "##tô": 3603,
      "ngạch": 3604,
      "Thụy": 3605,
      "##to": 3606,
      "Campuchia": 3607,
      "fan": 3608,
      "trầm": 3609,
      "bùng": 3610,
      "trứng": 3611,
      "##CS": 3612,
      "Bl": 3613,
      "bến": 3614,
      "sút": 3615,
      "lọc": 3616,
      "07": 3617,
      "mùi": 3618,
      "Goo": 3619,
      "lãng": 3620,
      "##gle": 3621,
      "trục": 3622,
      "Real": 3623,
      "cương": 3624,
      "##ấc": 3625,
      "HO": 3626,
      "thăng": 3627,
      "lãm": 3628,
      "II": 3629,
      "VA": 3630,
      "sa": 3631,
      "Car": 3632,
      "49": 3633,
      "##und": 3634,
      "tả": 3635,
      "44": 3636,
      "Nhiệt": 3637,
      "bớt": 3638,
      "Samsung": 3639,
      "KH": 3640,
      "##coin": 3641,
      "ngừa": 3642,
      "ẩm": 3643,
      "xương": 3644,
      "sôi": 3645,
      "Di": 3646,
      "dâu": 3647,
      "mệt": 3648,
      "show": 3649,
      "Sinh": 3650,
      "##og": 3651,
      "bốc": 3652,
      "khoe": 3653,
      "Truyền": 3654,
      "Nhĩ": 3655,
      "And": 3656,
      "giấu": 3657,
      "Huyền": 3658,
      "vướng": 3659,
      "Un": 3660,
      "Donald": 3661,
      "##hn": 3662,
      "bia": 3663,
      "bê": 3664,
      "##mart": 3665,
      "quang": 3666,
      "vời": 3667,
      "##ast": 3668,
      "tôm": 3669,
      "700": 3670,
      "NA": 3671,
      "##ky": 3672,
      "##ụi": 3673,
      "##ona": 3674,
      "Thăng": 3675,
      "##EC": 3676,
      "VOV": 3677,
      "thuẫn": 3678,
      "Riêng": 3679,
      "phỏng": 3680,
      "com": 3681,
      "thờ": 3682,
      "Thúy": 3683,
      "lưng": 3684,
      "Phượng": 3685,
      "##ass": 3686,
      "mày": 3687,
      "canh": 3688,
      "NS": 3689,
      "##ẹt": 3690,
      "##ash": 3691,
      "CSGT": 3692,
      "Thư": 3693,
      "nhãn": 3694,
      "tân": 3695,
      "phái": 3696,
      "##ern": 3697,
      "Cty": 3698,
      "tàng": 3699,
      "tắt": 3700,
      "Tú": 3701,
      "Phần": 3702,
      "##mar": 3703,
      "xứng": 3704,
      "Austr": 3705,
      "Tiểu": 3706,
      "trưa": 3707,
      "95": 3708,
      "diệt": 3709,
      "triệt": 3710,
      "##ade": 3711,
      "chùa": 3712,
      "Barc": 3713,
      "Đăng": 3714,
      "cát": 3715,
      "Chánh": 3716,
      "gợi": 3717,
      "Hành": 3718,
      "miếng": 3719,
      "TN": 3720,
      "bột": 3721,
      "tuân": 3722,
      "dinh": 3723,
      "mỏ": 3724,
      "thả": 3725,
      "2007": 3726,
      "Bo": 3727,
      "Trịnh": 3728,
      "xuân": 3729,
      "game": 3730,
      "AP": 3731,
      "Xe": 3732,
      "Lãnh": 3733,
      "##MC": 3734,
      "đc": 3735,
      "cốt": 3736,
      "54": 3737,
      "##rid": 3738,
      "kì": 3739,
      "gọn": 3740,
      "lậu": 3741,
      "dường": 3742,
      "85": 3743,
      "##ver": 3744,
      "Hiền": 3745,
      "nhi": 3746,
      "##ation": 3747,
      "##xi": 3748,
      "##ate": 3749,
      "Hệ": 3750,
      "##ashing": 3751,
      "##istan": 3752,
      "Australia": 3753,
      "tắm": 3754,
      "Khoảng": 3755,
      "khuyên": 3756,
      "Nhóm": 3757,
      "Google": 3758,
      "##ashington": 3759,
      "Thậm": 3760,
      "Dung": 3761,
      "Ob": 3762,
      "##ind": 3763,
      "vỏ": 3764,
      "cổng": 3765,
      "Nhìn": 3766,
      "##tel": 3767,
      "dược": 3768,
      "##sea": 3769,
      "56": 3770,
      "hầm": 3771,
      "Đã": 3772,
      "##CT": 3773,
      "Cuối": 3774,
      "chả": 3775,
      "lít": 3776,
      "mây": 3777,
      "BĐS": 3778,
      "bám": 3779,
      "lồ": 3780,
      "hồn": 3781,
      "99": 3782,
      "57": 3783,
      "viễn": 3784,
      "York": 3785,
      "xả": 3786,
      "ven": 3787,
      "đậm": 3788,
      "Bị": 3789,
      "ê": 3790,
      "##end": 3791,
      "điệu": 3792,
      "Washington": 3793,
      "khổng": 3794,
      "sánh": 3795,
      "Điểm": 3796,
      "bơ": 3797,
      "tan": 3798,
      "SA": 3799,
      "Cam": 3800,
      "##ier": 3801,
      "giáp": 3802,
      "Xem": 3803,
      "##Ơ": 3804,
      "Chưa": 3805,
      "điệp": 3806,
      "##itcoin": 3807,
      "cất": 3808,
      "##phone": 3809,
      "##30": 3810,
      "TAND": 3811,
      "Danh": 3812,
      "chừng": 3813,
      "bếp": 3814,
      "Xã": 3815,
      "Tam": 3816,
      "ngu": 3817,
      "hắn": 3818,
      "đạp": 3819,
      "##iễu": 3820,
      "##èn": 3821,
      "HĐND": 3822,
      "##BC": 3823,
      "camera": 3824,
      "mỏi": 3825,
      "cắp": 3826,
      "cm": 3827,
      "ôtô": 3828,
      "Nhận": 3829,
      "Chiếc": 3830,
      "Tim": 3831,
      "khớp": 3832,
      "khuẩn": 3833,
      "dàn": 3834,
      "giây": 3835,
      "thô": 3836,
      "##ek": 3837,
      "Pl": 3838,
      "Vàng": 3839,
      "Ab": 3840,
      "hung": 3841,
      "dông": 3842,
      "thiệp": 3843,
      "Giấy": 3844,
      "sụt": 3845,
      "72": 3846,
      "Chel": 3847,
      "##ames": 3848,
      "It": 3849,
      "thím": 3850,
      "hưu": 3851,
      "việt": 3852,
      "Hạnh": 3853,
      "Mad": 3854,
      "thoải": 3855,
      "lở": 3856,
      "##ba": 3857,
      "vắng": 3858,
      "Giờ": 3859,
      "Nhi": 3860,
      "San": 3861,
      "móc": 3862,
      "đeo": 3863,
      "##ượn": 3864,
      "mảnh": 3865,
      "khống": 3866,
      "##uk": 3867,
      "##ach": 3868,
      "Mình": 3869,
      "##iver": 3870,
      "News": 3871,
      "ĐB": 3872,
      "##ge": 3873,
      "Câu": 3874,
      "Chelsea": 3875,
      "hẹp": 3876,
      "58": 3877,
      "of": 3878,
      "Bến": 3879,
      "tí": 3880,
      "Ý": 3881,
      "##ini": 3882,
      "vua": 3883,
      "##roup": 3884,
      "tết": 3885,
      "Bra": 3886,
      "ròng": 3887,
      "lặng": 3888,
      "##rael": 3889,
      "đỗ": 3890,
      "Bất": 3891,
      "Trị": 3892,
      "For": 3893,
      "##igh": 3894,
      "hàm": 3895,
      "táo": 3896,
      "##TO": 3897,
      "củ": 3898,
      "Sao": 3899,
      "ạ": 3900,
      "Obama": 3901,
      "64": 3902,
      "Đắk": 3903,
      "mm": 3904,
      "dính": 3905,
      "nhựa": 3906,
      "trà": 3907,
      "trừng": 3908,
      "Dịch": 3909,
      "62": 3910,
      "Mi": 3911,
      "##rab": 3912,
      "Par": 3913,
      "săn": 3914,
      "53": 3915,
      "Trí": 3916,
      "CTCP": 3917,
      "Israel": 3918,
      "lang": 3919,
      "củng": 3920,
      "tròn": 3921,
      "trôi": 3922,
      "Kiều": 3923,
      "lươ": 3924,
      "hổ": 3925,
      "nhỉ": 3926,
      "vẽ": 3927,
      "##DI": 3928,
      "nhịp": 3929,
      "HS": 3930,
      "sót": 3931,
      "gánh": 3932,
      "chênh": 3933,
      "Tỷ": 3934,
      "##iss": 3935,
      "##ood": 3936,
      "##ech": 3937,
      "mổ": 3938,
      "QĐ": 3939,
      "Tối": 3940,
      "63": 3941,
      "Trinh": 3942,
      "##ros": 3943,
      "top": 3944,
      "Har": 3945,
      "Bạch": 3946,
      "hảo": 3947,
      "hụt": 3948,
      "thâm": 3949,
      "thói": 3950,
      "cỡ": 3951,
      "##amin": 3952,
      "Thể": 3953,
      "leo": 3954,
      "ngực": 3955,
      "##ost": 3956,
      "béo": 3957,
      "Cà": 3958,
      "duyên": 3959,
      "Cai": 3960,
      "rắn": 3961,
      "Vũng": 3962,
      "Đáng": 3963,
      "##zil": 3964,
      "tiễn": 3965,
      "váy": 3966,
      "Gần": 3967,
      "chín": 3968,
      "mâu": 3969,
      "Ngãi": 3970,
      "Thừa": 3971,
      "tủ": 3972,
      "Se": 3973,
      "##enn": 3974,
      "giường": 3975,
      "Động": 3976,
      "khiếu": 3977,
      "Bước": 3978,
      "răng": 3979,
      "dắt": 3980,
      "HNX": 3981,
      "Nước": 3982,
      "Thi": 3983,
      "tĩ": 3984,
      "sốc": 3985,
      "chìm": 3986,
      "##ựng": 3987,
      "Gu": 3988,
      "Mẹ": 3989,
      "Yến": 3990,
      "Thiếu": 3991,
      "Put": 3992,
      "khâu": 3993,
      "muối": 3994,
      "67": 3995,
      "dọc": 3996,
      "##ta": 3997,
      "Môi": 3998,
      "Ca": 3999,
      "bá": 4000,
      "BHXH": 4001,
      "nề": 4002,
      "##bo": 4003,
      "giày": 4004,
      "Lam": 4005,
      "SE": 4006,
      "Đô": 4007,
      "Thịnh": 4008,
      "ác": 4009,
      "Rất": 4010,
      "Pet": 4011,
      "##Ô": 4012,
      "chuyền": 4013,
      "gan": 4014,
      "thuần": 4015,
      "##po": 4016,
      "khát": 4017,
      "John": 4018,
      "trống": 4019,
      "59": 4020,
      "tĩnh": 4021,
      "thước": 4022,
      "Thùy": 4023,
      "mạo": 4024,
      "đẻ": 4025,
      "Mọi": 4026,
      "pin": 4027,
      "hằng": 4028,
      "tàn": 4029,
      "Dầu": 4030,
      "Ex": 4031,
      "Uy": 4032,
      "mảng": 4033,
      "Trao": 4034,
      "Phải": 4035,
      "El": 4036,
      "Canada": 4037,
      "##ft": 4038,
      "Arsen": 4039,
      "Đất": 4040,
      "lọt": 4041,
      "Tham": 4042,
      "ơi": 4043,
      "Ser": 4044,
      "lính": 4045,
      "cẩn": 4046,
      "thự": 4047,
      "Putin": 4048,
      "mãn": 4049,
      "Ronald": 4050,
      "Tho": 4051,
      "Phụ": 4052,
      "Tự": 4053,
      "##ester": 4054,
      "PG": 4055,
      "61": 4056,
      "Thay": 4057,
      "Cr": 4058,
      "tách": 4059,
      "##ile": 4060,
      "ngộ": 4061,
      "say": 4062,
      "Ví": 4063,
      "ném": 4064,
      "##Â": 4065,
      "nghiện": 4066,
      "##sk": 4067,
      "trọ": 4068,
      "giấc": 4069,
      "##combank": 4070,
      "Mos": 4071,
      "lỏng": 4072,
      "##ary": 4073,
      "##pt": 4074,
      "khuyết": 4075,
      "98": 4076,
      "st": 4077,
      "68": 4078,
      "##land": 4079,
      "Cẩm": 4080,
      "##acc": 4081,
      "sơn": 4082,
      "##eng": 4083,
      "195": 4084,
      "##ions": 4085,
      "##IV": 4086,
      "heo": 4087,
      "cỏ": 4088,
      "Ma": 4089,
      "Sản": 4090,
      "##age": 4091,
      "AFP": 4092,
      "thơm": 4093,
      "Cát": 4094,
      "đói": 4095,
      "đam": 4096,
      "Brazil": 4097,
      "120": 4098,
      "##TA": 4099,
      "##uýt": 4100,
      "hoan": 4101,
      "HAG": 4102,
      "##IC": 4103,
      "##ix": 4104,
      "Tín": 4105,
      "Nghiên": 4106,
      "nút": 4107,
      "92": 4108,
      "Phật": 4109,
      "##da": 4110,
      "GS": 4111,
      "66": 4112,
      "##IA": 4113,
      "LĐ": 4114,
      "mét": 4115,
      "Ánh": 4116,
      "giãn": 4117,
      "đáy": 4118,
      "bề": 4119,
      "vả": 4120,
      "QL": 4121,
      "Vid": 4122,
      "78": 4123,
      "bơi": 4124,
      "##TP": 4125,
      "May": 4126,
      "khoáng": 4127,
      "##ham": 4128,
      "##ỗng": 4129,
      "Nghi": 4130,
      "dạ": 4131,
      "2006": 4132,
      "Thạch": 4133,
      "Gal": 4134,
      "euro": 4135,
      "Mau": 4136,
      "lão": 4137,
      "đựng": 4138,
      "##JC": 4139,
      "Giới": 4140,
      "vội": 4141,
      "tiệc": 4142,
      "dập": 4143,
      "250": 4144,
      "lò": 4145,
      "muộn": 4146,
      "PC": 4147,
      "chiêu": 4148,
      "##ero": 4149,
      "##ya": 4150,
      "vươn": 4151,
      "Vận": 4152,
      "##ớn": 4153,
      "Arsenal": 4154,
      "Bin": 4155,
      "NG": 4156,
      "##orn": 4157,
      "Gr": 4158,
      "CT": 4159,
      "Tử": 4160,
      "Kiến": 4161,
      "Nhờ": 4162,
      "lí": 4163,
      "mù": 4164,
      "Huệ": 4165,
      "cống": 4166,
      "ổ": 4167,
      "##la": 4168,
      "MC": 4169,
      "Ly": 4170,
      "chửi": 4171,
      "NĐ": 4172,
      "kí": 4173,
      "De": 4174,
      "PT": 4175,
      "dốc": 4176,
      "TR": 4177,
      "giận": 4178,
      "MU": 4179,
      "taxi": 4180,
      "nhạy": 4181,
      "đắp": 4182,
      "vương": 4183,
      "Khách": 4184,
      "##ìa": 4185,
      "Mức": 4186,
      "##EO": 4187,
      "smart": 4188,
      "VND": 4189,
      "Thiện": 4190,
      "Col": 4191,
      "lùi": 4192,
      "##de": 4193,
      "Mess": 4194,
      "Euro": 4195,
      "Thiết": 4196,
      "chán": 4197,
      "##raq": 4198,
      "ghép": 4199,
      "ái": 4200,
      "mầm": 4201,
      "Ronaldo": 4202,
      "Xin": 4203,
      "mượn": 4204,
      "SH": 4205,
      "kiêm": 4206,
      "88": 4207,
      "ấp": 4208,
      "ốc": 4209,
      "bỏng": 4210,
      "Lần": 4211,
      "chua": 4212,
      "PH": 4213,
      "##ẹo": 4214,
      "tuệ": 4215,
      "Trái": 4216,
      "Triệu": 4217,
      "Pro": 4218,
      "buýt": 4219,
      "BS": 4220,
      "Hãng": 4221,
      "Iraq": 4222,
      "xỉ": 4223,
      "##qu": 4224,
      "##ice": 4225,
      "ngạc": 4226,
      "cụm": 4227,
      "Địa": 4228,
      "Ad": 4229,
      "Thấy": 4230,
      "nhàng": 4231,
      "thắt": 4232,
      "VP": 4233,
      "bận": 4234,
      "Phu": 4235,
      "Tương": 4236,
      "liều": 4237,
      "71": 4238,
      "sạt": 4239,
      "vẹn": 4240,
      "online": 4241,
      "##ara": 4242,
      "XII": 4243,
      "nhầm": 4244,
      "900": 4245,
      "##ob": 4246,
      "##ee": 4247,
      "ám": 4248,
      "##tain": 4249,
      "VF": 4250,
      "##ink": 4251,
      "lấn": 4252,
      "Ang": 4253,
      "rét": 4254,
      "BTC": 4255,
      "77": 4256,
      "Úc": 4257,
      "BO": 4258,
      "##site": 4259,
      "Chẳng": 4260,
      "76": 4261,
      "xoay": 4262,
      "nở": 4263,
      "chai": 4264,
      "Bank": 4265,
      "Đơn": 4266,
      "chém": 4267,
      "Bitcoin": 4268,
      "Sang": 4269,
      "##berg": 4270,
      "Liêm": 4271,
      "##ửu": 4272,
      "trọn": 4273,
      "dã": 4274,
      "Đạt": 4275,
      "thợ": 4276,
      "vất": 4277,
      "Video": 4278,
      "Dav": 4279,
      "Madrid": 4280,
      "##ino": 4281,
      "73": 4282,
      "Sông": 4283,
      "FDI": 4284,
      "Ale": 4285,
      "Ag": 4286,
      "##ram": 4287,
      "bơm": 4288,
      "lông": 4289,
      "Lệ": 4290,
      "Top": 4291,
      "bi": 4292,
      "rãi": 4293,
      "74": 4294,
      "Chuyên": 4295,
      "Mục": 4296,
      "##ley": 4297,
      "Máy": 4298,
      "chim": 4299,
      "Lịch": 4300,
      "ngọn": 4301,
      "tha": 4302,
      "BID": 4303,
      "##go": 4304,
      "84": 4305,
      "91": 4306,
      "Xuất": 4307,
      "dọn": 4308,
      "smartphone": 4309,
      "LH": 4310,
      "hà": 4311,
      "Quá": 4312,
      "##aly": 4313,
      "nồng": 4314,
      "82": 4315,
      "##ota": 4316,
      "võ": 4317,
      "long": 4318,
      "Hong": 4319,
      "sáu": 4320,
      "cưỡng": 4321,
      "Nên": 4322,
      "Bích": 4323,
      "Căn": 4324,
      "##ED": 4325,
      "soạn": 4326,
      "TTCK": 4327,
      "Vị": 4328,
      "Đi": 4329,
      "nát": 4330,
      "##tor": 4331,
      "hoãn": 4332,
      "tiệm": 4333,
      "trộn": 4334,
      "bụi": 4335,
      "Trắng": 4336,
      "96": 4337,
      "vải": 4338,
      "Miễn": 4339,
      "hôi": 4340,
      "Bá": 4341,
      "TB": 4342,
      "Be": 4343,
      "##ela": 4344,
      "gián": 4345,
      "Seo": 4346,
      "86": 4347,
      "##ies": 4348,
      "trinh": 4349,
      "69": 4350,
      "Messi": 4351,
      "xưởng": 4352,
      "khơi": 4353,
      "NN": 4354,
      "##ve": 4355,
      "tứ": 4356,
      "tao": 4357,
      "mì": 4358,
      "Mã": 4359,
      "Com": 4360,
      "Mer": 4361,
      "SJC": 4362,
      "lũy": 4363,
      "Vấn": 4364,
      "lấp": 4365,
      "##OS": 4366,
      "##IÊ": 4367,
      "##unce": 4368,
      "ngõ": 4369,
      "##ug": 4370,
      "Kể": 4371,
      "khôi": 4372,
      "Quyền": 4373,
      "gìn": 4374,
      "sáp": 4375,
      "hot": 4376,
      "Thật": 4377,
      "rạng": 4378,
      "##UY": 4379,
      "2000": 4380,
      "hỗn": 4381,
      "##ựu": 4382,
      "##pool": 4383,
      "Thêm": 4384,
      "194": 4385,
      "nhẫn": 4386,
      "Thạnh": 4387,
      "81": 4388,
      "##accine": 4389,
      "mặn": 4390,
      "Tô": 4391,
      "79": 4392,
      "Hond": 4393,
      "Hiệu": 4394,
      "phổi": 4395,
      "trùm": 4396,
      "Cập": 4397,
      "dò": 4398,
      "Gửi": 4399,
      "Đạo": 4400,
      "Vn": 4401,
      "##anmar": 4402,
      "VTC": 4403,
      "bát": 4404,
      "CTCK": 4405,
      "vit": 4406,
      "ounce": 4407,
      "mỡ": 4408,
      "vang": 4409,
      "##ani": 4410,
      "Phiên": 4411,
      "im": 4412,
      "##én": 4413,
      "PGS": 4414,
      "chuột": 4415,
      "##YT": 4416,
      "97": 4417,
      "Liver": 4418,
      "Ben": 4419,
      "Vừa": 4420,
      "III": 4421,
      "sập": 4422,
      "Phía": 4423,
      "##ight": 4424,
      "Đúng": 4425,
      "##inho": 4426,
      "khoan": 4427,
      "and": 4428,
      "nhan": 4429,
      "KT": 4430,
      "truyện": 4431,
      "lê": 4432,
      "Champ": 4433,
      "xi": 4434,
      "khứ": 4435,
      "xô": 4436,
      "Fed": 4437,
      "##rom": 4438,
      "Ste": 4439,
      "vitamin": 4440,
      "Dưới": 4441,
      "Chia": 4442,
      "Myanmar": 4443,
      "đệ": 4444,
      "2005": 4445,
      "Mà": 4446,
      "khói": 4447,
      "quét": 4448,
      "HD": 4449,
      "##ace": 4450,
      "##eal": 4451,
      "nại": 4452,
      "cậy": 4453,
      "Sc": 4454,
      "##lines": 4455,
      "##old": 4456,
      "xách": 4457,
      "HAGL": 4458,
      "dồn": 4459,
      "##ondon": 4460,
      "đới": 4461,
      "bông": 4462,
      "Chuyện": 4463,
      "Mil": 4464,
      "Liverpool": 4465,
      "cắm": 4466,
      "lôi": 4467,
      "Mark": 4468,
      "Tường": 4469,
      "bế": 4470,
      "kẹt": 4471,
      "##mi": 4472,
      "Mic": 4473,
      "##lor": 4474,
      "vaccine": 4475,
      "THA": 4476,
      "##ox": 4477,
      "##va": 4478,
      "hiếp": 4479,
      "##RS": 4480,
      "CEO": 4481,
      "London": 4482,
      "Xuyên": 4483,
      "Điển": 4484,
      "CSĐT": 4485,
      "chê": 4486,
      "##ho": 4487,
      "website": 4488,
      "Tháp": 4489,
      "Lee": 4490,
      "gom": 4491,
      "dời": 4492,
      "Kong": 4493,
      "chúa": 4494,
      "no": 4495,
      "tựu": 4496,
      "##ans": 4497,
      "##axy": 4498,
      "men": 4499,
      "Triển": 4500,
      "GB": 4501,
      "##ive": 4502,
      "##ke": 4503,
      "##let": 4504,
      "##ant": 4505,
      "##ath": 4506,
      "ùn": 4507,
      "##ằn": 4508,
      "dâng": 4509,
      "ân": 4510,
      "Honda": 4511,
      "nho": 4512,
      "83": 4513,
      "Paris": 4514,
      "cài": 4515,
      "##DA": 4516,
      "##di": 4517,
      "Vợ": 4518,
      "Olympic": 4519,
      "vây": 4520,
      "FPT": 4521,
      "ngắm": 4522,
      "Blo": 4523,
      "Ra": 4524,
      "mũ": 4525,
      "dội": 4526,
      "ức": 4527,
      "nảy": 4528,
      "Đàm": 4529,
      "##ited": 4530,
      "##ƯƠ": 4531,
      "pro": 4532,
      "lận": 4533,
      "lật": 4534,
      "for": 4535,
      "ưa": 4536,
      "bón": 4537,
      "đắc": 4538,
      "lường": 4539,
      "ruộng": 4540,
      "##pe": 4541,
      "MB": 4542,
      "bọc": 4543,
      "dở": 4544,
      "inter": 4545,
      "dỡ": 4546,
      "Cảng": 4547,
      "SG": 4548,
      "87": 4549,
      "##esh": 4550,
      "hi": 4551,
      "Son": 4552,
      "hò": 4553,
      "rũ": 4554,
      "dĩ": 4555,
      "trượt": 4556,
      "Galaxy": 4557,
      "Tuổi": 4558,
      "Hiến": 4559,
      "NĐT": 4560,
      "Barca": 4561,
      "Hầu": 4562,
      "##omo": 4563,
      "Bồ": 4564,
      "Champions": 4565,
      "Airlines": 4566,
      "Chú": 4567,
      "MA": 4568,
      "89": 4569,
      "rải": 4570,
      "bổng": 4571,
      "đòn": 4572,
      "Đừng": 4573,
      "Trade": 4574,
      "##CH": 4575,
      "##ike": 4576,
      "gạch": 4577,
      "nạp": 4578,
      "Na": 4579,
      "Phùng": 4580,
      "##ica": 4581,
      "##ưởi": 4582,
      "##MT": 4583,
      "khéo": 4584,
      "BIDV": 4585,
      "măng": 4586,
      "##der": 4587,
      "Hang": 4588,
      "nha": 4589,
      "lộn": 4590,
      "##roid": 4591,
      "##exico": 4592,
      "Gió": 4593,
      "Hay": 4594,
      "Sen": 4595,
      "##ien": 4596,
      "Nhu": 4597,
      "Games": 4598,
      "Toy": 4599,
      "Tuần": 4600,
      "##gon": 4601,
      "##ct": 4602,
      "Dai": 4603,
      "##ott": 4604,
      "MV": 4605,
      "Tiếng": 4606,
      "đế": 4607,
      "Khối": 4608,
      "mỏng": 4609,
      "##lin": 4610,
      "Sáu": 4611,
      "Ju": 4612,
      "gắt": 4613,
      "Hướng": 4614,
      "rỡ": 4615,
      "Pal": 4616,
      "Jong": 4617,
      "##KT": 4618,
      "##con": 4619,
      "đĩa": 4620,
      "luồng": 4621,
      "NLĐ": 4622,
      "mạn": 4623,
      "Sóc": 4624,
      "##ườn": 4625,
      "tọa": 4626,
      "Thuế": 4627,
      "vỉa": 4628,
      "##uốn": 4629,
      "ngợi": 4630,
      "Cal": 4631,
      "múa": 4632,
      "EVN": 4633,
      "##CĐ": 4634,
      "Nhung": 4635,
      "Trả": 4636,
      "Phân": 4637,
      "dệt": 4638,
      "SM": 4639,
      "##ube": 4640,
      "đán": 4641,
      "bỗng": 4642,
      "Nhơn": 4643,
      "Bắt": 4644,
      "##SI": 4645,
      "lồng": 4646,
      "##att": 4647,
      "gã": 4648,
      "Mexico": 4649,
      "VH": 4650,
      "fen": 4651,
      "Sức": 4652,
      "Lập": 4653,
      "##DC": 4654,
      "TQ": 4655,
      "Chinh": 4656,
      "phe": 4657,
      "gay": 4658,
      "Group": 4659,
      "trâu": 4660,
      "BKS": 4661,
      "sợi": 4662,
      "Sỹ": 4663,
      "kiều": 4664,
      "Bang": 4665,
      "Tôn": 4666,
      "Xô": 4667,
      "mờ": 4668,
      "##ũi": 4669,
      "bẩn": 4670,
      "Viettel": 4671,
      "AT": 4672,
      "lỡ": 4673,
      "VFF": 4674,
      "BOT": 4675,
      "quyến": 4676,
      "Đánh": 4677,
      "xạ": 4678,
      "94": 4679,
      "lụt": 4680,
      "Lạc": 4681,
      "Sư": 4682,
      "##ano": 4683,
      "##entina": 4684,
      "nới": 4685,
      "##pr": 4686,
      "Tw": 4687,
      "93": 4688,
      "##ale": 4689,
      "mến": 4690,
      "hoá": 4691,
      "Chấp": 4692,
      "cay": 4693,
      "SEA": 4694,
      "thổi": 4695,
      "Đan": 4696,
      "IP": 4697,
      "nhở": 4698,
      "Kỹ": 4699,
      "THCS": 4700,
      "Lạp": 4701,
      "chinh": 4702,
      "##tainer": 4703,
      "ACB": 4704,
      "Siêu": 4705,
      "nhậu": 4706,
      "nhắm": 4707,
      "Rồi": 4708,
      "Vietcombank": 4709,
      "##sh": 4710,
      "##̀NG": 4711,
      "Chợ": 4712,
      "Toyota": 4713,
      "thoáng": 4714,
      "No": 4715,
      "##ren": 4716,
      "chip": 4717,
      "David": 4718,
      "VKS": 4719,
      "VTV": 4720,
      "Vietin": 4721,
      "CB": 4722,
      "huyền": 4723,
      "##XX": 4724,
      "QH": 4725,
      "ND": 4726,
      "##ust": 4727,
      "Bay": 4728,
      "lứa": 4729,
      "vắc": 4730,
      "đồi": 4731,
      "Cứ": 4732,
      "đứt": 4733,
      "HT": 4734,
      "Nghe": 4735,
      "##ish": 4736,
      "Bố": 4737,
      "Kr": 4738,
      "thưa": 4739,
      "gãy": 4740,
      "Viên": 4741,
      "Quận": 4742,
      "Mc": 4743,
      "Mich": 4744,
      "##uth": 4745,
      "triều": 4746,
      "Mas": 4747,
      "##NA": 4748,
      "Toán": 4749,
      "trội": 4750,
      "##eon": 4751,
      "TV": 4752,
      "điên": 4753,
      "đùa": 4754,
      "kiềm": 4755,
      "internet": 4756,
      "##ial": 4757,
      "mồ": 4758,
      "##ment": 4759,
      "Mac": 4760,
      "quái": 4761,
      "Xi": 4762,
      "rèn": 4763,
      "Mấy": 4764,
      "Mùa": 4765,
      "##ẫm": 4766,
      "ngựa": 4767,
      "Ed": 4768,
      "cúng": 4769,
      "Bạc": 4770,
      "xài": 4771,
      "BHYT": 4772,
      "đành": 4773,
      "##ll": 4774,
      "bảy": 4775,
      "##oft": 4776,
      "Tuyết": 4777,
      "chẩn": 4778,
      "At": 4779,
      "container": 4780,
      "khoác": 4781,
      "Đêm": 4782,
      "Arg": 4783,
      "##vi": 4784,
      "bội": 4785,
      "NATO": 4786,
      "PTNT": 4787,
      "thọ": 4788,
      "##acom": 4789,
      "##are": 4790,
      "inch": 4791,
      "##ull": 4792,
      "##lad": 4793,
      "san": 4794,
      "Cấp": 4795,
      "##me": 4796,
      "chăng": 4797,
      "kem": 4798,
      "Duyên": 4799,
      "Lạng": 4800,
      "tụng": 4801,
      "us": 4802,
      "##ens": 4803,
      "hở": 4804,
      "lề": 4805,
      "##ote": 4806,
      "Hiển": 4807,
      "nướng": 4808,
      "##TTQ": 4809,
      "nấm": 4810,
      "cước": 4811,
      "Af": 4812,
      "vở": 4813,
      "Lạt": 4814,
      "tp": 4815,
      "Alex": 4816,
      "cáp": 4817,
      "Khai": 4818,
      "tráng": 4819,
      "lăng": 4820,
      "##ose": 4821,
      "đuôi": 4822,
      "2025": 4823,
      "hoại": 4824,
      "##arl": 4825,
      "rực": 4826,
      "##ola": 4827,
      "trân": 4828,
      "2004": 4829,
      "Lắk": 4830,
      "Huyện": 4831,
      "bút": 4832,
      "hả": 4833,
      "vợt": 4834,
      "ngào": 4835,
      "tháp": 4836,
      "Cảm": 4837,
      "dịu": 4838,
      "Prem": 4839,
      "Ber": 4840,
      "sưu": 4841,
      "##GP": 4842,
      "Android": 4843,
      "Os": 4844,
      "ngơi": 4845,
      "HĐXX": 4846,
      "Kiếm": 4847,
      "Sĩ": 4848,
      "VĐ": 4849,
      "##ics": 4850,
      "##LC": 4851,
      "##na": 4852,
      "hang": 4853,
      "xao": 4854,
      "##aul": 4855,
      "bì": 4856,
      "úy": 4857,
      "cúm": 4858,
      "##̉u": 4859,
      "Cap": 4860,
      "Cận": 4861,
      "Ngôi": 4862,
      "phun": 4863,
      "Italy": 4864,
      "móng": 4865,
      "##iềng": 4866,
      "##SA": 4867,
      "##FA": 4868,
      "Rom": 4869,
      "Argentina": 4870,
      "phanh": 4871,
      "cóc": 4872,
      "##oll": 4873,
      "Mart": 4874,
      "ong": 4875,
      "HOSE": 4876,
      "tẩy": 4877,
      "Ngành": 4878,
      "de": 4879,
      "##SG": 4880,
      "Mob": 4881,
      "Tiêu": 4882,
      "Cá": 4883,
      "mọc": 4884,
      "đọng": 4885,
      "##biz": 4886,
      "khoảnh": 4887,
      "Mon": 4888,
      "dưa": 4889,
      "United": 4890,
      "hãi": 4891,
      "mi": 4892,
      "nụ": 4893,
      "mẻ": 4894,
      "Sun": 4895,
      "dc": 4896,
      "MT": 4897,
      "##itter": 4898,
      "Kông": 4899,
      "XH": 4900,
      "Trăng": 4901,
      "ngột": 4902,
      "man": 4903,
      "##ma": 4904,
      "đầm": 4905,
      "tóm": 4906,
      "##rosoft": 4907,
      "Min": 4908,
      "hiếu": 4909,
      "lăn": 4910,
      "hiển": 4911,
      "##chi": 4912,
      "##rg": 4913,
      "lõi": 4914,
      "Điền": 4915,
      "tím": 4916,
      "##cow": 4917,
      "manh": 4918,
      "##kyo": 4919,
      "lưỡng": 4920,
      "Cor": 4921,
      "cạn": 4922,
      "Er": 4923,
      "cai": 4924,
      "châm": 4925,
      "Vy": 4926,
      "Kỷ": 4927,
      "phiền": 4928,
      "##PC": 4929,
      "hàn": 4930,
      "ex": 4931,
      "khép": 4932,
      "gối": 4933,
      "##ilk": 4934,
      "hoài": 4935,
      "ngón": 4936,
      "phế": 4937,
      "Ven": 4938,
      "##ata": 4939,
      "##ney": 4940,
      "bể": 4941,
      "Chắc": 4942,
      "##ital": 4943,
      "khôn": 4944,
      "##CV": 4945,
      "Tên": 4946,
      "voi": 4947,
      "##ana": 4948,
      "Khắc": 4949,
      "En": 4950,
      "thánh": 4951,
      "Cửa": 4952,
      "nhí": 4953,
      "Mua": 4954,
      "GP": 4955,
      "trắc": 4956,
      "chặng": 4957,
      "Hoạt": 4958,
      "ồn": 4959,
      "lốc": 4960,
      "Moscow": 4961,
      "dối": 4962,
      "##ron": 4963,
      "##ett": 4964,
      "oan": 4965,
      "đớn": 4966,
      "350": 4967,
      "##ael": 4968,
      "Trẻ": 4969,
      "nhạt": 4970,
      "##urinho": 4971,
      "Đồn": 4972,
      "Microsoft": 4973,
      "Tokyo": 4974,
      "un": 4975,
      "Sch": 4976,
      "Phủ": 4977,
      "##oc": 4978,
      "vạn": 4979,
      "mò": 4980,
      "khái": 4981,
      "110": 4982,
      "PL": 4983,
      "2003": 4984,
      "lân": 4985,
      "nếp": 4986,
      "Tìm": 4987,
      "Thí": 4988,
      "Bái": 4989,
      "dán": 4990,
      "Tech": 4991,
      "##ae": 4992,
      "Mourinho": 4993,
      "##ko": 4994,
      "PCC": 4995,
      "Bỉ": 4996,
      "##iden": 4997,
      "Trận": 4998,
      "thắc": 4999,
      "Sử": 5000,
      "Cuba": 5001,
      "tồi": 5002,
      "##ịn": 5003,
      "dũng": 5004,
      "Per": 5005,
      "Viết": 5006,
      "Rịa": 5007,
      "màng": 5008,
      "He": 5009,
      "Kon": 5010,
      "vọt": 5011,
      "khánh": 5012,
      "xông": 5013,
      "Khê": 5014,
      "Bé": 5015,
      "Times": 5016,
      "đụng": 5017,
      "thoảng": 5018,
      "Sai": 5019,
      "tê": 5020,
      "Nhưỡng": 5021,
      "sụp": 5022,
      "Cựu": 5023,
      "thầm": 5024,
      "sương": 5025,
      "ngoan": 5026,
      "##bum": 5027,
      "rộn": 5028,
      "MTTQ": 5029,
      "BA": 5030,
      "Binomo": 5031,
      "BN": 5032,
      "đằng": 5033,
      "túng": 5034,
      "Petro": 5035,
      "Đàn": 5036,
      "Hol": 5037,
      "Liêu": 5038,
      "kề": 5039,
      "thắn": 5040,
      "Online": 5041,
      "bắp": 5042,
      "##abe": 5043,
      "Giáp": 5044,
      "##QH": 5045,
      "thấu": 5046,
      "Ko": 5047,
      "##een": 5048,
      "blo": 5049,
      "phiến": 5050,
      "Bây": 5051,
      "CO": 5052,
      "khe": 5053,
      "nến": 5054,
      "Jack": 5055,
      "hoành": 5056,
      "Daily": 5057,
      "##́C": 5058,
      "PCCC": 5059,
      "##per": 5060,
      "kiệt": 5061,
      "bar": 5062,
      "TCT": 5063,
      "##elona": 5064,
      "nồi": 5065,
      "Bàn": 5066,
      "Arab": 5067,
      "##ide": 5068,
      "đắn": 5069,
      "##ka": 5070,
      "130": 5071,
      "Bảy": 5072,
      "##Ệ": 5073,
      "##CP": 5074,
      "Van": 5075,
      "đống": 5076,
      "trễ": 5077,
      "Twitter": 5078,
      "Sacom": 5079,
      "##ime": 5080,
      "dạo": 5081,
      "bách": 5082,
      "AN": 5083,
      "KCN": 5084,
      "Oanh": 5085,
      "Cố": 5086,
      "Mười": 5087,
      "Băng": 5088,
      "Trạm": 5089,
      "chôn": 5090,
      "Chân": 5091,
      "##urg": 5092,
      "Tờ": 5093,
      "suối": 5094,
      "Cương": 5095,
      "Chúc": 5096,
      "Cung": 5097,
      "Khởi": 5098,
      "Li": 5099,
      "##ane": 5100,
      "rể": 5101,
      "Môn": 5102,
      "Quả": 5103,
      "sạc": 5104,
      "bấm": 5105,
      "Cư": 5106,
      "##ext": 5107,
      "##eth": 5108,
      "giang": 5109,
      "Pak": 5110,
      "##vent": 5111,
      "hiền": 5112,
      "##ụn": 5113,
      "##ler": 5114,
      "mắm": 5115,
      "Muốn": 5116,
      "giàn": 5117,
      "Thân": 5118,
      "GT": 5119,
      "Premier": 5120,
      "ngọc": 5121,
      "chuộng": 5122,
      "lắc": 5123,
      "Tác": 5124,
      "hái": 5125,
      "sướng": 5126,
      "Mở": 5127,
      "IV": 5128,
      "chép": 5129,
      "##QG": 5130,
      "##olf": 5131,
      "##ear": 5132,
      "Barcelona": 5133,
      "Bảng": 5134,
      "ốm": 5135,
      "nã": 5136,
      "Năng": 5137,
      "ngự": 5138,
      "##ith": 5139,
      "đéo": 5140,
      "chuối": 5141,
      "##ghan": 5142,
      "1990": 5143,
      "##ịt": 5144,
      "##bia": 5145,
      "##bert": 5146,
      "Mor": 5147,
      "cắn": 5148,
      "cua": 5149,
      "SC": 5150,
      "ngâm": 5151,
      "180": 5152,
      "IM": 5153,
      "##UYÊ": 5154,
      "Cửu": 5155,
      "Thần": 5156,
      "vóc": 5157,
      "Diệu": 5158,
      "Mẫu": 5159,
      "##ner": 5160,
      "2030": 5161,
      "Khang": 5162,
      "##xy": 5163,
      "BM": 5164,
      "##cc": 5165,
      "Chất": 5166,
      "rắc": 5167,
      "am": 5168,
      "chè": 5169,
      "Trì": 5170,
      "Val": 5171,
      "##bot": 5172,
      "ôn": 5173,
      "ghen": 5174,
      "Black": 5175,
      "Lib": 5176,
      "NT": 5177,
      "quãng": 5178,
      "Phóng": 5179,
      "Cây": 5180,
      "Bách": 5181,
      "Zing": 5182,
      "kĩ": 5183,
      "sc": 5184,
      "ngô": 5185,
      "gũi": 5186,
      "HIV": 5187,
      "##sa": 5188,
      "showbiz": 5189,
      "LHQ": 5190,
      "sét": 5191,
      "##indow": 5192,
      "khoai": 5193,
      "Nhã": 5194,
      "khuy": 5195,
      "##ghanistan": 5196,
      "loa": 5197,
      "Thầy": 5198,
      "ào": 5199,
      "chanh": 5200,
      "súc": 5201,
      "##wn": 5202,
      "cởi": 5203,
      "gác": 5204,
      "email": 5205,
      "VĐV": 5206,
      "cong": 5207,
      "Vịnh": 5208,
      "nhì": 5209,
      "Bus": 5210,
      "Yêu": 5211,
      "ao": 5212,
      "Đống": 5213,
      "khoăn": 5214,
      "côn": 5215,
      "Trưng": 5216,
      "mộng": 5217,
      "lùng": 5218,
      "Phim": 5219,
      "đuối": 5220,
      "TTg": 5221,
      "Tre": 5222,
      "soi": 5223,
      "BT": 5224,
      "Miss": 5225,
      "rẽ": 5226,
      "##ari": 5227,
      "nghiêng": 5228,
      "Sẽ": 5229,
      "buông": 5230,
      "xơ": 5231,
      "đúc": 5232,
      "Ả": 5233,
      "##alo": 5234,
      "ráp": 5235,
      "Bán": 5236,
      "Sacombank": 5237,
      "xí": 5238,
      "rung": 5239,
      "hận": 5240,
      "tần": 5241,
      "xá": 5242,
      "lặp": 5243,
      "AD": 5244,
      "tựa": 5245,
      "Vic": 5246,
      "ngưng": 5247,
      "Vùng": 5248,
      "Viễn": 5249,
      "hố": 5250,
      "##AS": 5251,
      "Sal": 5252,
      "ớt": 5253,
      "HP": 5254,
      "xà": 5255,
      "Sân": 5256,
      "mười": 5257,
      "lặn": 5258,
      "cốc": 5259,
      "AM": 5260,
      "Ăn": 5261,
      "Lại": 5262,
      "Afghanistan": 5263,
      "##ake": 5264,
      "thịnh": 5265,
      "xưng": 5266,
      "sex": 5267,
      "má": 5268,
      "Chr": 5269,
      "dải": 5270,
      "cồn": 5271,
      "Tới": 5272,
      "##press": 5273,
      "gục": 5274,
      "mèo": 5275,
      "Khoản": 5276,
      "thấm": 5277,
      "đạm": 5278,
      "Quế": 5279,
      "CĐV": 5280,
      "Đôi": 5281,
      "tùng": 5282,
      "Quán": 5283,
      "dồi": 5284,
      "UA": 5285,
      "##eh": 5286,
      "UN": 5287,
      "Phố": 5288,
      "dừa": 5289,
      "Khải": 5290,
      "băn": 5291,
      "Uyên": 5292,
      "Đang": 5293,
      "xích": 5294,
      "dẹp": 5295,
      "Lượng": 5296,
      "##́N": 5297,
      "Saudi": 5298,
      "##nd": 5299,
      "##edia": 5300,
      "SARS": 5301,
      "dại": 5302,
      "vs": 5303,
      "hạm": 5304,
      "xôn": 5305,
      "##erry": 5306,
      "rạp": 5307,
      "Wal": 5308,
      "cọc": 5309,
      "ham": 5310,
      "##tein": 5311,
      "Trạch": 5312,
      "Ham": 5313,
      "Vinam": 5314,
      "Tuyến": 5315,
      "##pa": 5316,
      "Quyên": 5317,
      "siết": 5318,
      "##ura": 5319,
      "##fe": 5320,
      "Ứng": 5321,
      "thớt": 5322,
      "##rl": 5323,
      "chư": 5324,
      "Ass": 5325,
      "lội": 5326,
      "cuồng": 5327,
      "CNTT": 5328,
      "chật": 5329,
      "##lu": 5330,
      "net": 5331,
      "Nguyệt": 5332,
      "NV": 5333,
      "2001": 5334,
      "Xanh": 5335,
      "tuyết": 5336,
      "AS": 5337,
      "nứt": 5338,
      "đoan": 5339,
      "Ngược": 5340,
      "##mer": 5341,
      "kíp": 5342,
      "rỉ": 5343,
      "Pakistan": 5344,
      "li": 5345,
      "vành": 5346,
      "##CO": 5347,
      "tụi": 5348,
      "CoV": 5349,
      "##AM": 5350,
      "##ure": 5351,
      "TMC": 5352,
      "rao": 5353,
      "Lời": 5354,
      "##Th": 5355,
      "##ger": 5356,
      "facebook": 5357,
      "##ót": 5358,
      "Tp": 5359,
      "Niên": 5360,
      "Loại": 5361,
      "Biết": 5362,
      "vịt": 5363,
      "bàng": 5364,
      "lưỡi": 5365,
      "ă": 5366,
      "ghét": 5367,
      "Cán": 5368,
      "Bao": 5369,
      "Fran": 5370,
      "##awei": 5371,
      "bộc": 5372,
      "APEC": 5373,
      "##oney": 5374,
      "##ford": 5375,
      "You": 5376,
      "Vẫn": 5377,
      "##ption": 5378,
      "Phút": 5379,
      "TW": 5380,
      "##ca": 5381,
      "luân": 5382,
      "HTX": 5383,
      "Nạn": 5384,
      "nôn": 5385,
      "DNNN": 5386,
      "##chester": 5387,
      "MI": 5388,
      "Dược": 5389,
      "phơi": 5390,
      "SV": 5391,
      "Je": 5392,
      "gas": 5393,
      "Áo": 5394,
      "Khanh": 5395,
      "album": 5396,
      "Geo": 5397,
      "kép": 5398,
      "Diễm": 5399,
      "Get": 5400,
      "Si": 5401,
      "SHB": 5402,
      "bo": 5403,
      "cúp": 5404,
      "Vo": 5405,
      "TMCP": 5406,
      "Fr": 5407,
      "mòn": 5408,
      "##Net": 5409,
      "Trời": 5410,
      "vứt": 5411,
      "Tot": 5412,
      "lướt": 5413,
      "TPP": 5414,
      "##indows": 5415,
      "##ance": 5416,
      "Bóng": 5417,
      "Xiao": 5418,
      "tour": 5419,
      "Tum": 5420,
      "##ẻo": 5421,
      "hước": 5422,
      "Angel": 5423,
      "Wall": 5424,
      "cl": 5425,
      "from": 5426,
      "Mường": 5427,
      "rồng": 5428,
      "##SD": 5429,
      "up": 5430,
      "nhặt": 5431,
      "Lục": 5432,
      "lát": 5433,
      "Plus": 5434,
      "Vạn": 5435,
      "Kiệt": 5436,
      "Ford": 5437,
      "tụt": 5438,
      "Bloom": 5439,
      "##̀N": 5440,
      "bẫy": 5441,
      "DA": 5442,
      "láng": 5443,
      "##etro": 5444,
      "NHTM": 5445,
      "vã": 5446,
      "Dùng": 5447,
      "ranh": 5448,
      "##ational": 5449,
      "Tay": 5450,
      "2022": 5451,
      "chéo": 5452,
      "##́o": 5453,
      "Fer": 5454,
      "tớ": 5455,
      "160": 5456,
      "nhường": 5457,
      "##ings": 5458,
      "mía": 5459,
      "##iel": 5460,
      "##́T": 5461,
      "Vinamilk": 5462,
      "##ream": 5463,
      "hạch": 5464,
      "##ates": 5465,
      "Huawei": 5466,
      "hoạn": 5467,
      "##wood": 5468,
      "2002": 5469,
      "Id": 5470,
      "tống": 5471,
      "Vốn": 5472,
      "tỏi": 5473,
      "Mô": 5474,
      "kẹo": 5475,
      "Clip": 5476,
      "##sp": 5477,
      "thèm": 5478,
      "Gre": 5479,
      "Bức": 5480,
      "##azon": 5481,
      "nhát": 5482,
      "Manchester": 5483,
      "đè": 5484,
      "Cha": 5485,
      "Dòng": 5486,
      "Hán": 5487,
      "Trúc": 5488,
      "##yl": 5489,
      "Huân": 5490,
      "đắng": 5491,
      "hòn": 5492,
      "Giai": 5493,
      "##ribank": 5494,
      "hao": 5495,
      "lui": 5496,
      "chui": 5497,
      "Clin": 5498,
      "Gold": 5499,
      "Mot": 5500,
      "##ovic": 5501,
      "AI": 5502,
      "ANT": 5503,
      "##ny": 5504,
      "Will": 5505,
      "1000": 5506,
      "na": 5507,
      "##ews": 5508,
      "vân": 5509,
      "covid": 5510,
      "##iforn": 5511,
      "Sent": 5512,
      "trăng": 5513,
      "car": 5514,
      "##td": 5515,
      "ngất": 5516,
      "mồi": 5517,
      "vạch": 5518,
      "##ifornia": 5519,
      "khiếp": 5520,
      "FI": 5521,
      "thạch": 5522,
      "QU": 5523,
      "##by": 5524,
      "Khả": 5525,
      "mụn": 5526,
      "se": 5527,
      "chay": 5528,
      "rộ": 5529,
      "##TCK": 5530,
      "quát": 5531,
      "##cm": 5532,
      "##uela": 5533,
      "vặt": 5534,
      "Biden": 5535,
      "thủng": 5536,
      "ngài": 5537,
      "Agribank": 5538,
      "Liệu": 5539,
      "XIII": 5540,
      "vớt": 5541,
      "gu": 5542,
      "Inf": 5543,
      "Vlad": 5544,
      "NQ": 5545,
      "tặc": 5546,
      "đếm": 5547,
      "140": 5548,
      "##ena": 5549,
      "Bloomberg": 5550,
      "re": 5551,
      "##uz": 5552,
      "Del": 5553,
      "son": 5554,
      "Windows": 5555,
      "##arao": 5556,
      "Gen": 5557,
      "War": 5558,
      "##̃m": 5559,
      "xót": 5560,
      "yo": 5561,
      "Bayern": 5562,
      "Go": 5563,
      "##ins": 5564,
      "##gan": 5565,
      "We": 5566,
      "##zer": 5567,
      "Miền": 5568,
      "##ezuela": 5569,
      "khốc": 5570,
      "##pand": 5571,
      "##ha": 5572,
      "bong": 5573,
      "Diệp": 5574,
      "##iga": 5575,
      "##ala": 5576,
      "Tám": 5577,
      "Bi": 5578,
      "Cậu": 5579,
      "##que": 5580,
      "ĐTCK": 5581,
      "Đời": 5582,
      "nghênh": 5583,
      "Gò": 5584,
      "MS": 5585,
      "giọt": 5586,
      "Trấn": 5587,
      "##aco": 5588,
      "dãy": 5589,
      "##anc": 5590,
      "bồ": 5591,
      "lột": 5592,
      "vĩnh": 5593,
      "HCV": 5594,
      "California": 5595,
      "bấy": 5596,
      "125": 5597,
      "Venezuela": 5598,
      "nghịch": 5599,
      "tre": 5600,
      "ATM": 5601,
      "Milan": 5602,
      "##ali": 5603,
      "1992": 5604,
      "Michael": 5605,
      "##nham": 5606,
      "Mộc": 5607,
      "Merc": 5608,
      "cor": 5609,
      "Amazon": 5610,
      "Thức": 5611,
      "CPI": 5612,
      "mùng": 5613,
      "##atar": 5614,
      "Clinton": 5615,
      "TCTD": 5616,
      "sếp": 5617,
      "Tạ": 5618,
      "Mus": 5619,
      "##OA": 5620,
      "âu": 5621,
      "kẽ": 5622,
      "thềm": 5623,
      "##ũa": 5624,
      "##ock": 5625,
      "Pan": 5626,
      "MTV": 5627,
      "FB": 5628,
      "Big": 5629,
      "Nu": 5630,
      "AFF": 5631,
      "rớt": 5632,
      "ax": 5633,
      "##ova": 5634,
      "Getty": 5635,
      "tui": 5636,
      "Vòng": 5637,
      "Giáng": 5638,
      "rệt": 5639,
      "##eland": 5640,
      "LG": 5641,
      "##ớc": 5642,
      "Bill": 5643,
      "##ward": 5644,
      "##shi": 5645,
      "Or": 5646,
      "sen": 5647,
      "Grab": 5648,
      "bóp": 5649,
      "Đảo": 5650,
      "thiêu": 5651,
      "##ặm": 5652,
      "Mat": 5653,
      "VietinBank": 5654,
      "lau": 5655,
      "##ti": 5656,
      "##dr": 5657,
      "eo": 5658,
      "##IM": 5659,
      "Đọc": 5660,
      "##PA": 5661,
      "XI": 5662,
      "1995": 5663,
      "lộc": 5664,
      "léo": 5665,
      "Đồ": 5666,
      "CNN": 5667,
      "Hân": 5668,
      "Click": 5669,
      "họng": 5670,
      "Tạo": 5671,
      "ghé": 5672,
      "Libya": 5673,
      "1999": 5674,
      "táng": 5675,
      "Italia": 5676,
      "Vina": 5677,
      "vuông": 5678,
      "##ania": 5679,
      "Khương": 5680,
      "##onet": 5681,
      "nhọn": 5682,
      "Ir": 5683,
      "##andal": 5684,
      "Ta": 5685,
      "##ji": 5686,
      "##tenham": 5687,
      "cám": 5688,
      "Tel": 5689,
      "thiêng": 5690,
      "Xét": 5691,
      "Seoul": 5692,
      "Nơi": 5693,
      "##araoke": 5694,
      "Sw": 5695,
      "Bro": 5696,
      "Sup": 5697,
      "##ase": 5698,
      "Ram": 5699,
      "Xiaomi": 5700,
      "##urn": 5701,
      "##eting": 5702,
      "450": 5703,
      "Dư": 5704,
      "tước": 5705,
      "bồn": 5706,
      "##ect": 5707,
      "James": 5708,
      "##hu": 5709,
      "tạng": 5710,
      "xôi": 5711,
      "##int": 5712,
      "FC": 5713,
      "##iano": 5714,
      "Tinh": 5715,
      "##ealand": 5716,
      "mod": 5717,
      "nguyễn": 5718,
      "ODA": 5719,
      "đạc": 5720,
      "dạn": 5721,
      "vịnh": 5722,
      "##imir": 5723,
      "VKSND": 5724,
      "Post": 5725,
      "Exim": 5726,
      "rad": 5727,
      "ANTĐ": 5728,
      "ST": 5729,
      "qui": 5730,
      "xen": 5731,
      "giềng": 5732,
      "##enc": 5733,
      "xăm": 5734,
      "Sol": 5735,
      "khiêm": 5736,
      "bóc": 5737,
      "Ki": 5738,
      "Res": 5739,
      "khoang": 5740,
      "##ors": 5741,
      "bùn": 5742,
      "##atch": 5743,
      "Biểu": 5744,
      "ồ": 5745,
      "tám": 5746,
      "viếng": 5747,
      "IMF": 5748,
      "Nguy": 5749,
      "Chế": 5750,
      "van": 5751,
      "##its": 5752,
      "Star": 5753,
      "log": 5754,
      "mộc": 5755,
      "Tottenham": 5756,
      "Mông": 5757,
      "buồng": 5758,
      "Âm": 5759,
      "##use": 5760,
      "SL": 5761,
      "dỗ": 5762,
      "iPad": 5763,
      "tam": 5764,
      "tị": 5765,
      "##car": 5766,
      "##lob": 5767,
      "Red": 5768,
      "ngỡ": 5769,
      "Sport": 5770,
      "ATGT": 5771,
      "Hỗ": 5772,
      "Vật": 5773,
      "vượng": 5774,
      "nghiệt": 5775,
      "Ros": 5776,
      "##edes": 5777,
      "éo": 5778,
      "ĐBQH": 5779,
      "Buổi": 5780,
      "cp": 5781,
      "Lãi": 5782,
      "nương": 5783,
      "Lĩnh": 5784,
      "bứt": 5785,
      "Forex": 5786,
      "##illa": 5787,
      "chìa": 5788,
      "##BS": 5789,
      "1975": 5790,
      "Cặp": 5791,
      "##IN": 5792,
      "Vladimir": 5793,
      "gầm": 5794,
      "1997": 5795,
      "##RE": 5796,
      "##SCL": 5797,
      "điền": 5798,
      "cò": 5799,
      "Vượng": 5800,
      "dép": 5801,
      "oxy": 5802,
      "South": 5803,
      "TƯ": 5804,
      "Eximbank": 5805,
      "ngặt": 5806,
      "Pa": 5807,
      "Lăng": 5808,
      "FLC": 5809,
      "Luân": 5810,
      "khử": 5811,
      "VNPT": 5812,
      "Bầu": 5813,
      "kỉ": 5814,
      "ser": 5815,
      "PVN": 5816,
      "VAMC": 5817,
      "Zealand": 5818,
      "lót": 5819,
      "##eing": 5820,
      "Tom": 5821,
      "Mong": 5822,
      "##̣C": 5823,
      "Thánh": 5824,
      "giếng": 5825,
      "Inst": 5826,
      "Tạp": 5827,
      "dào": 5828,
      "nốt": 5829,
      "##uis": 5830,
      "gen": 5831,
      "Ga": 5832,
      "Hàm": 5833,
      "Khí": 5834,
      "xì": 5835,
      "##any": 5836,
      "##ON": 5837,
      "##okia": 5838,
      "Giữa": 5839,
      "khiêu": 5840,
      "##ưỡi": 5841,
      "ĐBSCL": 5842,
      "le": 5843,
      "neo": 5844,
      "khía": 5845,
      "Note": 5846,
      "vú": 5847,
      "đôn": 5848,
      "VGP": 5849,
      "FED": 5850,
      "on": 5851,
      "1993": 5852,
      "Buôn": 5853,
      "đấm": 5854,
      "pl": 5855,
      "108": 5856,
      "MW": 5857,
      "tò": 5858,
      "ngần": 5859,
      "Av": 5860,
      "Tri": 5861,
      "nén": 5862,
      "chiết": 5863,
      "XK": 5864,
      "bl": 5865,
      "liv": 5866,
      "xấp": 5867,
      "Victor": 5868,
      "tạ": 5869,
      "đũa": 5870,
      "Tal": 5871,
      "Vua": 5872,
      "thám": 5873,
      "expand": 5874,
      "my": 5875,
      "LĐLĐ": 5876,
      "robot": 5877,
      "đệm": 5878,
      "##aba": 5879,
      "út": 5880,
      "Kar": 5881,
      "Chồng": 5882,
      "nọ": 5883,
      "nhục": 5884,
      "##BP": 5885,
      "đinh": 5886,
      "còi": 5887,
      "Xử": 5888,
      "hcm": 5889,
      "bôi": 5890,
      "kệ": 5891,
      "##akh": 5892,
      "West": 5893,
      "Land": 5894,
      "Shi": 5895,
      "##eshow": 5896,
      "##uck": 5897,
      "nô": 5898,
      "##Nam": 5899,
      "ráo": 5900,
      "Hoặc": 5901,
      "xẻ": 5902,
      "Sil": 5903,
      "Paul": 5904,
      "##ga": 5905,
      "CATP": 5906,
      "karaoke": 5907,
      "##abeco": 5908,
      "##iger": 5909,
      "CM": 5910,
      "1998": 5911,
      "Giảm": 5912,
      "DO": 5913,
      "##top": 5914,
      "xát": 5915,
      "Rõ": 5916,
      "khuất": 5917,
      "Nokia": 5918,
      "Mê": 5919,
      "One": 5920,
      "EUR": 5921,
      "giặt": 5922,
      "Net": 5923,
      "##gh": 5924,
      "##ventus": 5925,
      "##HS": 5926,
      "##oto": 5927,
      "##ổng": 5928,
      "Táo": 5929,
      "lách": 5930,
      "1994": 5931,
      "VCB": 5932,
      "đính": 5933,
      "115": 5934,
      "bưu": 5935,
      "chậu": 5936,
      "##ps": 5937,
      "##ƯT": 5938,
      "Ke": 5939,
      "tú": 5940,
      "##̀NH": 5941,
      "##utube": 5942,
      "trăn": 5943,
      "cành": 5944,
      "Xác": 5945,
      "Lộ": 5946,
      "Fin": 5947,
      "Ít": 5948,
      "##HO": 5949,
      "Guard": 5950,
      "Lấy": 5951,
      "##̀I": 5952,
      "Phù": 5953,
      "##bin": 5954,
      "nàn": 5955,
      "##ts": 5956,
      "mập": 5957,
      "nan": 5958,
      "nâu": 5959,
      "dặn": 5960,
      "hét": 5961,
      "đặn": 5962,
      "##ja": 5963,
      "hoán": 5964,
      "nhiếp": 5965,
      "##li": 5966,
      "Thất": 5967,
      "Nâng": 5968,
      "ghê": 5969,
      "##imex": 5970,
      "MH": 5971,
      "Boeing": 5972,
      "##ann": 5973,
      "##ẻm": 5974,
      "PM": 5975,
      "app": 5976,
      "Hen": 5977,
      "Nhằm": 5978,
      "said": 5979,
      "điêu": 5980,
      "Tứ": 5981,
      "Gh": 5982,
      "Tai": 5983,
      "Her": 5984,
      "tưới": 5985,
      "Juventus": 5986,
      "##burg": 5987,
      "dưng": 5988,
      "rò": 5989,
      "Tức": 5990,
      "Nhạc": 5991,
      "PSG": 5992,
      "Bol": 5993,
      "lốp": 5994,
      "##ower": 5995,
      "mác": 5996,
      "Từng": 5997,
      "Hill": 5998,
      "##iam": 5999,
      "Serg": 6000,
      "hốt": 6001,
      "Khuê": 6002,
      "TNG": 6003,
      "Chuyển": 6004,
      "quầy": 6005,
      "##way": 6006,
      "cưng": 6007,
      "Robert": 6008,
      "##PP": 6009,
      "1996": 6010,
      "ni": 6011,
      "1991": 6012,
      "Grand": 6013,
      "IQ": 6014,
      "##ÔNG": 6015,
      "girl": 6016,
      "##bai": 6017,
      "mâm": 6018,
      "DL": 6019,
      "Thẩm": 6020,
      "ạt": 6021,
      "phím": 6022,
      "Độc": 6023,
      "khao": 6024,
      "##we": 6025,
      "##yan": 6026,
      "##agram": 6027,
      "vl": 6028,
      "##aza": 6029,
      "NSƯT": 6030,
      "Im": 6031,
      "FA": 6032,
      "cược": 6033,
      "Thích": 6034,
      "SSI": 6035,
      "Ri": 6036,
      "Cháu": 6037,
      "kè": 6038,
      "ET": 6039,
      "CAND": 6040,
      "Jose": 6041,
      "Uber": 6042,
      "thâu": 6043,
      "GĐ": 6044,
      "Hiểu": 6045,
      "nhức": 6046,
      "Mercedes": 6047,
      "Núi": 6048,
      "Giống": 6049,
      "##exit": 6050,
      "170": 6051,
      "tơ": 6052,
      "Bel": 6053,
      "##ium": 6054,
      "##phu": 6055,
      "NSNN": 6056,
      "Barack": 6057,
      "BĐBP": 6058,
      "lam": 6059,
      "vấp": 6060,
      "BBC": 6061,
      "thỉnh": 6062,
      "cẩu": 6063,
      "##ụa": 6064,
      "##zo": 6065,
      "chọc": 6066,
      "Holly": 6067,
      "gấu": 6068,
      "Nov": 6069,
      "Arabia": 6070,
      "bươ": 6071,
      "Ever": 6072,
      "thối": 6073,
      "1982": 6074,
      "vác": 6075,
      "quyên": 6076,
      "Vệ": 6077,
      "NSND": 6078,
      "Trực": 6079,
      "mỉ": 6080,
      "##kok": 6081,
      "MP": 6082,
      "Than": 6083,
      "bưởi": 6084,
      "##undai": 6085,
      "105": 6086,
      "BMW": 6087,
      "Sách": 6088,
      "bitcoin": 6089,
      "nhôm": 6090,
      "óc": 6091,
      "ậ": 6092,
      "vơ": 6093,
      "##MA": 6094,
      "WHO": 6095,
      "Bưu": 6096,
      "trơn": 6097,
      "Khó": 6098,
      "êm": 6099,
      "Cổng": 6100,
      "lọ": 6101,
      "test": 6102,
      "te": 6103,
      "Tranh": 6104,
      "##zy": 6105,
      "Khám": 6106,
      "Chuẩn": 6107,
      "xám": 6108,
      "##nik": 6109,
      "quạt": 6110,
      "Hung": 6111,
      "Brexit": 6112,
      "mông": 6113,
      "thắp": 6114,
      "Đưa": 6115,
      "##port": 6116,
      "sườn": 6117,
      "Chứ": 6118,
      "dai": 6119,
      "Da": 6120,
      "192": 6121,
      "báu": 6122,
      "chuông": 6123,
      "VietNam": 6124,
      "Ghi": 6125,
      "quyển": 6126,
      "axit": 6127,
      "mịn": 6128,
      "văng": 6129,
      "##my": 6130,
      "hãm": 6131,
      "Tùy": 6132,
      "1980": 6133,
      "##bon": 6134,
      "220": 6135,
      "rổ": 6136,
      "IPO": 6137,
      "mươi": 6138,
      "Tuyển": 6139,
      "NGUYÊ": 6140,
      "Jones": 6141,
      "ván": 6142,
      "mồm": 6143,
      "Ước": 6144,
      "Trâm": 6145,
      "khan": 6146,
      "chuồng": 6147,
      "mo": 6148,
      "ad": 6149,
      "Km": 6150,
      "Hào": 6151,
      "phẳng": 6152,
      "Christ": 6153,
      "Comp": 6154,
      "Mun": 6155,
      "mark": 6156,
      "KS": 6157,
      "##ƯƠNG": 6158,
      "Vườn": 6159,
      "chen": 6160,
      "Ku": 6161,
      "Ge": 6162,
      "##za": 6163,
      "Mod": 6164,
      "##cean": 6165,
      "193": 6166,
      "YouT": 6167,
      "FIFA": 6168,
      "Đổi": 6169,
      "190": 6170,
      "tát": 6171,
      "chén": 6172,
      "##uss": 6173,
      "xuôi": 6174,
      "Tưởng": 6175,
      "##he": 6176,
      "Sống": 6177,
      "UBCK": 6178,
      "Bangkok": 6179,
      "Rich": 6180,
      "Đá": 6181,
      "Trình": 6182,
      "lụy": 6183,
      "rốt": 6184,
      "méo": 6185,
      "WTO": 6186,
      "Jenn": 6187,
      "Thằng": 6188,
      "né": 6189,
      "ngẫu": 6190,
      "Qatar": 6191,
      "VNM": 6192,
      "Hyundai": 6193,
      "##ire": 6194,
      "Shin": 6195,
      "nắp": 6196,
      "Glob": 6197,
      "##aka": 6198,
      "đèo": 6199,
      "Sony": 6200,
      "Đoạn": 6201,
      "Thỏa": 6202,
      "Mời": 6203,
      "đùi": 6204,
      "##ima": 6205,
      "hẻm": 6206,
      "WB": 6207,
      "##ragon": 6208,
      "hoi": 6209,
      "##TE": 6210,
      "phô": 6211,
      "thìa": 6212,
      "rơ": 6213,
      "chiên": 6214,
      "Mạch": 6215,
      "Mail": 6216,
      "xoáy": 6217,
      "Bal": 6218,
      "Làng": 6219,
      "UAE": 6220,
      "hé": 6221,
      "Khuyến": 6222,
      "nhược": 6223,
      "Po": 6224,
      "Đắc": 6225,
      "Str": 6226,
      "GMT": 6227,
      "scandal": 6228,
      "TK": 6229,
      "Đỏ": 6230,
      "cháo": 6231,
      "ướt": 6232,
      "Palest": 6233,
      "lung": 6234,
      "Roy": 6235,
      "Quỷ": 6236,
      "Áp": 6237,
      "Ocean": 6238,
      "nga": 6239,
      "##ame": 6240,
      "Khôi": 6241,
      "##che": 6242,
      "đun": 6243,
      "nuốt": 6244,
      "xào": 6245,
      "Kur": 6246,
      "Max": 6247,
      "Đằng": 6248,
      "hưng": 6249,
      "cớ": 6250,
      "golf": 6251,
      "Thì": 6252,
      "thửa": 6253,
      "Ân": 6254,
      "##ven": 6255,
      "BC": 6256,
      "##ăk": 6257,
      "LS": 6258,
      "TC": 6259,
      "đắm": 6260,
      "ĐA": 6261,
      "khuya": 6262,
      "Khác": 6263,
      "VC": 6264,
      "##iev": 6265,
      "Super": 6266,
      "lánh": 6267,
      "Gar": 6268,
      "râu": 6269,
      "CR": 6270,
      "ập": 6271,
      "Saigon": 6272,
      "cỗ": 6273,
      "##ốm": 6274,
      "ngỏ": 6275,
      "TM": 6276,
      "corona": 6277,
      "chốn": 6278,
      "Option": 6279,
      "đốn": 6280,
      "China": 6281,
      "Góc": 6282,
      "##ony": 6283,
      "radar": 6284,
      "bún": 6285,
      "Pep": 6286,
      "nòng": 6287,
      "nạ": 6288,
      "750": 6289,
      "khốn": 6290,
      "##ella": 6291,
      "TD": 6292,
      "Me": 6293,
      "trệ": 6294,
      "rong": 6295,
      "Palestine": 6296,
      "##IS": 6297,
      "mài": 6298,
      "tràng": 6299,
      "he": 6300,
      "đan": 6301,
      "##SCO": 6302,
      "Ký": 6303,
      "choáng": 6304,
      "Instagram": 6305,
      "Điệp": 6306,
      "Ngư": 6307,
      "##ua": 6308,
      "YouTube": 6309,
      "trán": 6310,
      "Hollywood": 6311,
      "cấy": 6312,
      "me": 6313,
      "Trở": 6314,
      "##eta": 6315,
      "SU": 6316,
      "TNGT": 6317,
      "mìn": 6318,
      "răn": 6319,
      "luộc": 6320,
      "##̃N": 6321,
      "##ếm": 6322,
      "xoắn": 6323,
      "Ha": 6324,
      "xoa": 6325,
      "##uki": 6326,
      "thê": 6327,
      "Fl": 6328,
      "tem": 6329,
      "Chinhphu": 6330,
      "Charl": 6331,
      "##ere": 6332,
      "ml": 6333,
      "Lò": 6334,
      "VnE": 6335,
      "Cúp": 6336,
      "1988": 6337,
      "protein": 6338,
      "Sn": 6339,
      "nuối": 6340,
      "diệu": 6341,
      "##ris": 6342,
      "1989": 6343,
      "Mel": 6344,
      "Rồng": 6345,
      "Củ": 6346,
      "đục": 6347,
      "Flor": 6348,
      "Kia": 6349,
      "Bốn": 6350,
      "gạt": 6351,
      "nấy": 6352,
      "phì": 6353,
      "tẩu": 6354,
      "##aya": 6355,
      "Màn": 6356,
      "Abe": 6357,
      "gậy": 6358,
      "bạ": 6359,
      "gai": 6360,
      "xổ": 6361,
      "##ida": 6362,
      "Sim": 6363,
      "nản": 6364,
      "Amer": 6365,
      "##uel": 6366,
      "##aptop": 6367,
      "rách": 6368,
      "sim": 6369,
      "mau": 6370,
      "##chain": 6371,
      "quật": 6372,
      "##act": 6373,
      "TX": 6374,
      "gieo": 6375,
      "TG": 6376,
      "VietNamNet": 6377,
      "##ife": 6378,
      "##eymar": 6379,
      "Vol": 6380,
      "mắng": 6381,
      "Capital": 6382,
      "##ss": 6383,
      "lén": 6384,
      "BL": 6385,
      "TNO": 6386,
      "Young": 6387,
      "##osh": 6388,
      "Techcombank": 6389,
      "tia": 6390,
      "sưng": 6391,
      "seo": 6392,
      "Chuyến": 6393,
      "Dis": 6394,
      "Hi": 6395,
      "##bi": 6396,
      "Chúa": 6397,
      "visa": 6398,
      "bẩy": 6399,
      "William": 6400,
      "Chọn": 6401,
      "All": 6402,
      "##bes": 6403,
      "101": 6404,
      "360": 6405,
      "chèo": 6406,
      "Nik": 6407,
      "nghẽn": 6408,
      "##iF": 6409,
      "Hảo": 6410,
      "Mậu": 6411,
      "cày": 6412,
      "giơ": 6413,
      "##50": 6414,
      "Tra": 6415,
      "Nghiêm": 6416,
      "mar": 6417,
      "CV": 6418,
      "Phổ": 6419,
      "Nay": 6420,
      "iOS": 6421,
      "mạ": 6422,
      "Global": 6423,
      "##national": 6424,
      "##aha": 6425,
      "##py": 6426,
      "##els": 6427,
      "bạt": 6428,
      "##ờn": 6429,
      "Tông": 6430,
      "quỵ": 6431,
      "Phụng": 6432,
      "Jun": 6433,
      "Han": 6434,
      "Cú": 6435,
      "Neymar": 6436,
      "Lat": 6437,
      "rùa": 6438,
      "##enko": 6439,
      "Đứng": 6440,
      "Nhuận": 6441,
      "Chấn": 6442,
      "RE": 6443,
      "Sky": 6444,
      "Canh": 6445,
      "Pat": 6446,
      "ủ": 6447,
      "shop": 6448,
      "dang": 6449,
      "Vài": 6450,
      "nhái": 6451,
      "lư": 6452,
      "Kẻ": 6453,
      "gõ": 6454,
      "Dĩ": 6455,
      "Web": 6456,
      "Brun": 6457,
      "##vest": 6458,
      "cọ": 6459,
      "Vĩ": 6460,
      "xướng": 6461,
      "mini": 6462,
      "nể": 6463,
      "sỏi": 6464,
      "##ckchain": 6465,
      "##TN": 6466,
      "ầm": 6467,
      "TĐ": 6468,
      "chiêm": 6469,
      "Pe": 6470,
      "tivi": 6471,
      "bỉ": 6472,
      "nhộn": 6473,
      "via": 6474,
      "Maz": 6475,
      "##mo": 6476,
      "tấp": 6477,
      "Mạng": 6478,
      "gừng": 6479,
      "at": 6480,
      "ủi": 6481,
      "bin": 6482,
      "Đam": 6483,
      "ac": 6484,
      "Tiết": 6485,
      "ngoạn": 6486,
      "oz": 6487,
      "Asia": 6488,
      "Bãi": 6489,
      "##itt": 6490,
      "##uts": 6491,
      "sâm": 6492,
      "Los": 6493,
      "EV": 6494,
      "##ert": 6495,
      "##erson": 6496,
      "vãi": 6497,
      "GIA": 6498,
      "ngươi": 6499,
      "Lân": 6500,
      "XV": 6501,
      "NTM": 6502,
      "Buff": 6503,
      "Trụ": 6504,
      "##ÂN": 6505,
      "Med": 6506,
      "set": 6507,
      "##iet": 6508,
      "rẫy": 6509,
      "usd": 6510,
      "Món": 6511,
      "Sabeco": 6512,
      "mít": 6513,
      "quỷ": 6514,
      "hổng": 6515,
      "Forbes": 6516,
      "str": 6517,
      "ngậm": 6518,
      "lanh": 6519,
      "Lang": 6520,
      "##ker": 6521,
      "Tướng": 6522,
      "Ngữ": 6523,
      "##ander": 6524,
      "##ustin": 6525,
      "lộng": 6526,
      "xay": 6527,
      "##ole": 6528,
      "##lus": 6529,
      "bới": 6530,
      "Jord": 6531,
      "Dr": 6532,
      "rước": 6533,
      "nhiễu": 6534,
      "1986": 6535,
      "Hạt": 6536,
      "SLNA": 6537,
      "##air": 6538,
      "SCIC": 6539,
      "bệ": 6540,
      "Sm": 6541,
      "bực": 6542,
      "sành": 6543,
      "oC": 6544,
      "Trân": 6545,
      "##FTA": 6546,
      "Mùi": 6547,
      "phở": 6548,
      "Cro": 6549,
      "##DL": 6550,
      "nguội": 6551,
      "Giọng": 6552,
      "LA": 6553,
      "Tố": 6554,
      "Vinac": 6555,
      "Hường": 6556,
      "TU": 6557,
      "be": 6558,
      "Mang": 6559,
      "xắn": 6560,
      "##ibaba": 6561,
      "HOA": 6562,
      "lẫy": 6563,
      "dẻo": 6564,
      "##du": 6565,
      "Oscar": 6566,
      "rập": 6567,
      "hero": 6568,
      "giò": 6569,
      "Sir": 6570,
      "Benz": 6571,
      "International": 6572,
      "ok": 6573,
      "##iness": 6574,
      "Aud": 6575,
      "650": 6576,
      "##isa": 6577,
      "Bánh": 6578,
      "BR": 6579,
      "##óp": 6580,
      "102": 6581,
      "##ider": 6582,
      "Nad": 6583,
      "nộ": 6584,
      "##̣i": 6585,
      "khoanh": 6586,
      "##ishi": 6587,
      "Joe": 6588,
      "rụng": 6589,
      "Ngũ": 6590,
      "Meg": 6591,
      "tấu": 6592,
      "Pu": 6593,
      "##ashin": 6594,
      "gặt": 6595,
      "khoái": 6596,
      "quấy": 6597,
      "ướp": 6598,
      "Tốt": 6599,
      "##jet": 6600,
      "run": 6601,
      "Càng": 6602,
      "##si": 6603,
      "tản": 6604,
      "rót": 6605,
      "##ave": 6606,
      "##stan": 6607,
      "rảnh": 6608,
      "##HC": 6609,
      "ngàng": 6610,
      "320": 6611,
      "Cải": 6612,
      "128": 6613,
      "Đẩy": 6614,
      "Gặp": 6615,
      "##ign": 6616,
      "FTA": 6617,
      "nhậm": 6618,
      "NDT": 6619,
      "Lầu": 6620,
      "lữ": 6621,
      "Dong": 6622,
      "SB": 6623,
      "Thôi": 6624,
      "Hot": 6625,
      "##Ch": 6626,
      "vách": 6627,
      "lún": 6628,
      "gầy": 6629,
      "##ence": 6630,
      "thạc": 6631,
      "##do": 6632,
      "Tuân": 6633,
      "vòi": 6634,
      "##vel": 6635,
      "##utnik": 6636,
      "##EF": 6637,
      "##letico": 6638,
      "##enger": 6639,
      "##bor": 6640,
      "##reet": 6641,
      "Tý": 6642,
      "##yn": 6643,
      "tăm": 6644,
      "dè": 6645,
      "Chùa": 6646,
      "kW": 6647,
      "##NV": 6648,
      "Nav": 6649,
      "##Ị": 6650,
      "Rooney": 6651,
      "HQ": 6652,
      "Trải": 6653,
      "Bern": 6654,
      "##fi": 6655,
      "ế": 6656,
      "suýt": 6657,
      "triết": 6658,
      "TPO": 6659,
      "##zone": 6660,
      "xé": 6661,
      "bén": 6662,
      "##our": 6663,
      "Assad": 6664,
      "chững": 6665,
      "Lên": 6666,
      "Đợt": 6667,
      "res": 6668,
      "550": 6669,
      "kìm": 6670,
      "240": 6671,
      "bú": 6672,
      "Vô": 6673,
      "Colom": 6674,
      "##rge": 6675,
      "##FC": 6676,
      "Alibaba": 6677,
      "Lữ": 6678,
      "Liga": 6679,
      "rễ": 6680,
      "Carl": 6681,
      "Tor": 6682,
      "##ila": 6683,
      "sấu": 6684,
      "lờ": 6685,
      "Op": 6686,
      "##cel": 6687,
      "muôn": 6688,
      "Jer": 6689,
      "hack": 6690,
      "##ival": 6691,
      "Atletico": 6692,
      "1987": 6693,
      "rạch": 6694,
      "XIV": 6695,
      "Ger": 6696,
      "heroin": 6697,
      "khỉ": 6698,
      "dì": 6699,
      "Asian": 6700,
      "##ET": 6701,
      "##emen": 6702,
      "Nền": 6703,
      "Dan": 6704,
      "Nghiệp": 6705,
      "Suốt": 6706,
      "Lô": 6707,
      "Ái": 6708,
      "trader": 6709,
      "##EM": 6710,
      "Ưu": 6711,
      "bênh": 6712,
      "Chan": 6713,
      "##ange": 6714,
      "Sec": 6715,
      "Thom": 6716,
      "blog": 6717,
      "##ons": 6718,
      "chì": 6719,
      "chót": 6720,
      "VIC": 6721,
      "bã": 6722,
      "##VC": 6723,
      "Tràng": 6724,
      "Kiev": 6725,
      "##PS": 6726,
      "Lớn": 6727,
      "rụi": 6728,
      "Đóng": 6729,
      "##CD": 6730,
      "sọ": 6731,
      "thòi": 6732,
      "Ji": 6733,
      "##ki": 6734,
      "lụa": 6735,
      "is": 6736,
      "191": 6737,
      "ETF": 6738,
      "##ski": 6739,
      "Intel": 6740,
      "Sputnik": 6741,
      "Dani": 6742,
      "coin": 6743,
      "chọi": 6744,
      "Bor": 6745,
      "##osa": 6746,
      "##VO": 6747,
      "toa": 6748,
      "King": 6749,
      "Dam": 6750,
      "Lâu": 6751,
      "##gi": 6752,
      "ngửa": 6753,
      "xịt": 6754,
      "sp": 6755,
      "ki": 6756,
      "shi": 6757,
      "laptop": 6758,
      "Infonet": 6759,
      "Dow": 6760,
      "sừng": 6761,
      "Nhớ": 6762,
      "##hy": 6763,
      "NLĐO": 6764,
      "##asc": 6765,
      "Ne": 6766,
      "Chữ": 6767,
      "start": 6768,
      "##ixel": 6769,
      "gốm": 6770,
      "Doãn": 6771,
      "rô": 6772,
      "phen": 6773,
      "Côn": 6774,
      "keo": 6775,
      "##DS": 6776,
      "ngây": 6777,
      "Don": 6778,
      "Hợi": 6779,
      "chưng": 6780,
      "##nes": 6781,
      "##aki": 6782,
      "Cat": 6783,
      "Nằm": 6784,
      "##Co": 6785,
      "Nhiệm": 6786,
      "Martin": 6787,
      "PN": 6788,
      "Nợ": 6789,
      "Màu": 6790,
      "AC": 6791,
      "##ille": 6792,
      "next": 6793,
      "Old": 6794,
      "Mazda": 6795,
      "hăng": 6796,
      "trêu": 6797,
      "nhịn": 6798,
      "Nat": 6799,
      "##ks": 6800,
      "off": 6801,
      "then": 6802,
      "Jordan": 6803,
      "##ield": 6804,
      "Yam": 6805,
      "nhã": 6806,
      "##res": 6807,
      "muỗi": 6808,
      "##bus": 6809,
      "##agen": 6810,
      "cty": 6811,
      "Lũ": 6812,
      "##kh": 6813,
      "tạt": 6814,
      "Quách": 6815,
      "Vấp": 6816,
      "bìa": 6817,
      "Chàng": 6818,
      "113": 6819,
      "Mưa": 6820,
      "Mây": 6821,
      "giằng": 6822,
      "Ngọ": 6823,
      "Đậu": 6824,
      "viet": 6825,
      "Dinh": 6826,
      "135": 6827,
      "George": 6828,
      "cuộn": 6829,
      "##vo": 6830,
      "Thưa": 6831,
      "hít": 6832,
      "vùi": 6833,
      "Vinashin": 6834,
      "Pha": 6835,
      "Vietinbank": 6836,
      "kiêng": 6837,
      "Bát": 6838,
      "phẫn": 6839,
      "GAS": 6840,
      "##ita": 6841,
      "diễu": 6842,
      "vỗ": 6843,
      "thản": 6844,
      "##TTP": 6845,
      "Harry": 6846,
      "Chăm": 6847,
      "##AP": 6848,
      "370": 6849,
      "Johnson": 6850,
      "Cúc": 6851,
      "Won": 6852,
      "Giết": 6853,
      "Sắp": 6854,
      "1985": 6855,
      "##ớm": 6856,
      "##aser": 6857,
      "uốn": 6858,
      "NGUYỄN": 6859,
      "rỗi": 6860,
      "Sar": 6861,
      "tốp": 6862,
      "Moham": 6863,
      "RAM": 6864,
      "Ur": 6865,
      "bịt": 6866,
      "##mail": 6867,
      "103": 6868,
      "Hòn": 6869,
      "Mối": 6870,
      "phao": 6871,
      "##01": 6872,
      "sexy": 6873,
      "##aku": 6874,
      "vắt": 6875,
      "rầm": 6876,
      "cối": 6877,
      "##esel": 6878,
      "CQ": 6879,
      "Đền": 6880,
      "##ago": 6881,
      "Munich": 6882,
      "##ages": 6883,
      "Angela": 6884,
      "rã": 6885,
      "GM": 6886,
      "Colombia": 6887,
      "Fi": 6888,
      "SD": 6889,
      "##ader": 6890,
      "##anda": 6891,
      "PHA": 6892,
      "##rm": 6893,
      "Utd": 6894,
      "Frank": 6895,
      "gộp": 6896,
      "náo": 6897,
      "Thú": 6898,
      "Bỏ": 6899,
      "Đáp": 6900,
      "Victoria": 6901,
      "Tan": 6902,
      "##ster": 6903,
      "SP": 6904,
      "##imes": 6905,
      "##ading": 6906,
      "bẩm": 6907,
      "##kel": 6908,
      "##BA": 6909,
      "##KD": 6910,
      "VNĐ": 6911,
      "sòng": 6912,
      "##elle": 6913,
      "bẻ": 6914,
      "sờ": 6915,
      "Vai": 6916,
      "##ding": 6917,
      "by": 6918,
      "##raph": 6919,
      "##́NG": 6920,
      "Franc": 6921,
      "rưỡi": 6922,
      "vét": 6923,
      "##bs": 6924,
      "##istics": 6925,
      "VII": 6926,
      "giã": 6927,
      "##ER": 6928,
      "lũng": 6929,
      "Tịnh": 6930,
      "LED": 6931,
      "Ru": 6932,
      "Louis": 6933,
      "Nas": 6934,
      "liveshow": 6935,
      "Green": 6936,
      "Maria": 6937,
      "úng": 6938,
      "##limex": 6939,
      "Home": 6940,
      "dê": 6941,
      "mí": 6942,
      "nần": 6943,
      "Phấn": 6944,
      "nức": 6945,
      "đao": 6946,
      "Sl": 6947,
      "CU": 6948,
      "sô": 6949,
      "Tur": 6950,
      "Lim": 6951,
      "cào": 6952,
      "ngứa": 6953,
      "Ireland": 6954,
      "Chiểu": 6955,
      "giòn": 6956,
      "Diện": 6957,
      "Youtube": 6958,
      "Moon": 6959,
      "##ree": 6960,
      "bừng": 6961,
      "Ver": 6962,
      "Mur": 6963,
      "đả": 6964,
      "Pol": 6965,
      "##pto": 6966,
      "Mr": 6967,
      "Miura": 6968,
      "Crime": 6969,
      "Wil": 6970,
      "##̉N": 6971,
      "##iFone": 6972,
      "Vang": 6973,
      "háo": 6974,
      "Vietjet": 6975,
      "MobiFone": 6976,
      "len": 6977,
      "lười": 6978,
      "Ah": 6979,
      "Lau": 6980,
      "##uồi": 6981,
      "Bos": 6982,
      "##ươm": 6983,
      "##SP": 6984,
      "en": 6985,
      "Cầm": 6986,
      "Uống": 6987,
      "##eda": 6988,
      "mốt": 6989,
      "xoài": 6990,
      "##ppo": 6991,
      "##IỆ": 6992,
      "nhuộm": 6993,
      "thon": 6994,
      "Dần": 6995,
      "UPC": 6996,
      "Đen": 6997,
      "##ement": 6998,
      "##uto": 6999,
      "Mẫn": 7000,
      "Ving": 7001,
      "##les": 7002,
      "Móng": 7003,
      "1970": 7004,
      "nóc": 7005,
      "Sắc": 7006,
      "Tầm": 7007,
      "ri": 7008,
      "##fford": 7009,
      "Nic": 7010,
      "op": 7011,
      "##ets": 7012,
      "khiếm": 7013,
      "KL": 7014,
      "bik": 7015,
      "lẩn": 7016,
      "Thới": 7017,
      "cc": 7018,
      "##sey": 7019,
      "HU": 7020,
      "UNE": 7021,
      "voz": 7022,
      "##orm": 7023,
      "đẫm": 7024,
      "Thắm": 7025,
      "Petrolimex": 7026,
      "Hoan": 7027,
      "##ủi": 7028,
      "1945": 7029,
      "chảo": 7030,
      "##KH": 7031,
      "Chile": 7032,
      "Up": 7033,
      "Lad": 7034,
      "using": 7035,
      "Cas": 7036,
      "sởi": 7037,
      "##aro": 7038,
      "##van": 7039,
      "Hỏi": 7040,
      "112": 7041,
      "đò": 7042,
      "mg": 7043,
      "ngán": 7044,
      "Ib": 7045,
      "Hold": 7046,
      "##ahoo": 7047,
      "chánh": 7048,
      "bọt": 7049,
      "##ato": 7050,
      "Vingroup": 7051,
      "ưng": 7052,
      "nhọc": 7053,
      "tro": 7054,
      "##Tr": 7055,
      "Crimea": 7056,
      "Whi": 7057,
      "Lão": 7058,
      "Cử": 7059,
      "Beck": 7060,
      "Chống": 7061,
      "Dj": 7062,
      "nhàn": 7063,
      "Tuệ": 7064,
      "##IDS": 7065,
      "Form": 7066,
      "Idol": 7067,
      "##issan": 7068,
      "kèo": 7069,
      "yến": 7070,
      "logo": 7071,
      "SUV": 7072,
      "##cy": 7073,
      "##rypto": 7074,
      "##ator": 7075,
      "Thuột": 7076,
      "búa": 7077,
      "Oai": 7078,
      "##tin": 7079,
      "dấy": 7080,
      "##conom": 7081,
      "HNM": 7082,
      "Chín": 7083,
      "Đăk": 7084,
      "Bọn": 7085,
      "##arm": 7086,
      "##ym": 7087,
      "Kính": 7088,
      "xáo": 7089,
      "CK": 7090,
      "Thiêm": 7091,
      "Bàng": 7092,
      "phà": 7093,
      "Rập": 7094,
      "Thịt": 7095,
      "##unt": 7096,
      "BG": 7097,
      "Đấu": 7098,
      "Sàn": 7099,
      "NK": 7100,
      "Út": 7101,
      "##99": 7102,
      "kWh": 7103,
      "Mạc": 7104,
      "nhồi": 7105,
      "##ele": 7106,
      "Fox": 7107,
      "##́I": 7108,
      "Ea": 7109,
      "Bas": 7110,
      "Nỗi": 7111,
      "##̉I": 7112,
      "##MB": 7113,
      "##gar": 7114,
      "thạo": 7115,
      "107": 7116,
      "##EA": 7117,
      "1979": 7118,
      "Đám": 7119,
      "fl": 7120,
      "##ific": 7121,
      "1984": 7122,
      "##ody": 7123,
      "nang": 7124,
      "104": 7125,
      "Teh": 7126,
      "lều": 7127,
      "Hỏa": 7128,
      "##xpress": 7129,
      "##itch": 7130,
      "OP": 7131,
      "Tuyền": 7132,
      "sầu": 7133,
      "kìa": 7134,
      "LHP": 7135,
      "ĐHCĐ": 7136,
      "Luận": 7137,
      "USS": 7138,
      "pr": 7139,
      "hán": 7140,
      "UNESCO": 7141,
      "##kin": 7142,
      "VHTT": 7143,
      "gót": 7144,
      "Bur": 7145,
      "ngạt": 7146,
      "230": 7147,
      "##omp": 7148,
      "cưa": 7149,
      "Blu": 7150,
      "Ol": 7151,
      "Ple": 7152,
      "ách": 7153,
      "giặc": 7154,
      "106": 7155,
      "xít": 7156,
      "##íu": 7157,
      "mic": 7158,
      "Motor": 7159,
      "Xo": 7160,
      "Jan": 7161,
      "PVC": 7162,
      "NX": 7163,
      "Hano": 7164,
      "IT": 7165,
      "Mek": 7166,
      "VT": 7167,
      "quất": 7168,
      "ve": 7169,
      "chích": 7170,
      "go": 7171,
      "đôla": 7172,
      "Kurd": 7173,
      "nạo": 7174,
      "##exus": 7175,
      "thục": 7176,
      "hit": 7177,
      "##estival": 7178,
      "Quất": 7179,
      "miệt": 7180,
      "lầu": 7181,
      "Mosk": 7182,
      "cúi": 7183,
      "hức": 7184,
      "khắt": 7185,
      "marketing": 7186,
      "##wa": 7187,
      "AIDS": 7188,
      "Đặt": 7189,
      "chợt": 7190,
      "Binh": 7191,
      "##cl": 7192,
      "Peter": 7193,
      "Tang": 7194,
      "búp": 7195,
      "##VOZ": 7196,
      "##awa": 7197,
      "##rey": 7198,
      "Tống": 7199,
      "123": 7200,
      "Mike": 7201,
      "nextVOZ": 7202,
      "liêng": 7203,
      "trù": 7204,
      "Tag": 7205,
      "ứ": 7206,
      "mãnh": 7207,
      "##ado": 7208,
      "link": 7209,
      "mỳ": 7210,
      "Trafford": 7211,
      "##gg": 7212,
      "đàng": 7213,
      "Mag": 7214,
      "gò": 7215,
      "thặng": 7216,
      "Yemen": 7217,
      "##onex": 7218,
      "Xá": 7219,
      "PPP": 7220,
      "nghẹn": 7221,
      "##oM": 7222,
      "vờ": 7223,
      "Niềm": 7224,
      "Huấn": 7225,
      "Khảo": 7226,
      "Đôn": 7227,
      "VPBank": 7228,
      "##aut": 7229,
      "Sữa": 7230,
      "##oli": 7231,
      "##edan": 7232,
      "##alk": 7233,
      "Gates": 7234,
      "##assage": 7235,
      "blue": 7236,
      "Thử": 7237,
      "Trưa": 7238,
      "Cánh": 7239,
      "canxi": 7240,
      "chớp": 7241,
      "##QL": 7242,
      "khỏa": 7243,
      "Hết": 7244,
      "Phản": 7245,
      "ảm": 7246,
      "##su": 7247,
      "##be": 7248,
      "MINH": 7249,
      "Nhập": 7250,
      "##ene": 7251,
      "##ernand": 7252,
      "Giả": 7253,
      "Ken": 7254,
      "mương": 7255,
      "##ện": 7256,
      "##emo": 7257,
      "##ầng": 7258,
      "##ush": 7259,
      "Liễu": 7260,
      "giáng": 7261,
      "##ory": 7262,
      "Crist": 7263,
      "Mir": 7264,
      "##xin": 7265,
      "Dựa": 7266,
      "Gl": 7267,
      "##rah": 7268,
      "Tốc": 7269,
      "##iana": 7270,
      "Zh": 7271,
      "Pháo": 7272,
      "##ador": 7273,
      "giục": 7274,
      "Ac": 7275,
      "##EP": 7276,
      "Tehran": 7277,
      "Power": 7278,
      "hông": 7279,
      "bus": 7280,
      "nhủ": 7281,
      "Hel": 7282,
      "Chào": 7283,
      "xảo": 7284,
      "Ranh": 7285,
      "##Í": 7286,
      "nhăn": 7287,
      "##ST": 7288,
      "Trách": 7289,
      "yen": 7290,
      "sấy": 7291,
      "Kênh": 7292,
      "Masan": 7293,
      "CHDC": 7294,
      "phàn": 7295,
      "Thuốc": 7296,
      "Bông": 7297,
      "##Ộ": 7298,
      "tà": 7299,
      "Ins": 7300,
      "##CCI": 7301,
      "##ifer": 7302,
      "phác": 7303,
      "##esla": 7304,
      "111": 7305,
      "Vinal": 7306,
      "Hè": 7307,
      "xê": 7308,
      "Sand": 7309,
      "Smart": 7310,
      "##tis": 7311,
      "giông": 7312,
      "116": 7313,
      "VnExpress": 7314,
      "phật": 7315,
      "##ling": 7316,
      "##ivers": 7317,
      "thỏ": 7318,
      "diesel": 7319,
      "UPCoM": 7320,
      "Model": 7321,
      "Show": 7322,
      "Nadal": 7323,
      "Abd": 7324,
      "nick": 7325,
      "141": 7326,
      "##pper": 7327,
      "out": 7328,
      "Tex": 7329,
      "tạc": 7330,
      "##ổn": 7331,
      "cẩm": 7332,
      "teen": 7333,
      "Lav": 7334,
      "On": 7335,
      "lúng": 7336,
      "Lot": 7337,
      "Niger": 7338,
      "Rạng": 7339,
      "AR": 7340,
      "Tuất": 7341,
      "Angeles": 7342,
      "Invest": 7343,
      "ngoặt": 7344,
      "Vit": 7345,
      "đái": 7346,
      "Play": 7347,
      "Cent": 7348,
      "côi": 7349,
      "té": 7350,
      "##rov": 7351,
      "rạn": 7352,
      "HPG": 7353,
      "Steve": 7354,
      "Moskva": 7355,
      "Đệ": 7356,
      "bikini": 7357,
      "##EN": 7358,
      "sắn": 7359,
      "Anton": 7360,
      "SX": 7361,
      "gr": 7362,
      "Trại": 7363,
      "trade": 7364,
      "1983": 7365,
      "Xương": 7366,
      "Lệnh": 7367,
      "Jae": 7368,
      "Suz": 7369,
      "##ika": 7370,
      "sào": 7371,
      "##sta": 7372,
      "ngả": 7373,
      "thề": 7374,
      "MSN": 7375,
      "Mobile": 7376,
      "đơ": 7377,
      "Eng": 7378,
      "RT": 7379,
      "THU": 7380,
      "gân": 7381,
      "TBKT": 7382,
      "Mits": 7383,
      "Uông": 7384,
      "##ury": 7385,
      "##lay": 7386,
      "##gen": 7387,
      "Business": 7388,
      "##mit": 7389,
      "210": 7390,
      "miên": 7391,
      "DV": 7392,
      "##arez": 7393,
      "AB": 7394,
      "SGK": 7395,
      "##reak": 7396,
      "##star": 7397,
      "vá": 7398,
      "Lái": 7399,
      "ngơ": 7400,
      "##SS": 7401,
      "Suối": 7402,
      "Hyun": 7403,
      "Corp": 7404,
      "quỳ": 7405,
      "##uay": 7406,
      "Sửu": 7407,
      "##BĐ": 7408,
      "Mah": 7409,
      "Láng": 7410,
      "##iban": 7411,
      "Rẫy": 7412,
      "gật": 7413,
      "Fan": 7414,
      "thốn": 7415,
      "Pac": 7416,
      "Liệt": 7417,
      "##ction": 7418,
      "##brid": 7419,
      "Đấy": 7420,
      "dạt": 7421,
      "Tích": 7422,
      "kiếp": 7423,
      "sài": 7424,
      "Séc": 7425,
      "Die": 7426,
      "Ka": 7427,
      "TIÊ": 7428,
      "check": 7429,
      "khinh": 7430,
      "ADB": 7431,
      "109": 7432,
      "ĐK": 7433,
      "trói": 7434,
      "Sev": 7435,
      "mươ": 7436,
      "thính": 7437,
      "##RC": 7438,
      "##INH": 7439,
      "Truy": 7440,
      "Pog": 7441,
      "khang": 7442,
      "hệt": 7443,
      "##ken": 7444,
      "##mund": 7445,
      "nhốt": 7446,
      "Yang": 7447,
      "##isco": 7448,
      "Mất": 7449,
      "TBKTSG": 7450,
      "VCK": 7451,
      "Mekong": 7452,
      "Street": 7453,
      "OPEC": 7454,
      "##ẽo": 7455,
      "Biz": 7456,
      "##ily": 7457,
      "##fl": 7458,
      "##cu": 7459,
      "Next": 7460,
      "##kaku": 7461,
      "Phường": 7462,
      "CC": 7463,
      "ID": 7464,
      "Te": 7465,
      "##kov": 7466,
      "Ngài": 7467,
      "nhét": 7468,
      "##ral": 7469,
      "nón": 7470,
      "cafe": 7471,
      "##OM": 7472,
      "Quần": 7473,
      "260": 7474,
      "forex": 7475,
      "trèo": 7476,
      "Es": 7477,
      "Haw": 7478,
      "QLTT": 7479,
      "chùm": 7480,
      "Audi": 7481,
      "280": 7482,
      "ẩu": 7483,
      "1972": 7484,
      "AFC": 7485,
      "lừng": 7486,
      "thà": 7487,
      "dặm": 7488,
      "##TPP": 7489,
      "CHDCND": 7490,
      "toan": 7491,
      "Vinalines": 7492,
      "Merkel": 7493,
      "Len": 7494,
      "Metro": 7495,
      "nguyệt": 7496,
      "Festival": 7497,
      "Az": 7498,
      "Ok": 7499,
      "GDVN": 7500,
      "Ung": 7501,
      "lay": 7502,
      "Thai": 7503,
      "##min": 7504,
      "Fab": 7505,
      "Pin": 7506,
      "270": 7507,
      "xịn": 7508,
      "##̣I": 7509,
      "Ele": 7510,
      "quấn": 7511,
      "PR": 7512,
      "114": 7513,
      "Dậu": 7514,
      "Nm": 7515,
      "##col": 7516,
      "BCH": 7517,
      "Tội": 7518,
      "225": 7519,
      "Wat": 7520,
      "VÀ": 7521,
      "126": 7522,
      "lì": 7523,
      "Vinaconex": 7524,
      "Tesla": 7525,
      "Sel": 7526,
      "##orth": 7527,
      "Berlin": 7528,
      "mượt": 7529,
      "CTV": 7530,
      "hấu": 7531,
      "CPTPP": 7532,
      "##ise": 7533,
      "Phối": 7534,
      "miêu": 7535,
      "Noel": 7536,
      "##news": 7537,
      "vôi": 7538,
      "lượn": 7539,
      "nhuyễn": 7540,
      "VCCI": 7541,
      "##oster": 7542,
      "muỗng": 7543,
      "massage": 7544,
      "stress": 7545,
      "kha": 7546,
      "quặng": 7547,
      "Jul": 7548,
      "Dẫu": 7549,
      "Richard": 7550,
      "Tạm": 7551,
      "post": 7552,
      "1960": 7553,
      "HDBank": 7554,
      "117": 7555,
      "Thomas": 7556,
      "rock": 7557,
      "xíu": 7558,
      "Kạn": 7559,
      "Kit": 7560,
      "Bè": 7561,
      "Ferr": 7562,
      "##tan": 7563,
      "Feder": 7564,
      "CQĐT": 7565,
      "##fa": 7566,
      "viền": 7567,
      "ngắt": 7568,
      "QUA": 7569,
      "Giữ": 7570,
      "Nổi": 7571,
      "Gương": 7572,
      "Phí": 7573,
      "Pogba": 7574,
      "##ye": 7575,
      "NXB": 7576,
      "Hạn": 7577,
      "Đảm": 7578,
      "##tt": 7579,
      "Thìn": 7580,
      "Cực": 7581,
      "Che": 7582,
      "Andre": 7583,
      "ind": 7584,
      "bừa": 7585,
      "##ami": 7586,
      "Jin": 7587,
      "like": 7588,
      "rang": 7589,
      "chol": 7590,
      "Đương": 7591,
      "Hóc": 7592,
      "hóc": 7593,
      "ghe": 7594,
      "thoa": 7595,
      "Tế": 7596,
      "HTC": 7597,
      "##AT": 7598,
      "Thoa": 7599,
      "##wer": 7600,
      "Krông": 7601,
      "##dinh": 7602,
      "logistics": 7603,
      "##arus": 7604,
      "USB": 7605,
      "175": 7606,
      "Dom": 7607,
      "Hungary": 7608,
      "ngục": 7609,
      "NTK": 7610,
      "##iku": 7611,
      "Shar": 7612,
      "Formosa": 7613,
      "Tóc": 7614,
      "##ican": 7615,
      "Tấm": 7616,
      "Dạ": 7617,
      "Taliban": 7618,
      "Thao": 7619,
      "ruồi": 7620,
      "ngụy": 7621,
      "Vui": 7622,
      "IC": 7623,
      "Suzuki": 7624,
      "Win": 7625,
      "##GC": 7626,
      "liễu": 7627,
      "tễ": 7628,
      "lóc": 7629,
      "##adi": 7630,
      "Rau": 7631,
      "Lãng": 7632,
      "##oot": 7633,
      "##ardo": 7634,
      "##ogan": 7635,
      "Nghề": 7636,
      "Hillary": 7637,
      "Nhàn": 7638,
      "GV": 7639,
      "Lớp": 7640,
      "##iola": 7641,
      "thốt": 7642,
      "Nghĩ": 7643,
      "je": 7644,
      "Luyện": 7645,
      "nhóc": 7646,
      "Nob": 7647,
      "vàn": 7648,
      "Jennifer": 7649,
      "vạ": 7650,
      "cúc": 7651,
      "TRA": 7652,
      "##Ng": 7653,
      "bô": 7654,
      "Texas": 7655,
      "##row": 7656,
      "Cứu": 7657,
      "mủ": 7658,
      "startup": 7659,
      "AV": 7660,
      "Jung": 7661,
      "Biến": 7662,
      "Vỹ": 7663,
      "Wenger": 7664,
      "Trãi": 7665,
      "Xa": 7666,
      "##men": 7667,
      "Thạc": 7668,
      "miện": 7669,
      "chuộc": 7670,
      "PA": 7671,
      "ECB": 7672,
      "Hun": 7673,
      "##amb": 7674,
      "Lin": 7675,
      "850": 7676,
      "file": 7677,
      "kẹp": 7678,
      "két": 7679,
      "EC": 7680,
      "bung": 7681,
      "Cụm": 7682,
      "vãn": 7683,
      "EVFTA": 7684,
      "Nigeria": 7685,
      "Lá": 7686,
      "1976": 7687,
      "trổ": 7688,
      "##ONG": 7689,
      "Taylor": 7690,
      "Bê": 7691,
      "kV": 7692,
      "KSND": 7693,
      "##ross": 7694,
      "Cháy": 7695,
      "Jeff": 7696,
      "Vượt": 7697,
      "trặc": 7698,
      "chèn": 7699,
      "tụy": 7700,
      "model": 7701,
      "Images": 7702,
      "kỵ": 7703,
      "121": 7704,
      "sẹo": 7705,
      "Blue": 7706,
      "Khán": 7707,
      "vụn": 7708,
      "trơ": 7709,
      "Ash": 7710,
      "Hari": 7711,
      "RON": 7712,
      "Kiểu": 7713,
      "ANTT": 7714,
      "##olog": 7715,
      "nè": 7716,
      "Diên": 7717,
      "Tiệp": 7718,
      "Kịch": 7719,
      "ben": 7720,
      "##ÌNH": 7721,
      "Hứa": 7722,
      "1981": 7723,
      "1973": 7724,
      "lựu": 7725,
      "váng": 7726,
      "##box": 7727,
      "Vẻ": 7728,
      "IB": 7729,
      "##ucker": 7730,
      "Buffett": 7731,
      "##ason": 7732,
      "##ifi": 7733,
      "Kaz": 7734,
      "Marc": 7735,
      "Nhì": 7736,
      "Bữa": 7737,
      "TL": 7738,
      "loãng": 7739,
      "JP": 7740,
      "đúp": 7741,
      "STB": 7742,
      "Email": 7743,
      "Dấu": 7744,
      "ấu": 7745,
      "Nap": 7746,
      "Tao": 7747,
      "Khóa": 7748,
      "Sud": 7749,
      "Master": 7750,
      "cr": 7751,
      "##ườm": 7752,
      "Eth": 7753,
      "kiêu": 7754,
      "Dao": 7755,
      "##inger": 7756,
      "##esterol": 7757,
      "nêm": 7758,
      "Bale": 7759,
      "Cơn": 7760,
      "##ềnh": 7761,
      "sam": 7762,
      "Des": 7763,
      "##ition": 7764,
      "room": 7765,
      "##gin": 7766,
      "Justin": 7767,
      "##EX": 7768,
      "vun": 7769,
      "##uri": 7770,
      "Florida": 7771,
      "ar": 7772,
      "##atia": 7773,
      "##over": 7774,
      "khoát": 7775,
      "Daniel": 7776,
      "Bão": 7777,
      "##lott": 7778,
      "Bag": 7779,
      "155": 7780,
      "Fort": 7781,
      "Phục": 7782,
      "or": 7783,
      "##br": 7784,
      "Chăn": 7785,
      "si": 7786,
      "Belarus": 7787,
      "Cristiano": 7788,
      "Vietnamnet": 7789,
      "Rodr": 7790,
      "Thép": 7791,
      "HH": 7792,
      "##IT": 7793,
      "Thưởng": 7794,
      "##icester": 7795,
      "gội": 7796,
      "##ubishi": 7797,
      "##ilon": 7798,
      "cụt": 7799,
      "Eurozone": 7800,
      "HSBC": 7801,
      "Dubai": 7802,
      "Sanch": 7803,
      "ww": 7804,
      "SGGP": 7805,
      "team": 7806,
      "Tái": 7807,
      "Nissan": 7808,
      "##ont": 7809,
      "##ds": 7810,
      "Đỉnh": 7811,
      "ngóng": 7812,
      "full": 7813,
      "##Viet": 7814,
      "bọ": 7815,
      "Hye": 7816,
      "Gói": 7817,
      "GTGT": 7818,
      "Harv": 7819,
      "##okovic": 7820,
      "CD": 7821,
      "Mid": 7822,
      "Sương": 7823,
      "Sơ": 7824,
      "##tra": 7825,
      "chà": 7826,
      "FBI": 7827,
      "Dort": 7828,
      "Costa": 7829,
      "lùm": 7830,
      "sưa": 7831,
      "Kat": 7832,
      "CPH": 7833,
      "Quyến": 7834,
      "úp": 7835,
      "Plaza": 7836,
      "ốp": 7837,
      "188": 7838,
      "vâng": 7839,
      "ỏi": 7840,
      "Guardiola": 7841,
      "204": 7842,
      "##ift": 7843,
      "Dortmund": 7844,
      "##field": 7845,
      "lầy": 7846,
      "CIA": 7847,
      "1968": 7848,
      "Ank": 7849,
      "Lion": 7850,
      "trút": 7851,
      "quí": 7852,
      "thuở": 7853,
      "ổng": 7854,
      "ANH": 7855,
      "Sin": 7856,
      "card": 7857,
      "ray": 7858,
      "Sub": 7859,
      "phôi": 7860,
      "##OC": 7861,
      "ATTP": 7862,
      "McC": 7863,
      "##lv": 7864,
      "tỉa": 7865,
      "mẹo": 7866,
      "##NK": 7867,
      "Sum": 7868,
      "Cạnh": 7869,
      "##WS": 7870,
      "Yahoo": 7871,
      "118": 7872,
      "Leicester": 7873,
      "Nhị": 7874,
      "Zucker": 7875,
      "##ema": 7876,
      "##11": 7877,
      "HÔ": 7878,
      "Chốt": 7879,
      "AA": 7880,
      "GH": 7881,
      "Pleiku": 7882,
      "gáy": 7883,
      "Matt": 7884,
      "Cy": 7885,
      "cmn": 7886,
      "127": 7887,
      "VPF": 7888,
      "Tần": 7889,
      "ICT": 7890,
      "Ngồi": 7891,
      "ub": 7892,
      "vozer": 7893,
      "Gây": 7894,
      "Khiêm": 7895,
      "##ati": 7896,
      "Ali": 7897,
      "Bia": 7898,
      "##ệch": 7899,
      "122": 7900,
      "Bul": 7901,
      "Suarez": 7902,
      "loét": 7903,
      "Gaal": 7904,
      "Sav": 7905,
      "##page": 7906,
      "new": 7907,
      "Rạch": 7908,
      "330": 7909,
      "Port": 7910,
      "Dẫn": 7911,
      "Ap": 7912,
      "##ếch": 7913,
      "chạp": 7914,
      "##tic": 7915,
      "Thúc": 7916,
      "##imb": 7917,
      "Nàng": 7918,
      "Nhắc": 7919,
      "Giêng": 7920,
      "Dragon": 7921,
      "quẩn": 7922,
      "cholesterol": 7923,
      "950": 7924,
      "gàng": 7925,
      "Giàu": 7926,
      "suôn": 7927,
      "##den": 7928,
      "CMND": 7929,
      "Zuckerberg": 7930,
      "Jav": 7931,
      "cat": 7932,
      "Sung": 7933,
      "Voice": 7934,
      "##ric": 7935,
      "Rodrig": 7936,
      "Nor": 7937,
      "you": 7938,
      "phiêu": 7939,
      "ngó": 7940,
      "www": 7941,
      "Thiệu": 7942,
      "##daq": 7943,
      "##eller": 7944,
      "Djokovic": 7945,
      "chải": 7946,
      "Thục": 7947,
      "chốc": 7948,
      "HK": 7949,
      "Rang": 7950,
      "Som": 7951,
      "##edit": 7952,
      "Brad": 7953,
      "##atin": 7954,
      "Giadinh": 7955,
      "nghiền": 7956,
      "Ankara": 7957,
      "Lạm": 7958,
      "Nick": 7959,
      "Vietlott": 7960,
      "it": 7961,
      "1974": 7962,
      "PNJ": 7963,
      "bồng": 7964,
      "##DP": 7965,
      "gập": 7966,
      "gang": 7967,
      "VIB": 7968,
      "Phả": 7969,
      "Yamaha": 7970,
      "##CoV": 7971,
      "##jan": 7972,
      "Chư": 7973,
      "Gra": 7974,
      "##IÊN": 7975,
      "Chạy": 7976,
      "THANH": 7977,
      "##ever": 7978,
      "GPMB": 7979,
      "Rob": 7980,
      "##ealth": 7981,
      "Kha": 7982,
      "Ni": 7983,
      "nành": 7984,
      "Tỉ": 7985,
      "1978": 7986,
      "Tóm": 7987,
      "##eron": 7988,
      "Everton": 7989,
      "##ugh": 7990,
      "##ical": 7991,
      "TGĐ": 7992,
      "##urt": 7993,
      "189": 7994,
      "nCoV": 7995,
      "Dường": 7996,
      "##orning": 7997,
      "Ngã": 7998,
      "biếu": 7999,
      "sủa": 8000,
      "##̀U": 8001,
      "bèo": 8002,
      "Bờ": 8003,
      "lửng": 8004,
      "Bit": 8005,
      "Đẹp": 8006,
      "Cấm": 8007,
      "Mitsubishi": 8008,
      "##rop": 8009,
      "##ys": 8010,
      "rơm": 8011,
      "124": 8012,
      "dầm": 8013,
      "TO": 8014,
      "132": 8015,
      "NASA": 8016,
      "Enter": 8017,
      "rồ": 8018,
      "##wan": 8019,
      "##aga": 8020,
      "Tuyệt": 8021,
      "Giảng": 8022,
      "Tràm": 8023,
      "nhào": 8024,
      "thắm": 8025,
      "##ux": 8026,
      "Nasdaq": 8027,
      "203": 8028,
      "Bính": 8029,
      "ngòi": 8030,
      "ôi": 8031,
      "sal": 8032,
      "Sóng": 8033,
      "vuốt": 8034,
      "VIP": 8035,
      "##ning": 8036,
      "##ito": 8037,
      "Rock": 8038,
      "Shang": 8039,
      "DP": 8040,
      "##IP": 8041,
      "Steph": 8042,
      "##ves": 8043,
      "crypto": 8044,
      "tẩm": 8045,
      "uất": 8046,
      "##app": 8047,
      "blockchain": 8048,
      "##elli": 8049,
      "##lan": 8050,
      "##med": 8051,
      "Eb": 8052,
      "##uc": 8053,
      "##ES": 8054,
      "Đau": 8055,
      "chập": 8056,
      "Ts": 8057,
      "nhích": 8058,
      "##EL": 8059,
      "ngấm": 8060,
      "vẫy": 8061,
      "phồng": 8062,
      "mải": 8063,
      "Hal": 8064,
      "calo": 8065,
      "##ovo": 8066,
      "Tour": 8067,
      "Trans": 8068,
      "Tượng": 8069,
      "Thụ": 8070,
      "Xăng": 8071,
      "Erd": 8072,
      "Media": 8073,
      "Nhiên": 8074,
      "America": 8075,
      "##mad": 8076,
      "##iff": 8077,
      "Diego": 8078,
      "horm": 8079,
      "VIỆ": 8080,
      "##cast": 8081,
      "Pacific": 8082,
      "##dney": 8083,
      "Roll": 8084,
      "##XD": 8085,
      "ubnd": 8086,
      "series": 8087,
      "Vành": 8088,
      "Niê": 8089,
      "xỉu": 8090,
      "Alexander": 8091,
      "##enter": 8092,
      "đoái": 8093,
      "Lux": 8094,
      "trọt": 8095,
      "Award": 8096,
      "rãnh": 8097,
      "quế": 8098,
      "Snap": 8099,
      "ngùi": 8100,
      "Lựa": 8101,
      "Pi": 8102,
      "Krem": 8103,
      "nếm": 8104,
      "Bom": 8105,
      "KHA": 8106,
      "##nhap": 8107,
      "145": 8108,
      "Tránh": 8109,
      "##kei": 8110,
      "##UNG": 8111,
      "Ren": 8112,
      "Wi": 8113,
      "##ways": 8114,
      "Guardian": 8115,
      "##king": 8116,
      "ĐTQG": 8117,
      "vung": 8118,
      "Croatia": 8119,
      "nhổ": 8120,
      "##CL": 8121,
      "Duẩn": 8122,
      "xùm": 8123,
      "Jet": 8124,
      "Gà": 8125,
      "diều": 8126,
      "##eva": 8127,
      "Gard": 8128,
      "##õm": 8129,
      "##mann": 8130,
      "Cờ": 8131,
      "##20": 8132,
      "Xung": 8133,
      "Hưởng": 8134,
      "Wh": 8135,
      "##dam": 8136,
      "Fernand": 8137,
      "##RA": 8138,
      "nạt": 8139,
      "tít": 8140,
      "##FI": 8141,
      "Dịp": 8142,
      "dằn": 8143,
      "##ascus": 8144,
      "giỏ": 8145,
      "TIN": 8146,
      "KTĐT": 8147,
      "##ome": 8148,
      "tua": 8149,
      "thă": 8150,
      "144": 8151,
      "Bush": 8152,
      "nhai": 8153,
      "DJ": 8154,
      "##earch": 8155,
      "Musk": 8156,
      "##aby": 8157,
      "BB": 8158,
      "toát": 8159,
      "Mũi": 8160,
      "dr": 8161,
      "##day": 8162,
      "rán": 8163,
      "Art": 8164,
      "Mắt": 8165,
      "Ukraina": 8166,
      "sưởi": 8167,
      "ngươ": 8168,
      "Airbus": 8169,
      "##itz": 8170,
      "nhấp": 8171,
      "VNA": 8172,
      "chảnh": 8173,
      "Trầm": 8174,
      "##IVE": 8175,
      "Chris": 8176,
      "NHA": 8177,
      "Far": 8178,
      "Inc": 8179,
      "mớ": 8180,
      "Damascus": 8181,
      "Toản": 8182,
      "Kal": 8183,
      "##ius": 8184,
      "Sầm": 8185,
      "Yu": 8186,
      "xước": 8187,
      "Ev": 8188,
      "Vay": 8189,
      "Lexus": 8190,
      "võng": 8191,
      "Link": 8192,
      "Bổ": 8193,
      "SIM": 8194,
      "cồng": 8195,
      "Cit": 8196,
      "Thẻ": 8197,
      "Vill": 8198,
      "bai": 8199,
      "##sin": 8200,
      "134": 8201,
      "Jim": 8202,
      "##arta": 8203,
      "##encia": 8204,
      "Erdogan": 8205,
      "Stand": 8206,
      "Cự": 8207,
      "nghẹt": 8208,
      "TÂ": 8209,
      "##hai": 8210,
      "165": 8211,
      "Tỵ": 8212,
      "981": 8213,
      "##pop": 8214,
      "##iki": 8215,
      "ếch": 8216,
      "##zi": 8217,
      "cõi": 8218,
      "Lar": 8219,
      "Qa": 8220,
      "Gad": 8221,
      "##tech": 8222,
      "Peru": 8223,
      "đố": 8224,
      "Por": 8225,
      "Dàn": 8226,
      "Cast": 8227,
      "Kel": 8228,
      "HoSE": 8229,
      "##urnal": 8230,
      "comp": 8231,
      "Yonhap": 8232,
      "##Media": 8233,
      "Tru": 8234,
      "khiết": 8235,
      "Stan": 8236,
      "mỉm": 8237,
      "Đầm": 8238,
      "119": 8239,
      "##IL": 8240,
      "##rick": 8241,
      "Andr": 8242,
      "##obile": 8243,
      "Jam": 8244,
      "Mão": 8245,
      "cent": 8246,
      "VD": 8247,
      "VAT": 8248,
      "##hr": 8249,
      "lon": 8250,
      "1977": 8251,
      "Face": 8252,
      "Scot": 8253,
      "##ette": 8254,
      "Shinzo": 8255,
      "CI": 8256,
      "nhàm": 8257,
      "Diễu": 8258,
      "hoay": 8259,
      "Vọng": 8260,
      "##hd": 8261,
      "tưng": 8262,
      "HOÀNG": 8263,
      "Brunei": 8264,
      "pho": 8265,
      "xua": 8266,
      "Sydney": 8267,
      "Warren": 8268,
      "băm": 8269,
      "pol": 8270,
      "##ora": 8271,
      "Rap": 8272,
      "Leon": 8273,
      "nilon": 8274,
      "trĩ": 8275,
      "##lov": 8276,
      "##Ế": 8277,
      "Roma": 8278,
      "mép": 8279,
      "Kremlin": 8280,
      "##tyle": 8281,
      "Cuốn": 8282,
      "tủi": 8283,
      "trau": 8284,
      "Qaeda": 8285,
      "day": 8286,
      "##ctr": 8287,
      "Sina": 8288,
      "##úa": 8289,
      "trend": 8290,
      "365": 8291,
      "cas": 8292,
      "Triết": 8293,
      "Jak": 8294,
      "##aint": 8295,
      "##ild": 8296,
      "Dem": 8297,
      "##sky": 8298,
      "ASIA": 8299,
      "sỡ": 8300,
      "nb": 8301,
      "cội": 8302,
      "Xúc": 8303,
      "##osite": 8304,
      "Chơi": 8305,
      "Pay": 8306,
      "1954": 8307,
      "BizL": 8308,
      "##TS": 8309,
      "đậy": 8310,
      "carbon": 8311,
      "Ferrari": 8312,
      "EURO": 8313,
      "hen": 8314,
      "Federer": 8315,
      "Holdings": 8316,
      "xui": 8317,
      "Villa": 8318,
      "Ye": 8319,
      "##88": 8320,
      "##ved": 8321,
      "Cook": 8322,
      "##PG": 8323,
      "##̉A": 8324,
      "##66": 8325,
      "NAM": 8326,
      "Nikkei": 8327,
      "bầm": 8328,
      "Ul": 8329,
      "Quỳ": 8330,
      "##̆N": 8331,
      "Wang": 8332,
      "##ega": 8333,
      "quýt": 8334,
      "sel": 8335,
      "##her": 8336,
      "Jean": 8337,
      "Luis": 8338,
      "múi": 8339,
      "##ou": 8340,
      "Đế": 8341,
      "##oi": 8342,
      "trading": 8343,
      "##oshi": 8344,
      "Manila": 8345,
      "Yong": 8346,
      "Luôn": 8347,
      "XX": 8348,
      "thung": 8349,
      "##DR": 8350,
      "Kid": 8351,
      "PLO": 8352,
      "Gươm": 8353,
      "Cang": 8354,
      "Jol": 8355,
      "Thơm": 8356,
      "xuồng": 8357,
      "##borgh": 8358,
      "Trợ": 8359,
      "khét": 8360,
      "Mãi": 8361,
      "Jon": 8362,
      "nập": 8363,
      "điếu": 8364,
      "380": 8365,
      "VnMedia": 8366,
      "Mb": 8367,
      "Ngà": 8368,
      "##borghini": 8369,
      "quây": 8370,
      "256": 8371,
      "185": 8372,
      "##ather": 8373,
      "CTG": 8374,
      "tuột": 8375,
      "##rahim": 8376,
      "níu": 8377,
      "##OO": 8378,
      "BP": 8379,
      "Tower": 8380,
      "Lừa": 8381,
      "Redmi": 8382,
      "bầy": 8383,
      "##able": 8384,
      "Hộ": 8385,
      "##icon": 8386,
      "##oy": 8387,
      "##gr": 8388,
      "mẫn": 8389,
      "ươm": 8390,
      "BQL": 8391,
      "##ẦN": 8392,
      "chat": 8393,
      "Ia": 8394,
      "Miếu": 8395,
      "Brent": 8396,
      "1969": 8397,
      "Pomp": 8398,
      "Adam": 8399,
      "Nậm": 8400,
      "hacker": 8401,
      "tẻ": 8402,
      "##ms": 8403,
      "##10": 8404,
      "BizLIVE": 8405,
      "pen": 8406,
      "Cống": 8407,
      "Đốc": 8408,
      "Soo": 8409,
      "Cốc": 8410,
      "##terte": 8411,
      "QC": 8412,
      "ngao": 8413,
      "DC": 8414,
      "BVH": 8415,
      "mứt": 8416,
      "lol": 8417,
      "Men": 8418,
      "phông": 8419,
      "trót": 8420,
      "Suy": 8421,
      "ae": 8422,
      "Aleppo": 8423,
      "Chức": 8424,
      "##iew": 8425,
      "Ry": 8426,
      "Resort": 8427,
      "Beckham": 8428,
      "Phái": 8429,
      "Mơ": 8430,
      "Rad": 8431,
      "Lamborghini": 8432,
      "Xí": 8433,
      "rỗng": 8434,
      "IN": 8435,
      "##ures": 8436,
      "nbsp": 8437,
      "##dd": 8438,
      "cabin": 8439,
      "##LA": 8440,
      "##af": 8441,
      "##olas": 8442,
      "view": 8443,
      "Hổ": 8444,
      "dứa": 8445,
      "đực": 8446,
      "chát": 8447,
      "Xê": 8448,
      "By": 8449,
      "Vincom": 8450,
      "##iat": 8451,
      "##uez": 8452,
      "Nep": 8453,
      "cạo": 8454,
      "khoẻ": 8455,
      "##ĐTB": 8456,
      "găng": 8457,
      "win": 8458,
      "riết": 8459,
      "gram": 8460,
      "Nho": 8461,
      "##ait": 8462,
      "Đoan": 8463,
      "Life": 8464,
      "xộn": 8465,
      "gào": 8466,
      "sedan": 8467,
      "Off": 8468,
      "củi": 8469,
      "Day": 8470,
      "xốp": 8471,
      "340": 8472,
      "Trò": 8473,
      "comment": 8474,
      "##oid": 8475,
      "khuấy": 8476,
      "Silva": 8477,
      "Brid": 8478,
      "ngốc": 8479,
      "Cad": 8480,
      "Thy": 8481,
      "PCT": 8482,
      "thêu": 8483,
      "Ltd": 8484,
      "Sergei": 8485,
      "nung": 8486,
      "Chang": 8487,
      "thiền": 8488,
      "mẩn": 8489,
      "nhung": 8490,
      "khăng": 8491,
      "năn": 8492,
      "Macron": 8493,
      "##ison": 8494,
      "##omes": 8495,
      "Serie": 8496,
      "Valent": 8497,
      "hê": 8498,
      "##zz": 8499,
      "vớ": 8500,
      "Mật": 8501,
      "KB": 8502,
      "trá": 8503,
      "DH": 8504,
      "code": 8505,
      "##odo": 8506,
      "##vin": 8507,
      "Sanchez": 8508,
      "Sợ": 8509,
      "Chờ": 8510,
      "RO": 8511,
      "Gạo": 8512,
      "##ool": 8513,
      "Ê": 8514,
      "##Phone": 8515,
      "Tak": 8516,
      "sỉ": 8517,
      "##ori": 8518,
      "Dệt": 8519,
      "át": 8520,
      "liêm": 8521,
      "won": 8522,
      "Georg": 8523,
      "138": 8524,
      "Nobel": 8525,
      "chằng": 8526,
      "Il": 8527,
      "Duterte": 8528,
      "ĐHĐ": 8529,
      "Standard": 8530,
      "điềm": 8531,
      "Journal": 8532,
      "Open": 8533,
      "CF": 8534,
      "Gea": 8535,
      "nhang": 8536,
      "##ooth": 8537,
      "Khmer": 8538,
      "2023": 8539,
      "Rio": 8540,
      "VU": 8541,
      "ASIAD": 8542,
      "loay": 8543,
      "Khoáng": 8544,
      "hoà": 8545,
      "chướng": 8546,
      "UE": 8547,
      "1971": 8548,
      "Lew": 8549,
      "Ibrahim": 8550,
      "mail": 8551,
      "Ter": 8552,
      "Fir": 8553,
      "##bar": 8554,
      "Mầm": 8555,
      "vòm": 8556,
      "Cù": 8557,
      "Eco": 8558,
      "Catal": 8559,
      "##íp": 8560,
      "lẩu": 8561,
      "der": 8562,
      "nhả": 8563,
      "Ferg": 8564,
      "129": 8565,
      "Căng": 8566,
      "Kang": 8567,
      "##ABank": 8568,
      "cuốc": 8569,
      "Kan": 8570,
      "Sâm": 8571,
      "##ery": 8572,
      "##ui": 8573,
      "AU": 8574,
      "##ound": 8575,
      "##Berry": 8576,
      "##lib": 8577,
      "GI": 8578,
      "margin": 8579,
      "Scotland": 8580,
      "Virg": 8581,
      "Gái": 8582,
      "trũng": 8583,
      "play": 8584,
      "##ibo": 8585,
      "ngách": 8586,
      "live": 8587,
      "ngà": 8588,
      "Dream": 8589,
      "hlv": 8590,
      "720": 8591,
      "##bek": 8592,
      "TTHC": 8593,
      "##cur": 8594,
      "##12": 8595,
      "nude": 8596,
      "Wales": 8597,
      "Biệt": 8598,
      "UAV": 8599,
      "Sant": 8600,
      "MiG": 8601,
      "xiếc": 8602,
      "Nhan": 8603,
      "cấn": 8604,
      "XNK": 8605,
      "##OL": 8606,
      "vỏn": 8607,
      "Charles": 8608,
      "Marketing": 8609,
      "Pompeo": 8610,
      "##́P": 8611,
      "Lotte": 8612,
      "BlackBerry": 8613,
      "Tags": 8614,
      "VIỆT": 8615,
      "480": 8616,
      "Chev": 8617,
      "##idane": 8618,
      "##aps": 8619,
      "##̣NG": 8620,
      "micro": 8621,
      "phụng": 8622,
      "AG": 8623,
      "##ats": 8624,
      "pop": 8625,
      "Ic": 8626,
      "1967": 8627,
      "570": 8628,
      "1950": 8629,
      "Haz": 8630,
      "ah": 8631,
      "dăm": 8632,
      "Lũy": 8633,
      "136": 8634,
      "vin": 8635,
      "##ợm": 8636,
      "Morning": 8637,
      "Disney": 8638,
      "Ret": 8639,
      "ren": 8640,
      "Jackson": 8641,
      "Jess": 8642,
      "laser": 8643,
      "Giàng": 8644,
      "##uson": 8645,
      "THX": 8646,
      "##ser": 8647,
      "##udio": 8648,
      "CỦA": 8649,
      "131": 8650,
      "186": 8651,
      "Hới": 8652,
      "Camera": 8653,
      "Idlib": 8654,
      "trướng": 8655,
      "vũng": 8656,
      "trỗi": 8657,
      "Hap": 8658,
      "Ngôn": 8659,
      "Royce": 8660,
      "##DĐ": 8661,
      "##uguay": 8662,
      "##utsal": 8663,
      "##uỗi": 8664,
      "##ladesh": 8665,
      "ngừ": 8666,
      "đọ": 8667,
      "nơ": 8668,
      "gym": 8669,
      "kẽm": 8670,
      "Tào": 8671,
      "##orsche": 8672,
      "##achi": 8673,
      "##aster": 8674,
      "BTS": 8675,
      "133": 8676,
      "ngẫm": 8677,
      "She": 8678,
      "br": 8679,
      "Jolie": 8680,
      "##evin": 8681,
      "Leo": 8682,
      "##lex": 8683,
      "héc": 8684,
      "##oss": 8685,
      "Rub": 8686,
      "##ci": 8687,
      "CNBC": 8688,
      "##ni": 8689,
      "Jobs": 8690,
      "Alph": 8691,
      "UBCKNN": 8692,
      "ừ": 8693,
      "Bruss": 8694,
      "##GA": 8695,
      "Smith": 8696,
      "Giây": 8697,
      "nặc": 8698,
      "Dmit": 8699,
      "##comm": 8700,
      "Gener": 8701,
      "Uruguay": 8702,
      "##rency": 8703,
      "chao": 8704,
      "jo": 8705,
      "min": 8706,
      "Teleg": 8707,
      "Hit": 8708,
      "Harvard": 8709,
      "Raf": 8710,
      "##Cap": 8711,
      "Zidane": 8712,
      "Type": 8713,
      "Bir": 8714,
      "tab": 8715,
      "Valencia": 8716,
      "CX": 8717,
      "##ray": 8718,
      "##work": 8719,
      "Luc": 8720,
      "Sund": 8721,
      "del": 8722,
      "Mày": 8723,
      "Ryan": 8724,
      "rình": 8725,
      "Đâu": 8726,
      "##load": 8727,
      "om": 8728,
      "##ƯỜNG": 8729,
      "Airways": 8730,
      "##book": 8731,
      "Đê": 8732,
      "QĐND": 8733,
      "##dy": 8734,
      "Bangladesh": 8735,
      "À": 8736,
      "xiết": 8737,
      "Khung": 8738,
      "Bửu": 8739,
      "##JI": 8740,
      "Phone": 8741,
      "##mark": 8742,
      "Qual": 8743,
      "##view": 8744,
      "nhằn": 8745,
      "Hạm": 8746,
      "##ware": 8747,
      "Thâm": 8748,
      "Jakarta": 8749,
      "chệch": 8750,
      "Trùng": 8751,
      "hèn": 8752,
      "##eman": 8753,
      "Mont": 8754,
      "LÊ": 8755,
      "cộ": 8756,
      "Chic": 8757,
      "Hắn": 8758,
      "Lionel": 8759,
      "Gang": 8760,
      "with": 8761,
      "290": 8762,
      "137": 8763,
      "Acc": 8764,
      "##ĐK": 8765,
      "bro": 8766,
      "GDĐT": 8767,
      "##ashion": 8768,
      "môtô": 8769,
      "niệu": 8770,
      "gắm": 8771,
      "VNCB": 8772,
      "que": 8773,
      "Pop": 8774,
      "##esl": 8775,
      "ADN": 8776,
      "Ferguson": 8777,
      "cốp": 8778,
      "Chiêu": 8779,
      "##ret": 8780,
      "Ak": 8781,
      "ĐÂ": 8782,
      "Lavrov": 8783,
      "##tn": 8784,
      "Pers": 8785,
      "FT": 8786,
      "IA": 8787,
      "Corona": 8788,
      "CII": 8789,
      "High": 8790,
      "Porsche": 8791,
      "TPBank": 8792,
      "hất": 8793,
      "Kerry": 8794,
      "ĐTVN": 8795,
      "AK": 8796,
      "DT": 8797,
      "Lư": 8798,
      "Tòng": 8799,
      "Fal": 8800,
      "##igu": 8801,
      "Laz": 8802,
      "Ebola": 8803,
      "TDTT": 8804,
      "han": 8805,
      "Pen": 8806,
      "chói": 8807,
      "dí": 8808,
      "##kip": 8809,
      "Nou": 8810,
      "Cướp": 8811,
      "găm": 8812,
      "tuông": 8813,
      "##ển": 8814,
      "##ancial": 8815,
      "Delhi": 8816,
      "Ngu": 8817,
      "##ecom": 8818,
      "##onia": 8819,
      "ngời": 8820,
      "##real": 8821,
      "##ject": 8822,
      "420": 8823,
      "Carol": 8824,
      "VPCP": 8825,
      "Nepal": 8826,
      "PS": 8827,
      "Thoại": 8828,
      "142": 8829,
      "Họa": 8830,
      "Rolls": 8831,
      "Garden": 8832,
      "Shop": 8833,
      "Uz": 8834,
      "##Theo": 8835,
      "##cept": 8836,
      "Nà": 8837,
      "Game": 8838,
      "152": 8839,
      "Pre": 8840,
      "Cel": 8841,
      "Agu": 8842,
      "FO": 8843,
      "187": 8844,
      "##iter": 8845,
      "NGH": 8846,
      "VĂN": 8847,
      "##dafi": 8848,
      "cuống": 8849,
      "Lã": 8850,
      "HV": 8851,
      "lùn": 8852,
      "Electr": 8853,
      "bùi": 8854,
      "hiên": 8855,
      "Class": 8856,
      "Nụ": 8857,
      "goo": 8858,
      "Rai": 8859,
      "Brit": 8860,
      "Brussels": 8861,
      "break": 8862,
      "dong": 8863,
      "ĐHĐCĐ": 8864,
      "##din": 8865,
      "rốn": 8866,
      "resort": 8867,
      "Coin": 8868,
      "##ennis": 8869,
      "139": 8870,
      "VEC": 8871,
      "nhâ": 8872,
      "BXH": 8873,
      "DS": 8874,
      "Lượt": 8875,
      "KP": 8876,
      "OceanBank": 8877,
      "Saint": 8878,
      "Kevin": 8879,
      "##reg": 8880,
      "Kl": 8881,
      "Phá": 8882,
      "##bl": 8883,
      "thừng": 8884,
      "Tà": 8885,
      "Way": 8886,
      "đt": 8887,
      "Gaza": 8888,
      "TI": 8889,
      "múc": 8890,
      "##oga": 8891,
      "1965": 8892,
      "Mik": 8893,
      "TPCP": 8894,
      "Europa": 8895,
      "Awards": 8896,
      "von": 8897,
      "UBTV": 8898,
      "Khá": 8899,
      "Las": 8900,
      "bướu": 8901,
      "HSG": 8902,
      "##onetsk": 8903,
      "Sri": 8904,
      "Series": 8905,
      "Chiêm": 8906,
      "logic": 8907,
      "tảo": 8908,
      "hormone": 8909,
      "##ision": 8910,
      "khoá": 8911,
      "ĐHQG": 8912,
      "Hee": 8913,
      "DU": 8914,
      "rành": 8915,
      "Hall": 8916,
      "vk": 8917,
      "##walk": 8918,
      "##IB": 8919,
      "GDCK": 8920,
      "Chả": 8921,
      "Gaddafi": 8922,
      "##oni": 8923,
      "CAQ": 8924,
      "Dữ": 8925,
      "Gab": 8926,
      "VHTTDL": 8927,
      "Ay": 8928,
      "as": 8929,
      "Fortun": 8930,
      "TKV": 8931,
      "Dev": 8932,
      "Quay": 8933,
      "##ampton": 8934,
      "phượng": 8935,
      "Khúc": 8936,
      "Rượu": 8937,
      "UEFA": 8938,
      "##ize": 8939,
      "khuynh": 8940,
      "Thuật": 8941,
      "roi": 8942,
      "Medved": 8943,
      "giỗ": 8944,
      "Club": 8945,
      "Abu": 8946,
      "sảo": 8947,
      "Cav": 8948,
      "Live": 8949,
      "LĐBĐ": 8950,
      "bịch": 8951,
      "##ựt": 8952,
      "nguyền": 8953,
      "Store": 8954,
      "DOJI": 8955,
      "Aston": 8956,
      "Virgin": 8957,
      "phớt": 8958,
      "Bent": 8959,
      "BCTC": 8960,
      "146": 8961,
      "mấu": 8962,
      "##Nh": 8963,
      "Love": 8964,
      "Serbia": 8965,
      "LĐTB": 8966,
      "##hip": 8967,
      "Phạt": 8968,
      "BTV": 8969,
      "143": 8970,
      "##ởm": 8971,
      "id": 8972,
      "Bez": 8973,
      "hắt": 8974,
      "CÔNG": 8975,
      "Fu": 8976,
      "ICO": 8977,
      "Center": 8978,
      "##Gi": 8979,
      "chước": 8980,
      "Hoằng": 8981,
      "##ryst": 8982,
      "casino": 8983,
      "Donetsk": 8984,
      "Chicago": 8985,
      "##Ph": 8986,
      "Bat": 8987,
      "##cơ": 8988,
      "##led": 8989,
      "bịa": 8990,
      "nỉ": 8991,
      "bướm": 8992,
      "Ray": 8993,
      "Lien": 8994,
      "HCB": 8995,
      "Dy": 8996,
      "nhện": 8997,
      "##fie": 8998,
      "SK": 8999,
      "xù": 9000,
      "lạng": 9001,
      "##etooth": 9002,
      "Kate": 9003,
      "Chen": 9004,
      "Inn": 9005,
      "SS": 9006,
      "loan": 9007,
      "##abeth": 9008,
      "bậy": 9009,
      "Techn": 9010,
      "168": 9011,
      "##RP": 9012,
      "sặc": 9013,
      "##BT": 9014,
      "body": 9015,
      "Dar": 9016,
      "154": 9017,
      "Dia": 9018,
      "chài": 9019,
      "chòi": 9020,
      "Nắm": 9021,
      "Time": 9022,
      "BVSC": 9023,
      "Medvedev": 9024,
      "DI": 9025,
      "mA": 9026,
      "sil": 9027,
      "Bon": 9028,
      "Yan": 9029,
      "Đu": 9030,
      "Sur": 9031,
      "nhúng": 9032,
      "##shire": 9033,
      "google": 9034,
      "Giúp": 9035,
      "CNVC": 9036,
      "rùng": 9037,
      "sảnh": 9038,
      "Morgan": 9039,
      "##jo": 9040,
      "##̃NG": 9041,
      "giở": 9042,
      "Liv": 9043,
      "hon": 9044,
      "737": 9045,
      "Full": 9046,
      "Baghd": 9047,
      "lươn": 9048,
      "phết": 9049,
      "Alger": 9050,
      "Hát": 9051,
      "dãi": 9052,
      "Qualcomm": 9053,
      "ngáo": 9054,
      "MBB": 9055,
      "##oke": 9056,
      "PVD": 9057,
      "VIII": 9058,
      "##ology": 9059,
      "Mill": 9060,
      "mịt": 9061,
      "Composite": 9062,
      "##Post": 9063,
      "##QS": 9064,
      "##pot": 9065,
      "Rủi": 9066,
      "##akia": 9067,
      "gồng": 9068,
      "##ington": 9069,
      "Hinh": 9070,
      "##ater": 9071,
      "Mâu": 9072,
      "Abb": 9073,
      "sục": 9074,
      "REE": 9075,
      "167": 9076,
      "nhoáng": 9077,
      "Nar": 9078,
      "##aland": 9079,
      "Fuk": 9080,
      "liêu": 9081,
      "Pas": 9082,
      "Basel": 9083,
      "##atra": 9084,
      "##nn": 9085,
      "Secur": 9086,
      "Juan": 9087,
      "##ọa": 9088,
      "nhảm": 9089,
      "UBKT": 9090,
      "kn": 9091,
      "giun": 9092,
      "##irl": 9093,
      "##ror": 9094,
      "gớm": 9095,
      "gòn": 9096,
      "Rem": 9097,
      "##xx": 9098,
      "IX": 9099,
      "##oko": 9100,
      "##ơng": 9101,
      "Lind": 9102,
      "tơi": 9103,
      "Manag": 9104,
      "Scott": 9105,
      "rát": 9106,
      "White": 9107,
      "##berto": 9108,
      "Uzbek": 9109,
      "bần": 9110,
      "Xếp": 9111,
      "ABC": 9112,
      "Bh": 9113,
      "Gọi": 9114,
      "HÀ": 9115,
      "Insider": 9116,
      "VinaPhone": 9117,
      "Watch": 9118,
      "153": 9119,
      "##EWS": 9120,
      "Card": 9121,
      "BLHS": 9122,
      "##autu": 9123,
      "vê": 9124,
      "phai": 9125,
      "Dig": 9126,
      "Choi": 9127,
      "Swift": 9128,
      "460": 9129,
      "Jang": 9130,
      "National": 9131,
      "dột": 9132,
      "##for": 9133,
      "##wagen": 9134,
      "##oshenko": 9135,
      "tuýp": 9136,
      "Antonio": 9137,
      "##60": 9138,
      "cù": 9139,
      "##stem": 9140,
      "Leb": 9141,
      "dẫu": 9142,
      "Klo": 9143,
      "chớ": 9144,
      "vặn": 9145,
      "Met": 9146,
      "huyệt": 9147,
      "cau": 9148,
      "Kw": 9149,
      "##RT": 9150,
      "Sudan": 9151,
      "Kn": 9152,
      "##14": 9153,
      "163": 9154,
      "Hazard": 9155,
      "##dragon": 9156,
      "183": 9157,
      "bục": 9158,
      "Nhấn": 9159,
      "Sửa": 9160,
      "##ault": 9161,
      "Nhựa": 9162,
      "lẻo": 9163,
      "##lic": 9164,
      "triền": 9165,
      "Kyo": 9166,
      "đh": 9167,
      "hốc": 9168,
      "Cắt": 9169,
      "Tae": 9170,
      "Thaco": 9171,
      "oán": 9172,
      "thun": 9173,
      "súp": 9174,
      "fanpage": 9175,
      "162": 9176,
      "hòng": 9177,
      "1964": 9178,
      "quăng": 9179,
      "rợn": 9180,
      "##loud": 9181,
      "##ỨC": 9182,
      "catwalk": 9183,
      "Dep": 9184,
      "Mary": 9185,
      "Tầng": 9186,
      "Ath": 9187,
      "1962": 9188,
      "spa": 9189,
      "##ichi": 9190,
      "Bezos": 9191,
      "##mun": 9192,
      "##cher": 9193,
      "##̉O": 9194,
      "nhớt": 9195,
      "xói": 9196,
      "147": 9197,
      "##house": 9198,
      "Cẩn": 9199,
      "bon": 9200,
      "Aqu": 9201,
      "sing": 9202,
      "vơi": 9203,
      "Uzbekistan": 9204,
      "##ỌC": 9205,
      "yếm": 9206,
      "org": 9207,
      "mAh": 9208,
      "Nuôi": 9209,
      "acid": 9210,
      "##ze": 9211,
      "Kazakh": 9212,
      "Trảng": 9213,
      "##̉NG": 9214,
      "Music": 9215,
      "Sor": 9216,
      "sum": 9217,
      "Yếu": 9218,
      "##oody": 9219,
      "##castle": 9220,
      "Cong": 9221,
      "yể": 9222,
      "bh": 9223,
      "Char": 9224,
      "Blockchain": 9225,
      "rev": 9226,
      "##stock": 9227,
      "Sergio": 9228,
      "##erg": 9229,
      "310": 9230,
      "metro": 9231,
      "rep": 9232,
      "##well": 9233,
      "youtube": 9234,
      "Thím": 9235,
      "ì": 9236,
      "##kswagen": 9237,
      "Bưởi": 9238,
      "Mái": 9239,
      "##thi": 9240,
      "DOC": 9241,
      "184": 9242,
      "UBTVQH": 9243,
      "NO": 9244,
      "##̣N": 9245,
      "178": 9246,
      "Cám": 9247,
      "##ness": 9248,
      "Fe": 9249,
      "##tv": 9250,
      "Valentine": 9251,
      "##tar": 9252,
      "##òe": 9253,
      "Eliz": 9254,
      "##tec": 9255,
      "chắt": 9256,
      "òa": 9257,
      "Francisco": 9258,
      "tý": 9259,
      "148": 9260,
      "560": 9261,
      "Nhâm": 9262,
      "Đón": 9263,
      "##iểng": 9264,
      "Dmitry": 9265,
      "reo": 9266,
      "Fut": 9267,
      "Gian": 9268,
      "156": 9269,
      "thóc": 9270,
      "Visa": 9271,
      "Khoảnh": 9272,
      "cáu": 9273,
      "GHz": 9274,
      "sán": 9275,
      "HCĐ": 9276,
      "PHƯƠNG": 9277,
      "cộm": 9278,
      "Carlos": 9279,
      "##pearl": 9280,
      "Philip": 9281,
      "##express": 9282,
      "bùa": 9283,
      "American": 9284,
      "húc": 9285,
      "Lòng": 9286,
      "##ities": 9287,
      "Kenn": 9288,
      "##fer": 9289,
      "bẹp": 9290,
      "Ramos": 9291,
      "##rystal": 9292,
      "GiadinhNet": 9293,
      "Part": 9294,
      "option": 9295,
      "Cur": 9296,
      "fb": 9297,
      "vía": 9298,
      "##US": 9299,
      "nẵng": 9300,
      "Mát": 9301,
      "gọt": 9302,
      "Hil": 9303,
      "171": 9304,
      "Nguyen": 9305,
      "tòi": 9306,
      "##dg": 9307,
      "Bash": 9308,
      "yoga": 9309,
      "Den": 9310,
      "cup": 9311,
      "##ereum": 9312,
      "Góp": 9313,
      "Univers": 9314,
      "Golden": 9315,
      "Financial": 9316,
      "rưng": 9317,
      "Thuyết": 9318,
      "##jaer": 9319,
      "Thiều": 9320,
      "##ious": 9321,
      "vãng": 9322,
      "Suk": 9323,
      "phốt": 9324,
      "Kazakhstan": 9325,
      "xỉn": 9326,
      "ngủi": 9327,
      "##yes": 9328,
      "1966": 9329,
      "##dro": 9330,
      "lút": 9331,
      "##pol": 9332,
      "Henry": 9333,
      "ốt": 9334,
      "Woo": 9335,
      "Om": 9336,
      "##ple": 9337,
      "Geneva": 9338,
      "Bund": 9339,
      "GL": 9340,
      "miếu": 9341,
      "Thỉnh": 9342,
      "ĐÔ": 9343,
      "vầy": 9344,
      "Newcastle": 9345,
      "OCB": 9346,
      "Ox": 9347,
      "Snapdragon": 9348,
      "Hor": 9349,
      "Sports": 9350,
      "##mes": 9351,
      "MWG": 9352,
      "##rome": 9353,
      "Khẩu": 9354,
      "Cannes": 9355,
      "Klopp": 9356,
      "430": 9357,
      "Lối": 9358,
      "##bao": 9359,
      "Kos": 9360,
      "VS": 9361,
      "158": 9362,
      "Wan": 9363,
      "Jac": 9364,
      "##ju": 9365,
      "HSC": 9366,
      "Algeria": 9367,
      "sói": 9368,
      "cừu": 9369,
      "Central": 9370,
      "Lump": 9371,
      "182": 9372,
      "trump": 9373,
      "Cons": 9374,
      "iphone": 9375,
      "Vitamin": 9376,
      "##estream": 9377,
      "sảng": 9378,
      "vâ": 9379,
      "Tận": 9380,
      "bt": 9381,
      "##dautu": 9382,
      "Pap": 9383,
      "149": 9384,
      "down": 9385,
      "##avi": 9386,
      "Royal": 9387,
      "##och": 9388,
      "hãnh": 9389,
      "Nỗ": 9390,
      "##uỷ": 9391,
      "##TI": 9392,
      "##egas": 9393,
      "Đạm": 9394,
      "thẳm": 9395,
      "##ista": 9396,
      "Steven": 9397,
      "dẫm": 9398,
      "##eld": 9399,
      "Ti": 9400,
      "##Book": 9401,
      "hân": 9402,
      "Volkswagen": 9403,
      "ngói": 9404,
      "Trồng": 9405,
      "##rolet": 9406,
      "Credit": 9407,
      "mè": 9408,
      "Xinh": 9409,
      "Gã": 9410,
      "quậy": 9411,
      "Loài": 9412,
      "Williams": 9413,
      "##enthu": 9414,
      "Market": 9415,
      "House": 9416,
      "KDC": 9417,
      "Gran": 9418,
      "Mario": 9419,
      "wifi": 9420,
      "RA": 9421,
      "Kuala": 9422,
      "##viet": 9423,
      "##anon": 9424,
      "rượt": 9425,
      "Dell": 9426,
      "212": 9427,
      "độn": 9428,
      "##LX": 9429,
      "IR": 9430,
      "##hen": 9431,
      "##read": 9432,
      "##amine": 9433,
      "Doji": 9434,
      "##zen": 9435,
      "PB": 9436,
      "1963": 9437,
      "157": 9438,
      "Hoành": 9439,
      "North": 9440,
      "lán": 9441,
      "Eric": 9442,
      "hươ": 9443,
      "mồng": 9444,
      "nhá": 9445,
      "Tony": 9446,
      "Bridge": 9447,
      "##enthuc": 9448,
      "Kir": 9449,
      "##win": 9450,
      "Rừng": 9451,
      "##esa": 9452,
      "##athan": 9453,
      "Ivan": 9454,
      "##DN": 9455,
      "KHÔNG": 9456,
      "Tit": 9457,
      "Va": 9458,
      "Hanoi": 9459,
      "##own": 9460,
      "Vinpearl": 9461,
      "##currency": 9462,
      "lim": 9463,
      "##skjaer": 9464,
      "Gun": 9465,
      "Thôn": 9466,
      "Coca": 9467,
      "KHCN": 9468,
      "Quê": 9469,
      "Mèo": 9470,
      "##otti": 9471,
      "Nửa": 9472,
      "trọc": 9473,
      "ngổn": 9474,
      "NDĐT": 9475,
      "Lỗ": 9476,
      "main": 9477,
      "520": 9478,
      "mac": 9479,
      "Thuyền": 9480,
      "mon": 9481,
      "đùng": 9482,
      "Tik": 9483,
      "RC": 9484,
      "Binary": 9485,
      "Lumpur": 9486,
      "Lỗi": 9487,
      "ram": 9488,
      "##apan": 9489,
      "2050": 9490,
      "Hous": 9491,
      "580": 9492,
      "Down": 9493,
      "Trừ": 9494,
      "ĐTDĐ": 9495,
      "EPS": 9496,
      "Hô": 9497,
      "Stephen": 9498,
      "cưỡi": 9499,
      "181": 9500,
      "hùm": 9501,
      "##̉M": 9502,
      "Bak": 9503,
      "##bach": 9504,
      "Kháng": 9505,
      "Khe": 9506,
      "boy": 9507,
      "Huynh": 9508,
      "huỳnh": 9509,
      "tủy": 9510,
      "Shanghai": 9511,
      "PVS": 9512,
      "Angelina": 9513,
      "Elizabeth": 9514,
      "Tọa": 9515,
      "Conte": 9516,
      "fe": 9517,
      "##̆NG": 9518,
      "Aj": 9519,
      "HC": 9520,
      "nhĩ": 9521,
      "Brown": 9522,
      "Latinh": 9523,
      "##date": 9524,
      "bộn": 9525,
      "mix": 9526,
      "960": 9527,
      "Béo": 9528,
      "biê": 9529,
      "hóng": 9530,
      "khoắn": 9531,
      "Truyện": 9532,
      "##log": 9533,
      "Telegraph": 9534,
      "Marit": 9535,
      "Key": 9536,
      "Got": 9537,
      "Auto": 9538,
      "Chim": 9539,
      "##conomy": 9540,
      "vế": 9541,
      "Làn": 9542,
      "Benzema": 9543,
      "##MS": 9544,
      "nách": 9545,
      "Dễ": 9546,
      "390": 9547,
      "##back": 9548,
      "Hạng": 9549,
      "thán": 9550,
      "174": 9551,
      "Thập": 9552,
      "cover": 9553,
      "nem": 9554,
      "##rol": 9555,
      "Rô": 9556,
      "Mass": 9557,
      "##utter": 9558,
      "Ngạn": 9559,
      "Cameron": 9560,
      "khâm": 9561,
      "cặn": 9562,
      "USA": 9563,
      "EX": 9564,
      "##SPL": 9565,
      "Lanka": 9566,
      "Chevrolet": 9567,
      "##ars": 9568,
      "bói": 9569,
      "gởi": 9570,
      "##ations": 9571,
      "Ngưu": 9572,
      "176": 9573,
      "Ôi": 9574,
      "Ast": 9575,
      "Nắng": 9576,
      "##lam": 9577,
      "Của": 9578,
      "giấm": 9579,
      "dấn": 9580,
      "##CMP": 9581,
      "Lậy": 9582,
      "ĐSPL": 9583,
      "440": 9584,
      "Sach": 9585,
      "đốm": 9586,
      "##ươn": 9587,
      "Light": 9588,
      "179": 9589,
      "Palace": 9590,
      "##atus": 9591,
      "Andrew": 9592,
      "Solskjaer": 9593,
      "389": 9594,
      "hiê": 9595,
      "trợn": 9596,
      "151": 9597,
      "XS": 9598,
      "lép": 9599,
      "cont": 9600,
      "trồ": 9601,
      "##san": 9602,
      "##abi": 9603,
      "##GD": 9604,
      "Romania": 9605,
      "##inet": 9606,
      "Kienthuc": 9607,
      "Lop": 9608,
      "##ict": 9609,
      "RSI": 9610,
      "livestream": 9611,
      "##tainment": 9612,
      "##alem": 9613,
      "Ker": 9614,
      "mênh": 9615,
      "##isto": 9616,
      "LU": 9617,
      "Robot": 9618,
      "còng": 9619,
      "Food": 9620,
      "Investment": 9621,
      "Ibrahimovic": 9622,
      "Bob": 9623,
      "##esta": 9624,
      "##out": 9625,
      "Răng": 9626,
      "EPA": 9627,
      "ICTnews": 9628,
      "trc": 9629,
      "Cỏ": 9630,
      "Zika": 9631,
      "##axi": 9632,
      "nạc": 9633,
      "nhờn": 9634,
      "teo": 9635,
      "cửu": 9636,
      "nháy": 9637,
      "Zen": 9638,
      "hờ": 9639,
      "Mỏ": 9640,
      "Aguero": 9641,
      "Bashar": 9642,
      "Thuần": 9643,
      "Hab": 9644,
      "Express": 9645,
      "##eber": 9646,
      "xy": 9647,
      "Mand": 9648,
      "##ilo": 9649,
      "Kai": 9650,
      "nấc": 9651,
      "ES": 9652,
      "Jetstar": 9653,
      "mận": 9654,
      "##ental": 9655,
      "Khái": 9656,
      "CDC": 9657,
      "SAB": 9658,
      "Fund": 9659,
      "PHU": 9660,
      "HSX": 9661,
      "Thám": 9662,
      "##AD": 9663,
      "##ÊN": 9664,
      "phất": 9665,
      "Vinhomes": 9666,
      "Soft": 9667,
      "Ful": 9668,
      "ngẩn": 9669,
      "DNNV": 9670,
      "Ying": 9671,
      "Hiên": 9672,
      "form": 9673,
      "Lum": 9674,
      "Sap": 9675,
      "bái": 9676,
      "Bamb": 9677,
      "Say": 9678,
      "Ig": 9679,
      "Cafe": 9680,
      "Website": 9681,
      "##edy": 9682,
      "##ahu": 9683,
      "##nis": 9684,
      "Dĩnh": 9685,
      "ngửi": 9686,
      "dỏm": 9687,
      "Hôn": 9688,
      "##̣̂T": 9689,
      "##GS": 9690,
      "Panama": 9691,
      "selfie": 9692,
      "DNNVV": 9693,
      "##RO": 9694,
      "mách": 9695,
      "Anth": 9696,
      "##garia": 9697,
      "bank": 9698,
      "##22": 9699,
      "Trav": 9700,
      "kali": 9701,
      "Khuất": 9702,
      "rap": 9703,
      "Pot": 9704,
      "Trader": 9705,
      "Nhanh": 9706,
      "Opt": 9707,
      "159": 9708,
      "chắp": 9709,
      "chiêng": 9710,
      "Holland": 9711,
      "căm": 9712,
      "Wood": 9713,
      "##ban": 9714,
      "##asun": 9715,
      "090": 9716,
      "Mác": 9717,
      "Trust": 9718,
      "Tiêm": 9719,
      "##iverse": 9720,
      "gạ": 9721,
      "đong": 9722,
      "Lebanon": 9723,
      "hòm": 9724,
      "Ấy": 9725,
      "##har": 9726,
      "##ịm": 9727,
      "đãng": 9728,
      "##cr": 9729,
      "Bù": 9730,
      "nhẹn": 9731,
      "ME": 9732,
      "ii": 9733,
      "##rag": 9734,
      "205": 9735,
      "Santa": 9736,
      "thiều": 9737,
      "MK": 9738,
      "HUY": 9739,
      "##form": 9740,
      "Bai": 9741,
      "viê": 9742,
      "##zech": 9743,
      "##alty": 9744,
      "fence": 9745,
      "164": 9746,
      "CAH": 9747,
      "CBCS": 9748,
      "kình": 9749,
      "sáo": 9750,
      "177": 9751,
      "mậu": 9752,
      "box": 9753,
      "Phn": 9754,
      "##PTNT": 9755,
      "##aii": 9756,
      "demo": 9757,
      "Kelly": 9758,
      "SCMP": 9759,
      "Đứa": 9760,
      "sm": 9761,
      "Bulgaria": 9762,
      "##ICA": 9763,
      "ổi": 9764,
      "161": 9765,
      "##ẤT": 9766,
      "max": 9767,
      "Goldman": 9768,
      "oanh": 9769,
      "thâ": 9770,
      "Vâng": 9771,
      "rậm": 9772,
      "##owski": 9773,
      "tanh": 9774,
      "phách": 9775,
      "Penn": 9776,
      "##Times": 9777,
      "vụng": 9778,
      "QUAN": 9779,
      "jeans": 9780,
      "AVG": 9781,
      "Persie": 9782,
      "Torres": 9783,
      "XL": 9784,
      "mướn": 9785,
      "free": 9786,
      "trươ": 9787,
      "nai": 9788,
      "Ethereum": 9789,
      "##uma": 9790,
      "##athon": 9791,
      "CPU": 9792,
      "Lady": 9793,
      "##rin": 9794,
      "Mis": 9795,
      "##room": 9796,
      "##no": 9797,
      "rằm": 9798,
      "##asa": 9799,
      "##cơva": 9800,
      "khoét": 9801,
      "Ốc": 9802,
      "##̣NH": 9803,
      "Gam": 9804,
      "Nhiếp": 9805,
      "172": 9806,
      "nhối": 9807,
      "Gas": 9808,
      "giăng": 9809,
      "Thách": 9810,
      "Bội": 9811,
      "muống": 9812,
      "Iceland": 9813,
      "##RI": 9814,
      "bời": 9815,
      "##irates": 9816,
      "sầm": 9817,
      "kén": 9818,
      "quyện": 9819,
      "Lenovo": 9820,
      "Yoo": 9821,
      "##ten": 9822,
[...]
