[UNK]
[PAD]
[CLS]
[SEP]
[MASK]
!
"
#
$
%
&
'
(
)
*
+
,
-
.
/
0
1
2
3
4
5
6
7
8
9
:
;
<
=
>
?
@
A
B
C
D
E
F
G
H
I
J
K
L
M
N
O
P
Q
R
S
T
U
V
W
X
Y
Z
[
\
]
^
_
`
a
b
c
d
e
f
g
h
i
j
k
l
m
n
o
p
q
r
s
t
u
v
w
x
y
z
{
|
}
~
©
®
Đ
đ
̀
́
̂
̃
̆
̉
̛
̣
‼
⁉
™
ℹ
→
↔
↕
↖
↗
↘
↙
↩
↪
⌚
⌛
⌨
⏩
⏪
⏫
⏬
⏭
⏰
⏱
⏳
⏸
⏹
⏺
▪
▫
▶
◀
◻
◼
◾
☀
☁
☂
☃
☄
☎
☑
☔
☕
☘
☝
☠
☢
☣
☪
☮
☯
☸
☹
☺
♀
♂
♈
♉
♊
♋
♍
♎
♏
♐
♑
♠
♣
♥
♦
♨
♻
♾
♿
⚒
⚓
⚔
⚕
⚖
⚙
⚛
⚜
⚠
⚡
⚪
⚫
⚰
⚱
⚽
⛄
⛅
⛈
⛏
⛓
⛔
⛩
⛪
⛰
⛱
⛲
⛳
⛴
⛵
⛷
⛹
⛽
✂
✅
✈
✉
✊
✋
✌
✍
✏
✒
✔
✖
✝
✡
✨
✳
✴
❄
❇
❌
❎
❓
❔
❗
❣
❤
➕
➖
➡
➿
⤵
⬅
⬆
⬇
⭐
⭕
〰
〽
㊗
️
🅰
🅱
🅾
🆒
🆓
🆕
🆖
🆗
🆘
🆙
🆚
🈂
🌀
🌄
🌅
🌆
🌈
🌊
🌋
🌍
🌎
🌏
🌐
🌕
🌘
🌙
🌛
🌜
🌞
🌟
🌠
🌡
🌤
🌧
🌨
🌩
🌪
🌫
🌬
🌱
🌲
🌳
🌴
🌵
🌶
🌷
🌸
🌹
🌺
🌻
🌼
🌽
🌾
🌿
🍀
🍁
🍂
🍃
🍄
🍅
🍇
🍉
🍊
🍋
🍌
🍎
🍏
🍑
🍒
🍓
🍔
🍕
🍖
🍗
🍘
🍚
🍜
🍝
🍟
🍠
🍣
🍤
🍥
🍧
🍩
🍫
🍬
🍭
🍰
🍲
🍳
🍴
🍵
🍷
🍹
🍺
🍻
🍽
🍾
🎀
🎁
🎂
🎃
🎄
🎅
🎆
🎈
🎉
🎊
🎋
🎎
🎏
🎐
🎒
🎓
🎖
🎗
🎙
🎛
🎞
🎟
🎠
🎡
🎤
🎥
🎧
🎨
🎩
🎬
🎭
🎯
🎲
🎵
🎶
🎷
🎸
🎺
🎻
🎼
🏁
🏃
🏄
🏅
🏆
🏈
🏊
🏋
🏍
🏎
🏔
🏕
🏖
🏗
🏘
🏙
🏚
🏛
🏜
🏝
🏞
🏟
🏠
🏡
🏢
🏣
🏤
🏥
🏦
🏧
🏩
🏪
🏫
🏬
🏮
🏯
🏳
🏵
🏷
🏺
🏻
🏼
🏽
🏾
🏿
🐁
🐂
🐃
🐅
🐇
🐈
🐉
🐊
🐋
🐍
🐎
🐐
🐓
🐕
🐖
🐗
🐘
🐟
🐠
🐢
🐣
🐤
🐥
🐦
🐬
🐮
🐯
🐰
🐲
🐳
🐴
🐶
🐷
🐸
🐺
🐻
🐽
🐾
🐿
👀
👁
👂
👄
👆
👇
👈
👉
👊
👋
👌
👍
👎
👏
👐
👑
👓
👔
👗
👟
👠
👣
👤
👥
👦
👧
👨
👩
👫
👱
👶
👷
👸
👹
👺
👻
👼
👽
👾
👿
💀
💁
💃
💄
💅
💇
💉
💊
💋
💌
💍
💎
💐
💑
💒
💓
💔
💕
💖
💗
💘
💙
💚
💛
💜
💝
💞
💟
💠
💡
💢
💣
💥
💦
💧
💨
💪
💫
💬
💭
💮
💯
💰
💱
💲
💳
💴
💵
💶
💷
💸
💹
💻
💼
💾
📀
📁
📄
📅
📆
📈
📉
📊
📌
📍
📎
📑
📒
📔
📖
📗
📘
📙
📚
📛
📜
📝
📞
📡
📢
📣
📥
📦
📧
📨
📩
📪
📫
📬
📭
📰
📱
📲
📶
📷
📺
📽
🔅
🔆
🔇
🔈
🔊
🔍
🔎
🔐
🔑
🔒
🔔
🔕
🔖
🔗
🔘
🔛
🔜
🔝
🔞
🔟
🔤
🔥
🔧
🔨
🔫
🔬
🔭
🔮
🔰
🔱
🔴
🔵
🔶
🔷
🔸
🔹
🔺
🔻
🔽
🕊
🕌
🕍
🕒
🕔
🕗
🕘
🕙
🕟
🕡
🕦
🕰
🕳
🕵
🕶
🕷
🕸
🕹
🕺
🖇
🖊
🖌
🖍
🖐
🖕
🖤
🖥
🖱
🗂
🗑
🗒
🗓
🗝
🗞
🗡
🗣
🗨
🗯
🗳
🗺
🗼
🗽
🗾
😀
😁
😂
😃
😄
😅
😆
😇
😈
😉
😊
😋
😌
😍
😎
😏
😐
😑
😒
😓
😔
😕
😖
😗
😘
😙
😚
😛
😜
😝
😞
😟
😠
😡
😢
😣
😤
😥
😦
😩
😪
😫
😬
😭
😮
😯
😰
😱
😲
😳
😴
😵
😶
😷
😹
😺
😼
😽
😾
😿
🙁
🙂
🙃
🙄
🙅
🙆
🙈
🙉
🙊
🙋
🙌
🙍
🙏
🚀
🚂
🚄
🚅
🚈
🚉
🚊
🚋
🚌
🚏
🚖
🚗
🚘
🚙
🚚
🚛
🚠
🚡
🚣
🚦
🚨
🚩
🚫
🚬
🚭
🚮
🚲
🚴
🚶
🚹
🚽
🚿
🛁
🛋
🛌
🛍
🛎
🛏
🛑
🛒
🛠
🛡
🛣
🛥
🛩
🛫
🛬
🛰
🛳
🛵
🤐
🤑
🤒
🤓
🤔
🤖
🤗
🤘
🤙
🤛
🤜
🤝
🤟
🤡
🤢
🤣
🤤
🤥
🤦
🤩
🤪
🤫
🤭
🤯
🤳
🤴
🤵
🤷
🤹
🥀
🥁
🥂
🥅
🥇
🥈
🥉
🥊
🥒
🥔
🥗
🥘
🥙
🥚
🥛
🥝
🥤
🥦
🥬
🥰
🥱
🥲
🥳
🥴
🥶
🥹
🥺
🦂
🦄
🦅
🦇
🦈
🦊
🦋
🦌
🦐
🦕
🦖
🦗
🦢
🦸
🧐
🧘
🧚
🧛
🧠
🧡
🧧
🧨
🧮
🧳
🪫
🪷
🫠
🫡
🫢
🫣
🫤
🫥
🫱
🫲
🫵
🫶
##e
##i
##m
##n
##D
##Đ
##V
##o
##r
##a
##y
##F
##P
##T
##d
##̆
##g
##q
##u
##h
##f
##̣
##̂
##Q
##́
##̛
##p
##t
##I
##C
##2
##0
##8
##9
##B
##z
##c
##̀
##s
##k
##l
##M
##O
##X
##E
##L
##K
##N
##b
##R
##S
##5
##4
##3
##v
##̉
##H
##A
##x
##̃
##1
##7
##6
##U
##W
##w
##G
##Y
##j
##đ
##J
##Z
##→
##🅱
##🅰
##️
##🅾
##ng
##ư
##ê
##ơ
##à
##ô
##̣̂
##â
th
##nh
##á
##ươ
##iê
ch
tr
##ạ
nh
##ệ
kh
##ả
##́t
##ộ
##ă
ng
##́c
##ó
##̣c
##iệ
ph
##̀ng
cu
gi
##́n
##ác
##́i
##ông
và
##̀n
##uy
##ậ
##ị
##ì
##̀u
##̉a
##̀i
là
##ới
##́ng
của
qu
##ại
##ã
##ên
đê
##ong
##ất
các
có
##ân
##̃ng
như
##an
##í
đươ
##ình
##ế
ho
Th
##ổ
tư
##ày
cho
##́p
##iện
##̣ng
trong
##iên
được
đô
##inh
đâ
##ột
với
##iể
##iều
##uyê
đã
ngh
không
##ười
##ành
##ay
tiê
##ần
##ao
Tr
##ủ
##ải
nă
người
##uô
##ực
một
##ước
##ố
##ang
##ợ
##am
##ương
độ
##ặ
##ai
##ự
##ản
##ức
##anh
##ỉ
##ận
##̃n
##àn
Ng
##ường
##àng
##ề
công
##ính
##ài
co
Ch
20
##ội
##ung
để
thu
##át
những
tô
này
##ể
câ
##iệt
đó
##ở
##ữ
##ụ
##ời
ơ
đị
khi
năm
##ơn
về
do
ra
##eo
##ạn
du
##ẽ
##́u
ti
ở
tại
##̉ng
đến
##au
giá
##ật
##iến
đầu
##ăng
từ
đồng
##án
vào
Ph
##iệc
##ập
Nh
ô
thể
cũng
trên
##ống
##áng
tu
sẽ
##ái
##iết
kho
hiện
động
cả
nhiều
việc
##́y
bị
##ây
##ết
nước
##iệu
nhà
##̣ch
số
làm
##áo
hàng
định
##ử
chỉ
##iểm
##ạt
ngày
to
quan
##ăn
##ách
##ượng
lại
sự
201
##̀m
##ổi
Nam
##ẩ
phải
##ưa
trường
##̀a
##́m
##ằng
ty
xe
thành
##ý
##ộc
chính
##ảng
nhân
Việt
##ảo
##ĩ
cơ
##ứ
##ạo
chu
##ối
gia
##uyên
##ẫn
ông
##ịch
##ào
##iển
##ưởng
##iệp
hơn
##ấy
thì
lu
nó
##́ch
##ấn
##ắc
xu
mu
##ạc
##in
##ỗ
mà
lo
nhất
đi
##on
thời
##ờ
##ợp
tăng
phát
##er
thực
tôi
##00
còn
tế
đo
điều
đang
thông
hợp
quyê
vụ
##uốc
dân
sản
##ạnh
hành
##ỹ
theo
##ẻ
học
##âm
biết
mới
##ặt
##uyệ
Kh
##ánh
##ặc
##ảm
##ắt
cao
con
sau
##en
nhưng
nghiệp
hội
lý
tổ
qua
##ia
##òng
thị
thế
đối
##ọ
##̉n
dụng
##áp
kinh
##ốc
viên
nhận
##̉nh
##ôi
chức
##ồi
doanh
##ẹ
Quốc
sinh
dự
xuất
tiếp
lơ
##ữa
##ar
##iệm
hình
##uyện
lượng
lên
##ọng
quy
cư
tin
trước
điểm
##ếu
tiền
cùng
ư
##ạm
trình
bộ
rất
Trung
nên
##ồng
phu
##iểu
##ạng
Ho
ngo
tác
##ơi
mình
Gi
án
##ướng
cấp
Công
##ệnh
tỉ
##ứng
bạn
anh
dư
thi
tháng
triển
báo
##ỏ
##âu
chủ
giao
##óa
kết
dịch
họ
vẫn
nay
tài
cầu
tới
năng
##áy
an
cách
đây
đường
tỷ
##iếu
vì
Hà
toàn
nói
Bộ
lực
tình
khác
đề
##al
lớn
khu
so
giải
##iễn
bảo
Theo
Qu
##ạch
Mỹ
vô
##êu
##ừa
giới
quốc
##ùng
##ầu
10
xã
hai
##ấp
â
tỉnh
giảm
##uyễn
cuộc
##ẩm
##uyển
phần
bán
thủ
##óng
##é
Nguyễn
tâm
thống
##im
cần
quả
tự
ky
thấy
##ợi
rằng
chưa
Trong
quyết
##es
nào
gian
pháp
cổ
triệu
hô
tiêu
tục
nhiên
vị
##ậy
19
tạo
bằng
thương
phương
mặt
trị
ảnh
phòng
địa
mạnh
bản
##ắn
ý
tra
liên
vực
sử
đại
lần
mức
trưởng
trọng
phí
mua
##or
hoạt
tính
hiệu
lã
chúng
đạo
hệ
khách
bệnh
cô
##ộng
TP
hay
hóa
##ắng
##ọi
Như
##et
##úng
thường
diễn
tập
máy
vi
quá
##uyền
##ăm
thức
Tổ
Nội
em
đưa
##̉y
dựng
điện
chị
ta
khai
sở
trung
trở
gần
##ỗi
yêu
chất
Anh
đất
tham
bất
đổi
giờ
##el
tho
quyền
chiến
000
phẩm
##ởi
##ám
chiê
tích
khoảng
##̆n
khó
gì
tuổi
##ẳng
vốn
##̉i
xây
##ậu
chế
ăn
sách
Ngo
sống
vậy
nhiệm
tốt
ngoài
vừa
bu
##uồn
chứng
12
bắt
kỳ
sát
##êm
thứ
vấn
chuyển
Văn
cáo
đội
đơn
##ôn
##ấu
ro
lợi
kiến
đánh
##ìm
##ẩn
biệt
##ễ
muô
bố
nhập
rồi
loại
##úp
ngân
US
bà
phố
khiến
##uyến
kiểm
phủ
Chính
bình
Tổng
đều
hoàn
##̀y
##ảy
##ừng
##uôn
đình
cảnh
##ic
##ượ
thêm
đạt
cứu
Tuy
lập
USD
11
dùng
thiết
chi
##ửa
##ũ
sĩ
gây
Thủ
##àu
nghị
ứng
giúp
nghĩ
tượng
##hi
cảm
trợ
hoặc
hướng
quản
sáng
ban
Các
phạm
Bình
văn
dẫn
bên
##ưới
hạn
tìm
##ặp
diện
muốn
kế
##ầm
##it
hộ
huyện
trang
ngành
trẻ
xử
Ảnh
##iền
nếu
quân
##ép
giữa
đoàn
tổng
chí
Cu
biến
nhau
##ưu
phiếu
đấu
phục
nghệ
tịch
##ND
sức
Ô
##iêm
su
hết
giữ
Thanh
đặc
##ặng
cái
tay
##ĩnh
mang
bàn
##óm
##ược
bao
Chủ
##at
##as
luật
tiến
cá
##ẩu
từng
sơ
biểu
##ú
##è
##̣n
200
thuộc
tiên
hoạch
chuyên
Sau
nguyên
phân
nữ
##ìn
lời
Nhà
thanh
nhu
kiện
Ông
##om
##ẹp
sao
Minh
vệ
tên
tướng
##uống
khẩu
##il
truyền
xác
nơi
thân
chung
bỏ
vàng
mẹ
chọn
An
lúc
nguồn
30
thay
Ngh
trí
bay
Đại
##ạy
tiếng
15
##ac
tranh
phụ
lịch
liệu
##út
##ượt
tử
Thị
##ền
dài
##ò
xem
mạng
giáo
rõ
gó
##áu
minh
đảm
##is
viện
trả
ký
##ẫ
##ro
mục
nội
##ắp
chuyện
cuối
chiếc
Một
mất
ca
##ồ
đủ
vùng
mở
hưởng
chia
tương
##ữu
mọi
nữa
mỗi
gặp
khả
##iêu
Hải
luôn
##ad
vật
yếu
ươ
thuật
nạn
xuống
trận
##iêng
##us
lãnh
đẹp
ngay
##ch
##id
nhỏ
khoản
lệ
##ậm
trực
##ol
##CM
biển
kể
##ỡ
##ằm
luận
Bắc
tiết
hỗ
chống
khí
cạnh
đặt
danh
Du
202
Nga
chuẩn
đúng
Thu
xảy
Ban
Hội
Lu
đoạn
Đức
xét
dù
cửa
##ắm
vận
Thành
##ãi
Đông
##ừ
phiên
vợ
áp
bóng
giả
##âng
Phó
##éo
ít
Tôi
cung
suất
nhóm
nợ
chồng
nhanh
tàu
##em
thích
chương
cố
sang
nghiệm
##ến
ai
trạng
đốc
##ing
trái
đóng
UB
khăn
##ẫu
Hoàng
cứ
bởi
Những
phía
Co
chứ
gái
##ồm
cực
##ưng
tuần
thư
lao
lấy
chơi
mại
##ửi
nhằm
##le
Sơn
##iếm
##ích
ấy
góp
tố
hồi
sân
đời
á
ngoại
##uyết
##ter
hỏi
phép
bài
gồm
nổi
gọi
mô
tất
Tu
In
tín
hữu
toán
Lê
##ịp
khá
vay
càng
tối
Nhật
mắt
Thái
thấp
nông
huy
đáng
thuế
dưới
UBND
Khi
To
Trần
Nếu
trách
Ngày
rộng
chiều
cụ
Đồng
nền
tấn
Xu
nâng
Â
sẻ
##ra
phim
##̃i
hã
hôm
Không
đá
Trước
đăng
##ưỡng
Vi
Do
khoán
đẩy
lưu
đông
hậu
giám
phối
Đây
vu
2018
TT
lĩnh
Người
tâ
14
18
ghi
kỹ
thật
sắc
hiểu
dục
13
câu
16
ba
Có
cây
Dương
đu
vọng
nhìn
nghĩa
tải
tinh
cán
##ét
##ốn
Đảng
thuận
chết
hồ
vòng
quận
căn
trò
đa
##oo
riêng
HCM
lãi
Tây
100
25
di
Hồ
Tại
tội
chạy
Nhưng
Ngọc
khoa
Với
Hiện
cộng
đồ
bé
môi
chân
gửi
châu
dung
tuyển
##os
chấp
dễ
2017
thắng
đảo
tuyến
##un
Quy
Long
lộ
##ạp
soát
độc
chịu
##ed
##um
cử
chú
Á
phản
Ngoài
thiếu
Điều
dầu
Liên
lòng
Xuân
đàn
Quảng
thần
đầy
2016
phá
nguy
khỏi
đứng
thuốc
##úc
##ur
phong
17
bác
23
##ag
VN
2019
##ex
##àm
Bản
Trường
hại
ổn
đâu
Lan
Từ
hiểm
nghiên
thiện
bước
mẫu
vài
bổ
kỷ
hoa
tưởng
Sở
2020
vượt
##uyệt
##uôi
##ếp
tuyên
22
vai
thúc
nằm
xin
##iễ
cường
thoại
2015
24
quý
cải
khẳng
màu
tức
hòa
##ốt
Ngân
50
Viet
trai
Ky
nghiêm
lễ
##ot
đêm
hạ
tai
21
nam
kiếm
Hoa
mùa
Hòa
duy
DN
ke
##èo
dành
ương
##ứa
phạt
chắc
##ảnh
##ựa
nghe
kéo
niên
khởi
ngờ
xúc
chỉnh
xa
khỏ
khỏe
ủy
nặng
họp
thôi
##ap
##ọn
lâu
kê
buổi
lớp
##VN
trì
chiếm
Quang
##and
phù
nhạc
tiện
thảo
Phú
Nguyên
##eb
Ủy
mưa
đôi
nghề
sớm
##ớ
biên
sai
giai
Hàn
thí
##óc
Vì
phút
Giang
sâu
mã
Tài
Giám
trao
hút
##ip
Năm
##ỉnh
môn
##one
tầng
##ank
tốc
##ut
vui
Phạm
nuôi
vũ
##ew
lửa
Phương
##iễm
đào
Chỉ
2014
Đà
dòng
##ón
nghỉ
Nhiều
##ão
Vũ
##ầy
mong
##ent
giống
##ir
mấy
Việc
cháu
viết
xuyên
##TC
Luật
ninh
giấy
Phòng
ưu
##ặn
âm
Để
biện
thất
phường
sư
Dự
áo
phóng
Kỳ
tệ
Tân
Ninh
lược
Kim
Hu
Thế
Hồng
lương
buộc
vư
gh
Chí
##ủng
mắc
Thông
Chúng
tái
thôn
chỗ
dấu
thăm
##ấm
##ak
Kho
xấu
nhuận
thủy
thẩm
khối
tránh
tạm
TH
bầu
miền
Phát
cấu
Pháp
500
uống
2013
mối
thuê
phê
đáp
ngôi
nhiễm
nóng
thái
##ow
siêu
tòa
##ine
quay
Bên
nghi
Châu
quán
khủng
Đo
cam
40
Tuấn
thưởng
mặc
Kinh
Mai
hãng
Bảo
##ịnh
lựa
Cục
suy
Bà
Nghị
da
Tiên
27
đổ
sông
26
đau
ma
nhờ
vững
cân
2012
bức
28
tỏ
##uốt
hạng
trú
Âu
chữa
kích
Linh
cháy
xanh
thử
##òn
ko
Tết
Đến
##ẵn
Còn
##ẵng
họa
khắc
in
Huy
tầm
lệnh
thiệt
chẳng
chờ
nhẹ
Hai
ích
trời
##ion
sàn
hát
Báo
chuyến
sửa
rút
Le
nhớ
##ain
loạt
##ig
xếp
Nẵng
đỏ
thác
Về
##re
dưỡng
quanh
sẵn
bày
chăm
##iềm
cập
kịp
2011
Thương
Tập
nhiệt
may
Cơ
cục
khám
máu
##LV
thẳng
Dũng
GD
đe
NH
nối
##̣a
29
khóa
Ind
vẻ
##ói
chặt
coi
cắt
sung
##ump
Nhân
đón
song
##iv
km
CP
thỏa
nhấn
lái
tộc
vong
Và
HLV
Bí
199
##TV
##co
ước
##ợt
##ãn
ngồi
lượt
cận
Re
Thứ
chóng
Lo
khán
Bệnh
thậm
bảng
rủ
Gia
##te
ngại
lai
##NH
quen
nghèo
ly
cũ
cầm
ngắn
Đối
##õ
Hiệp
Chi
##ue
gắn
tắc
##iếp
hôn
Ơ
khổ
Trump
##lo
đột
##ly
Bu
35
dạng
niệm
màn
Hùng
đương
tồn
##ụp
sắp
Triều
2010
Tiến
hạt
31
quỹ
##ab
trồng
nắm
HĐ
quê
##art
làng
Giá
kém
Đình
lạc
tặng
##SE
lẽ
##NN
##ton
sợ
can
giành
Khánh
thừa
hải
Ở
dừng
##ụt
Cũng
ngủ
thụ
##ỏi
ấn
nêu
nỗ
cha
trụ
ánh
lỗi
##av
luyện
bạc
Đoàn
Yên
truy
suốt
##ục
ngăn
dần
cánh
trương
phúc
chắn
nghìn
##̀nh
Đầu
60
tờ
món
khảo
##NG
Lâm
TTX
trăm
mật
thiên
Cô
tận
đọc
##pp
trải
##ard
##PT
New
kg
trắng
Phúc
##uối
Đó
Ba
rừng
liệt
##ov
Hưng
lắm
ĐT
Hương
đích
##ọt
Lý
quần
##nam
dạy
##hone
nu
tuy
thịt
lũ
Thời
thơ
sóng
giản
TTXVN
phổ
##ik
Khu
##ce
ủng
nổ
Cảnh
kiểu
sàng
##ộp
thoát
gốc
dây
PV
hấp
Cụ
rơi
Sy
binh
Sự
giác
rủi
##ran
xong
ru
Quân
đợt
##TT
kim
bánh
Hóa
thú
##ie
##ark
dịp
đảng
sạch
phi
Al
thao
Con
Trang
khuyến
##ẹn
##ul
chục
giàu
##AN
Ngoại
gió
cậu
bão
##tr
##ck
hơi
Trưởng
chợ
##OV
túy
thầy
Bạn
tạp
dữ
cấm
##ID
chậm
hãy
##ộn
Trên
xung
xăng
tiểu
phán
đứa
300
đòi
##bank
cự
bật
thua
Phong
tuyệt
kẻ
ĐH
45
Độ
đen
nhật
nhắc
bối
##ist
Ngay
lan
SN
tù
Ar
mộ
khúc
##ess
hầu
phận
Dù
Đặc
##iếng
phó
chứa
hy
##est
mẽ
Vụ
##ria
##ỏng
lá
chụp
ràng
##ook
Nghệ
lạ
đoán
lạnh
dõi
núi
niềm
Viện
##amp
hài
Kết
mừng
kêu
sóc
đám
Thủy
xo
##ill
Mo
Vin
chở
quảng
mời
##ệt
Phan
lỗ
thầu
Syria
##ald
lục
##II
Thực
Vĩnh
CS
Vietnam
đàm
36
70
##ty
Hàng
Sh
##ĐT
Họ
thiệu
##ươi
Thường
che
Dân
thải
Em
miễn
sỹ
nộp
vé
Ấn
Được
ngược
Nguồn
Biên
bí
hạnh
Cùng
đua
TS
hoàng
bại
198
đỡ
##ore
Tư
##ber
##ớt
đấy
nửa
##ềm
tim
##vid
súng
gắng
##́a
chặn
cà
đem
Vinh
bang
băng
##ĩa
ha
vươ
St
##ãy
Thiên
bền
liền
mỹ
lẻ
gói
dựa
gấp
Vân
##ines
##se
sắt
##ín
thằng
##ah
Sáng
Ro
linh
##st
sữa
Cần
Man
lắng
##net
32
Giao
hoảng
trừ
thẻ
nguyện
la
bắn
kịch
chào
hu
Mặc
cười
thách
80
hủ
tôn
2009
##ộm
duyệt
đỉnh
đợi
##ướp
cưới
chút
La
##HCM
ASE
kia
địch
Sài
cặp
dàng
trữ
##ênh
Lào
Thuận
TPHCM
kiệm
hương
tiềm
##ít
Chương
vn
##ượu
rời
Cổ
The
Giáo
kênh
ASEAN
niêm
Cao
Nha
dương
Đào
chữ
##onald
chiếu
mái
Định
ơn
hiệp
lẫn
Quyết
dao
##ack
cơn
khẩn
pha
ngừng
##ian
Tiền
90
giết
lưới
##op
Quản
ngang
dứt
nắng
bào
iP
Trọng
Xây
##ina
Tháng
trấn
rau
##ôm
Gòn
Br
dụ
##ebook
Điện
sứ
Duy
rác
hủy
Cường
##up
##az
##acebook
rượu
Thắng
thiểu
bờ
thai
bè
gỡ
kính
ngàn
cướp
Trương
buồn
bãi
vỡ
chốt
##ld
quà
##if
tấm
khắp
gương
EU
mê
Chiến
mềm
phức
căng
Jo
yên
01
kháng
##ort
thận
##ague
##Ư
yết
##ne
dị
cựu
cuốn
bồi
gà
tụ
thuyết
dọa
tùy
Mal
lối
tri
Inter
rẻ
Khoa
Hữu
Đội
##ib
400
ngũ
##ond
Số
Hy
Cộng
##ok
ngôn
CA
##sia
##ity
##ồn
Huế
sh
33
Mar
Tâm
Phi
Covid
tung
khiển
lạm
Cách
Nông
nhé
ép
buôn
League
Toàn
##ry
##ich
hè
mơ
đừng
ngon
sạn
phú
hề
khích
trúc
chấm
Bùi
Thượng
Chị
##mp
tá
Mu
##̉m
##ev
Qua
##CB
chẽ
thập
Sa
chạm
Lương
Giải
##Ê
gạo
197
Võ
nhiêu
tươi
So
giật
##CC
tóc
##GT
mai
kèm
Bar
túi
bây
##io
##lip
tỏa
My
##ell
BH
34
Cuộc
Lúc
37
trích
##iz
Tin
chàng
huyết
già
Phước
2021
Cho
Vương
##ers
đoạt
à
ung
##ones
##uro
lừa
##ợn
##kr
##ụy
ngữ
CL
trào
Đài
App
đuổi
Biển
ngoái
##ãng
Index
Cup
trộm
hào
Mỗi
mãi
THPT
chấn
ví
Tình
trật
lâm
đèn
hă
ẩn
vo
web
Tất
##th
vết
xế
khấu
uy
thuyền
hẹn
tiêm
huấn
Bởi
##ff
ngập
iPhone
đẳng
nỗi
mắn
Chiều
Sing
TNH
##ậc
dáng
tháo
trốn
Iran
bạch
lô
##ub
gỗ
Đỗ
38
TNHH
##ord
Ngô
Sam
Tỉnh
trúng
2008
cảng
trưng
bọn
CTC
bậc
góc
ấm
chuô
xứ
##ez
TA
hối
Bài
khuôn
55
phấn
tán
Tàu
đãi
lắp
thép
Kế
##deo
khung
Lộc
Kiểm
lành
hẳn
##ri
Vào
quên
Cầu
video
trạm
trùng
Facebook
ngã
rào
mạch
Vu
Tĩnh
dám
Phil
sổ
bò
##ec
Ư
Doanh
trần
sốt
Apple
Nghĩa
##krain
Thảo
##ipp
Hồi
Chu
trông
CLB
rối
đập
đạn
đâm
ngưỡng
Bác
Thơ
Mạnh
Ukrain
thù
##ắ
mưu
Mặt
dậy
tảng
đức
##ắk
75
loạn
##line
ghế
##apore
BĐ
chảy
##era
mạc
##ứt
giam
rà
nét
##ọc
##uch
##XH
Đường
COV
Học
##aw
cản
cơm
bom
Hạ
Tính
##alia
Hơn
Hậu
Singapore
##ớp
COVID
Chứng
NHNN
hâm
Đặng
giỏi
##ick
khen
bó
##ama
kiên
Đa
huống
##all
02
vườn
09
đà
đáo
Tấn
Lai
bữa
Quỳnh
the
##aysia
##ph
nhũng
hồng
ngụ
Vậy
lợn
nhảy
##rus
Air
Hình
thượng
làn
đài
bạo
Mới
HN
CN
Tiếp
Thống
hiếm
##son
##Bank
##ud
##ax
xóm
gam
##iếc
xâm
Malaysia
tang
lúa
cú
tổn
thổ
Tùng
túc
thảm
600
nhánh
Đề
giảng
Lễ
hứng
##od
##uter
Cả
##CK
chúc
nhượng
HA
hùng
Can
ngầm
xưa
Ukraine
Loan
Hợp
##orld
ngọt
##TVT
AF
##onesia
Ty
Đinh
khô
đai
dâm
Is
##ẩy
nàng
Cái
xinh
khóc
Lao
mũi
05
viêm
##SC
65
42
##ork
thở
39
trại
00
##iệng
đồn
Lưu
vĩ
hộp
Song
Bằng
hoang
Indonesia
Philipp
Sp
Kiên
Camp
Quý
thang
chó
Cl
Nói
##ashi
Huỳnh
dày
chuỗi
miệng
Nai
ống
ả
##QT
GTVT
BV
hư
Lực
Pr
tiếc
48
##ịa
thoái
ngư
Thọ
##com
##NT
Nữ
##ẫy
bù
bụng
##ey
loài
nhắn
nhị
##LĐ
chối
ga
08
thùng
đốt
Ai
03
##man
41
lệch
kín
rửa
##uters
##ico
As
lây
Hoàn
##lymp
clip
##̣t
Hôm
Nó
tràn
Yo
hỏng
Su
Hoài
mệnh
Diễn
Lợi
non
43
tốn
##ite
GDP
##uồng
cột
giọng
cãi
Hằng
Quan
cứng
##CN
hỏa
IS
chăn
đậu
tây
##ei
##ail
hiến
World
Nhất
ôm
Philippines
Tuyên
##eg
al
Olymp
City
điển
##ep
Tòa
phẫu
Thổ
##sen
não
Là
mát
mốc
##han
ruột
vinh
huynh
150
Internet
46
hứa
cờ
##ãnh
tật
tru
ne
Hãy
##sung
##TM
##ía
virus
Am
VI
Reuters
HĐQT
sắm
Hiếu
##nline
va
đắt
Trà
tường
pháo
nấu
bốn
ảo
Quỹ
##uchia
than
Park
lầm
800
51
##KS
52
196
đền
treo
##ustr
04
47
mực
Làm
CĐ
CH
xóa
##ada
tông
Tăng
bắc
06
chủng
Chung
##tô
ngạch
Thụy
##to
Campuchia
fan
trầm
bùng
trứng
##CS
Bl
bến
sút
lọc
07
mùi
Goo
lãng
##gle
trục
Real
cương
##ấc
HO
thăng
lãm
II
VA
sa
Car
49
##und
tả
44
Nhiệt
bớt
Samsung
KH
##coin
ngừa
ẩm
xương
sôi
Di
dâu
mệt
show
Sinh
##og
bốc
khoe
Truyền
Nhĩ
And
giấu
Huyền
vướng
Un
Donald
##hn
bia
bê
##mart
quang
vời
##ast
tôm
700
NA
##ky
##ụi
##ona
Thăng
##EC
VOV
thuẫn
Riêng
phỏng
com
thờ
Thúy
lưng
Phượng
##ass
mày
canh
NS
##ẹt
##ash
CSGT
Thư
nhãn
tân
phái
##ern
Cty
tàng
tắt
Tú
Phần
##mar
xứng
Austr
Tiểu
trưa
95
diệt
triệt
##ade
chùa
Barc
Đăng
cát
Chánh
gợi
Hành
miếng
TN
bột
tuân
dinh
mỏ
thả
2007
Bo
Trịnh
xuân
game
AP
Xe
Lãnh
##MC
đc
cốt
54
##rid
kì
gọn
lậu
dường
85
##ver
Hiền
nhi
##ation
##xi
##ate
Hệ
##ashing
##istan
Australia
tắm
Khoảng
khuyên
Nhóm
Google
##ashington
Thậm
Dung
Ob
##ind
vỏ
cổng
Nhìn
##tel
dược
##sea
56
hầm
Đã
##CT
Cuối
chả
lít
mây
BĐS
bám
lồ
hồn
99
57
viễn
York
xả
ven
đậm
Bị
ê
##end
điệu
Washington
khổng
sánh
Điểm
bơ
tan
SA
Cam
##ier
giáp
Xem
##Ơ
Chưa
điệp
##itcoin
cất
##phone
##30
TAND
Danh
chừng
bếp
Xã
Tam
ngu
hắn
đạp
##iễu
##èn
HĐND
##BC
camera
mỏi
cắp
cm
ôtô
Nhận
Chiếc
Tim
khớp
khuẩn
dàn
giây
thô
##ek
Pl
Vàng
Ab
hung
dông
thiệp
Giấy
sụt
72
Chel
##ames
It
thím
hưu
việt
Hạnh
Mad
thoải
lở
##ba
vắng
Giờ
Nhi
San
móc
đeo
##ượn
mảnh
khống
##uk
##ach
Mình
##iver
News
ĐB
##ge
Câu
Chelsea
hẹp
58
of
Bến
tí
Ý
##ini
vua
##roup
tết
Bra
ròng
lặng
##rael
đỗ
Bất
Trị
For
##igh
hàm
táo
##TO
củ
Sao
ạ
Obama
64
Đắk
mm
dính
nhựa
trà
trừng
Dịch
62
Mi
##rab
Par
săn
53
Trí
CTCP
Israel
lang
củng
tròn
trôi
Kiều
lươ
hổ
nhỉ
vẽ
##DI
nhịp
HS
sót
gánh
chênh
Tỷ
##iss
##ood
##ech
mổ
QĐ
Tối
63
Trinh
##ros
top
Har
Bạch
hảo
hụt
thâm
thói
cỡ
##amin
Thể
leo
ngực
##ost
béo
Cà
duyên
Cai
rắn
Vũng
Đáng
##zil
tiễn
váy
Gần
chín
mâu
Ngãi
Thừa
tủ
Se
##enn
giường
Động
khiếu
Bước
răng
dắt
HNX
Nước
Thi
tĩ
sốc
chìm
##ựng
Gu
Mẹ
Yến
Thiếu
Put
khâu
muối
67
dọc
##ta
Môi
Ca
bá
BHXH
nề
##bo
giày
Lam
SE
Đô
Thịnh
ác
Rất
Pet
##Ô
chuyền
gan
thuần
##po
khát
John
trống
59
tĩnh
thước
Thùy
mạo
đẻ
Mọi
pin
hằng
tàn
Dầu
Ex
Uy
mảng
Trao
Phải
El
Canada
##ft
Arsen
Đất
lọt
Tham
ơi
Ser
lính
cẩn
thự
Putin
mãn
Ronald
Tho
Phụ
Tự
##ester
PG
61
Thay
Cr
tách
##ile
ngộ
say
Ví
ném
##Â
nghiện
##sk
trọ
giấc
##combank
Mos
lỏng
##ary
##pt
khuyết
98
st
68
##land
Cẩm
##acc
sơn
##eng
195
##ions
##IV
heo
cỏ
Ma
Sản
##age
AFP
thơm
Cát
đói
đam
Brazil
120
##TA
##uýt
hoan
HAG
##IC
##ix
Tín
Nghiên
nút
92
Phật
##da
GS
66
##IA
LĐ
mét
Ánh
giãn
đáy
bề
vả
QL
Vid
78
bơi
##TP
May
khoáng
##ham
##ỗng
Nghi
dạ
2006
Thạch
Gal
euro
Mau
lão
đựng
##JC
Giới
vội
tiệc
dập
250
lò
muộn
PC
chiêu
##ero
##ya
vươn
Vận
##ớn
Arsenal
Bin
NG
##orn
Gr
CT
Tử
Kiến
Nhờ
lí
mù
Huệ
cống
ổ
##la
MC
Ly
chửi
NĐ
kí
De
PT
dốc
TR
giận
MU
taxi
nhạy
đắp
vương
Khách
##ìa
Mức
##EO
smart
VND
Thiện
Col
lùi
##de
Mess
Euro
Thiết
chán
##raq
ghép
ái
mầm
Ronaldo
Xin
mượn
SH
kiêm
88
ấp
ốc
bỏng
Lần
chua
PH
##ẹo
tuệ
Trái
Triệu
Pro
buýt
BS
Hãng
Iraq
xỉ
##qu
##ice
ngạc
cụm
Địa
Ad
Thấy
nhàng
thắt
VP
bận
Phu
Tương
liều
71
sạt
vẹn
online
##ara
XII
nhầm
900
##ob
##ee
ám
##tain
VF
##ink
lấn
Ang
rét
BTC
77
Úc
BO
##site
Chẳng
76
xoay
nở
chai
Bank
Đơn
chém
Bitcoin
Sang
##berg
Liêm
##ửu
trọn
dã
Đạt
thợ
vất
Video
Dav
Madrid
##ino
73
Sông
FDI
Ale
Ag
##ram
bơm
lông
Lệ
Top
bi
rãi
74
Chuyên
Mục
##ley
Máy
chim
Lịch
ngọn
tha
BID
##go
84
91
Xuất
dọn
smartphone
LH
hà
Quá
##aly
nồng
82
##ota
võ
long
Hong
sáu
cưỡng
Nên
Bích
Căn
##ED
soạn
TTCK
Vị
Đi
nát
##tor
hoãn
tiệm
trộn
bụi
Trắng
96
vải
Miễn
hôi
Bá
TB
Be
##ela
gián
Seo
86
##ies
trinh
69
Messi
xưởng
khơi
NN
##ve
tứ
tao
mì
Mã
Com
Mer
SJC
lũy
Vấn
lấp
##OS
##IÊ
##unce
ngõ
##ug
Kể
khôi
Quyền
gìn
sáp
hot
Thật
rạng
##UY
2000
hỗn
##ựu
##pool
Thêm
194
nhẫn
Thạnh
81
##accine
mặn
Tô
79
Hond
Hiệu
phổi
trùm
Cập
dò
Gửi
Đạo
Vn
##anmar
VTC
bát
CTCK
vit
ounce
mỡ
vang
##ani
Phiên
im
##én
PGS
chuột
##YT
97
Liver
Ben
Vừa
III
sập
Phía
##ight
Đúng
##inho
khoan
and
nhan
KT
truyện
lê
Champ
xi
khứ
xô
Fed
##rom
Ste
vitamin
Dưới
Chia
Myanmar
đệ
2005
Mà
khói
quét
HD
##ace
##eal
nại
cậy
Sc
##lines
##old
xách
HAGL
dồn
##ondon
đới
bông
Chuyện
Mil
Liverpool
cắm
lôi
Mark
Tường
bế
kẹt
##mi
Mic
##lor
vaccine
THA
##ox
##va
hiếp
##RS
CEO
London
Xuyên
Điển
CSĐT
chê
##ho
website
Tháp
Lee
gom
dời
Kong
chúa
no
tựu
##ans
##axy
men
Triển
GB
##ive
##ke
##let
##ant
##ath
ùn
##ằn
dâng
ân
Honda
nho
83
Paris
cài
##DA
##di
Vợ
Olympic
vây
FPT
ngắm
Blo
Ra
mũ
dội
ức
nảy
Đàm
##ited
##ƯƠ
pro
lận
lật
for
ưa
bón
đắc
lường
ruộng
##pe
MB
bọc
dở
inter
dỡ
Cảng
SG
87
##esh
hi
Son
hò
rũ
dĩ
trượt
Galaxy
Tuổi
Hiến
NĐT
Barca
Hầu
##omo
Bồ
Champions
Airlines
Chú
MA
89
rải
bổng
đòn
Đừng
Trade
##CH
##ike
gạch
nạp
Na
Phùng
##ica
##ưởi
##MT
khéo
BIDV
măng
##der
Hang
nha
lộn
##roid
##exico
Gió
Hay
Sen
##ien
Nhu
Games
Toy
Tuần
##gon
##ct
Dai
##ott
MV
Tiếng
đế
Khối
mỏng
##lin
Sáu
Ju
gắt
Hướng
rỡ
Pal
Jong
##KT
##con
đĩa
luồng
NLĐ
mạn
Sóc
##ườn
tọa
Thuế
vỉa
##uốn
ngợi
Cal
múa
EVN
##CĐ
Nhung
Trả
Phân
dệt
SM
##ube
đán
bỗng
Nhơn
Bắt
##SI
lồng
##att
gã
Mexico
VH
fen
Sức
Lập
##DC
TQ
Chinh
phe
gay
Group
trâu
BKS
sợi
Sỹ
kiều
Bang
Tôn
Xô
mờ
##ũi
bẩn
Viettel
AT
lỡ
VFF
BOT
quyến
Đánh
xạ
94
lụt
Lạc
Sư
##ano
##entina
nới
##pr
Tw
93
##ale
mến
hoá
Chấp
cay
SEA
thổi
Đan
IP
nhở
Kỹ
THCS
Lạp
chinh
##tainer
ACB
Siêu
nhậu
nhắm
Rồi
Vietcombank
##sh
##̀NG
Chợ
Toyota
thoáng
No
##ren
chip
David
VKS
VTV
Vietin
CB
huyền
##XX
QH
ND
##ust
Bay
lứa
vắc
đồi
Cứ
đứt
HT
Nghe
##ish
Bố
Kr
thưa
gãy
Viên
Quận
Mc
Mich
##uth
triều
Mas
##NA
Toán
trội
##eon
TV
điên
đùa
kiềm
internet
##ial
mồ
##ment
Mac
quái
Xi
rèn
Mấy
Mùa
##ẫm
ngựa
Ed
cúng
Bạc
xài
BHYT
đành
##ll
bảy
##oft
Tuyết
chẩn
At
container
khoác
Đêm
Arg
##vi
bội
NATO
PTNT
thọ
##acom
##are
inch
##ull
##lad
san
Cấp
##me
chăng
kem
Duyên
Lạng
tụng
us
##ens
hở
lề
##ote
Hiển
nướng
##TTQ
nấm
cước
Af
vở
Lạt
tp
Alex
cáp
Khai
tráng
lăng
##ose
đuôi
2025
hoại
##arl
rực
##ola
trân
2004
Lắk
Huyện
bút
hả
vợt
ngào
tháp
Cảm
dịu
Prem
Ber
sưu
##GP
Android
Os
ngơi
HĐXX
Kiếm
Sĩ
VĐ
##ics
##LC
##na
hang
xao
##aul
bì
úy
cúm
##̉u
Cap
Cận
Ngôi
phun
Italy
móng
##iềng
##SA
##FA
Rom
Argentina
phanh
cóc
##oll
Mart
ong
HOSE
tẩy
Ngành
de
##SG
Mob
Tiêu
Cá
mọc
đọng
##biz
khoảnh
Mon
dưa
United
hãi
mi
nụ
mẻ
Sun
dc
MT
##itter
Kông
XH
Trăng
ngột
man
##ma
đầm
tóm
##rosoft
Min
hiếu
lăn
hiển
##chi
##rg
lõi
Điền
tím
##cow
manh
##kyo
lưỡng
Cor
cạn
Er
cai
châm
Vy
Kỷ
phiền
##PC
hàn
ex
khép
gối
##ilk
hoài
ngón
phế
Ven
##ata
##ney
bể
Chắc
##ital
khôn
##CV
Tên
voi
##ana
Khắc
En
thánh
Cửa
nhí
Mua
GP
trắc
chặng
Hoạt
ồn
lốc
Moscow
dối
##ron
##ett
oan
đớn
350
##ael
Trẻ
nhạt
##urinho
Đồn
Microsoft
Tokyo
un
Sch
Phủ
##oc
vạn
mò
khái
110
PL
2003
lân
nếp
Tìm
Thí
Bái
dán
Tech
##ae
Mourinho
##ko
PCC
Bỉ
##iden
Trận
thắc
Sử
Cuba
tồi
##ịn
dũng
Per
Viết
Rịa
màng
He
Kon
vọt
khánh
xông
Khê
Bé
Times
đụng
thoảng
Sai
tê
Nhưỡng
sụp
Cựu
thầm
sương
ngoan
##bum
rộn
MTTQ
BA
Binomo
BN
đằng
túng
Petro
Đàn
Hol
Liêu
kề
thắn
Online
bắp
##abe
Giáp
##QH
thấu
Ko
##een
blo
phiến
Bây
CO
khe
nến
Jack
hoành
Daily
##́C
PCCC
##per
kiệt
bar
TCT
##elona
nồi
Bàn
Arab
##ide
đắn
##ka
130
Bảy
##Ệ
##CP
Van
đống
trễ
Twitter
Sacom
##ime
dạo
bách
AN
KCN
Oanh
Cố
Mười
Băng
Trạm
chôn
Chân
##urg
Tờ
suối
Cương
Chúc
Cung
Khởi
Li
##ane
rể
Môn
Quả
sạc
bấm
Cư
##ext
##eth
giang
Pak
##vent
hiền
##ụn
##ler
mắm
Muốn
giàn
Thân
GT
Premier
ngọc
chuộng
lắc
Tác
hái
sướng
Mở
IV
chép
##QG
##olf
##ear
Barcelona
Bảng
ốm
nã
Năng
ngự
##ith
đéo
chuối
##ghan
1990
##ịt
##bia
##bert
Mor
cắn
cua
SC
ngâm
180
IM
##UYÊ
Cửu
Thần
vóc
Diệu
Mẫu
##ner
2030
Khang
##xy
BM
##cc
Chất
rắc
am
chè
Trì
Val
##bot
ôn
ghen
Black
Lib
NT
quãng
Phóng
Cây
Bách
Zing
kĩ
sc
ngô
gũi
HIV
##sa
showbiz
LHQ
sét
##indow
khoai
Nhã
khuy
##ghanistan
loa
Thầy
ào
chanh
súc
##wn
cởi
gác
email
VĐV
cong
Vịnh
nhì
Bus
Yêu
ao
Đống
khoăn
côn
Trưng
mộng
lùng
Phim
đuối
TTg
Tre
soi
BT
Miss
rẽ
##ari
nghiêng
Sẽ
buông
xơ
đúc
Ả
##alo
ráp
Bán
Sacombank
xí
rung
hận
tần
xá
lặp
AD
tựa
Vic
ngưng
Vùng
Viễn
hố
##AS
Sal
ớt
HP
xà
Sân
mười
lặn
cốc
AM
Ăn
Lại
Afghanistan
##ake
thịnh
xưng
sex
má
Chr
dải
cồn
Tới
##press
gục
mèo
Khoản
thấm
đạm
Quế
CĐV
Đôi
tùng
Quán
dồi
UA
##eh
UN
Phố
dừa
Khải
băn
Uyên
Đang
xích
dẹp
Lượng
##́N
Saudi
##nd
##edia
SARS
dại
vs
hạm
xôn
##erry
rạp
Wal
cọc
ham
##tein
Trạch
Ham
Vinam
Tuyến
##pa
Quyên
siết
##ura
##fe
Ứng
thớt
##rl
chư
Ass
lội
cuồng
CNTT
chật
##lu
net
Nguyệt
NV
2001
Xanh
tuyết
AS
nứt
đoan
Ngược
##mer
kíp
rỉ
Pakistan
li
vành
##CO
tụi
CoV
##AM
##ure
TMC
rao
Lời
##Th
##ger
facebook
##ót
Tp
Niên
Loại
Biết
vịt
bàng
lưỡi
ă
ghét
Cán
Bao
Fran
##awei
bộc
APEC
##oney
##ford
You
Vẫn
##ption
Phút
TW
##ca
luân
HTX
Nạn
nôn
DNNN
##chester
MI
Dược
phơi
SV
Je
gas
Áo
Khanh
album
Geo
kép
Diễm
Get
Si
SHB
bo
cúp
Vo
TMCP
Fr
mòn
##Net
Trời
vứt
Tot
lướt
TPP
##indows
##ance
Bóng
Xiao
tour
Tum
##ẻo
hước
Angel
Wall
cl
from
Mường
rồng
##SD
up
nhặt
Lục
lát
Plus
Vạn
Kiệt
Ford
tụt
Bloom
##̀N
bẫy
DA
láng
##etro
NHTM
vã
Dùng
ranh
##ational
Tay
2022
chéo
##́o
Fer
tớ
160
nhường
##ings
mía
##iel
##́T
Vinamilk
##ream
hạch
##ates
Huawei
hoạn
##wood
2002
Id
tống
Vốn
tỏi
Mô
kẹo
Clip
##sp
thèm
Gre
Bức
##azon
nhát
Manchester
đè
Cha
Dòng
Hán
Trúc
##yl
Huân
đắng
hòn
Giai
##ribank
hao
lui
chui
Clin
Gold
Mot
##ovic
AI
ANT
##ny
Will
1000
na
##ews
vân
covid
##iforn
Sent
trăng
car
##td
ngất
mồi
vạch
##ifornia
khiếp
FI
thạch
QU
##by
Khả
mụn
se
chay
rộ
##TCK
quát
##cm
##uela
vặt
Biden
thủng
ngài
Agribank
Liệu
XIII
vớt
gu
Inf
Vlad
NQ
tặc
đếm
140
##ena
Bloomberg
re
##uz
Del
son
Windows
##arao
Gen
War
##̃m
xót
yo
Bayern
Go
##ins
##gan
We
##zer
Miền
##ezuela
khốc
##pand
##ha
bong
Diệp
##iga
##ala
Tám
Bi
Cậu
##que
ĐTCK
Đời
nghênh
Gò
MS
giọt
Trấn
##aco
dãy
##anc
bồ
lột
vĩnh
HCV
California
bấy
125
Venezuela
nghịch
tre
ATM
Milan
##ali
1992
Michael
##nham
Mộc
Merc
cor
Amazon
Thức
CPI
mùng
##atar
Clinton
TCTD
sếp
Tạ
Mus
##OA
âu
kẽ
thềm
##ũa
##ock
Pan
MTV
FB
Big
Nu
AFF
rớt
ax
##ova
Getty
tui
Vòng
Giáng
rệt
##eland
LG
##ớc
Bill
##ward
##shi
Or
sen
Grab
bóp
Đảo
thiêu
##ặm
Mat
VietinBank
lau
##ti
##dr
eo
##IM
Đọc
##PA
XI
1995
lộc
léo
Đồ
CNN
Hân
Click
họng
Tạo
ghé
Libya
1999
táng
Italia
Vina
vuông
##ania
Khương
##onet
nhọn
Ir
##andal
Ta
##ji
##tenham
cám
Tel
thiêng
Xét
Seoul
Nơi
##araoke
Sw
Bro
Sup
##ase
Ram
Xiaomi
##urn
##eting
450
Dư
tước
bồn
##ect
James
##hu
tạng
xôi
##int
FC
##iano
Tinh
##ealand
mod
nguyễn
ODA
đạc
dạn
vịnh
##imir
VKSND
Post
Exim
rad
ANTĐ
ST
qui
xen
giềng
##enc
xăm
Sol
khiêm
bóc
Ki
Res
khoang
##ors
bùn
##atch
Biểu
ồ
tám
viếng
IMF
Nguy
Chế
van
##its
Star
log
mộc
Tottenham
Mông
buồng
Âm
##use
SL
dỗ
iPad
tam
tị
##car
##lob
Red
ngỡ
Sport
ATGT
Hỗ
Vật
vượng
nghiệt
Ros
##edes
éo
ĐBQH
Buổi
cp
Lãi
nương
Lĩnh
bứt
Forex
##illa
chìa
##BS
1975
Cặp
##IN
Vladimir
gầm
1997
##RE
##SCL
điền
cò
Vượng
dép
oxy
South
TƯ
Eximbank
ngặt
Pa
Lăng
FLC
Luân
khử
VNPT
Bầu
kỉ
ser
PVN
VAMC
Zealand
lót
##eing
Tom
Mong
##̣C
Thánh
giếng
Inst
Tạp
dào
nốt
##uis
gen
Ga
Hàm
Khí
xì
##any
##ON
##okia
Giữa
khiêu
##ưỡi
ĐBSCL
le
neo
khía
Note
vú
đôn
VGP
FED
on
1993
Buôn
đấm
pl
108
MW
tò
ngần
Av
Tri
nén
chiết
XK
bl
liv
xấp
Victor
tạ
đũa
Tal
Vua
thám
expand
my
LĐLĐ
robot
đệm
##aba
út
Kar
Chồng
nọ
nhục
##BP
đinh
còi
Xử
hcm
bôi
kệ
##akh
West
Land
Shi
##eshow
##uck
nô
##Nam
ráo
Hoặc
xẻ
Sil
Paul
##ga
CATP
karaoke
##abeco
##iger
CM
1998
Giảm
DO
##top
xát
Rõ
khuất
Nokia
Mê
One
EUR
giặt
Net
##gh
##ventus
##HS
##oto
##ổng
Táo
lách
1994
VCB
đính
115
bưu
chậu
##ps
##ƯT
Ke
tú
##̀NH
##utube
trăn
cành
Xác
Lộ
Fin
Ít
##HO
Guard
Lấy
##̀I
Phù
##bin
nàn
##ts
mập
nan
nâu
dặn
hét
đặn
##ja
hoán
nhiếp
##li
Thất
Nâng
ghê
##imex
MH
Boeing
##ann
##ẻm
PM
app
Hen
Nhằm
said
điêu
Tứ
Gh
Tai
Her
tưới
Juventus
##burg
dưng
rò
Tức
Nhạc
PSG
Bol
lốp
##ower
mác
Từng
Hill
##iam
Serg
hốt
Khuê
TNG
Chuyển
quầy
##way
cưng
Robert
##PP
1996
ni
1991
Grand
IQ
##ÔNG
girl
##bai
mâm
DL
Thẩm
ạt
phím
Độc
khao
##we
##yan
##agram
vl
##aza
NSƯT
Im
FA
cược
Thích
SSI
Ri
Cháu
kè
ET
CAND
Jose
Uber
thâu
GĐ
Hiểu
nhức
Mercedes
Núi
Giống
##exit
170
tơ
Bel
##ium
##phu
NSNN
Barack
BĐBP
lam
vấp
BBC
thỉnh
cẩu
##ụa
##zo
chọc
Holly
gấu
Nov
Arabia
bươ
Ever
thối
1982
vác
quyên
Vệ
NSND
Trực
mỉ
##kok
MP
Than
bưởi
##undai
105
BMW
Sách
bitcoin
nhôm
óc
ậ
vơ
##MA
WHO
Bưu
trơn
Khó
êm
Cổng
lọ
test
te
Tranh
##zy
Khám
Chuẩn
xám
##nik
quạt
Hung
Brexit
mông
thắp
Đưa
##port
sườn
Chứ
dai
Da
192
báu
chuông
VietNam
Ghi
quyển
axit
mịn
văng
##my
hãm
Tùy
1980
##bon
220
rổ
IPO
mươi
Tuyển
NGUYÊ
Jones
ván
mồm
Ước
Trâm
khan
chuồng
mo
ad
Km
Hào
phẳng
Christ
Comp
Mun
mark
KS
##ƯƠNG
Vườn
chen
Ku
Ge
##za
Mod
##cean
193
YouT
FIFA
Đổi
190
tát
chén
##uss
xuôi
Tưởng
##he
Sống
UBCK
Bangkok
Rich
Đá
Trình
lụy
rốt
méo
WTO
Jenn
Thằng
né
ngẫu
Qatar
VNM
Hyundai
##ire
Shin
nắp
Glob
##aka
đèo
Sony
Đoạn
Thỏa
Mời
đùi
##ima
hẻm
WB
##ragon
hoi
##TE
phô
thìa
rơ
chiên
Mạch
Mail
xoáy
Bal
Làng
UAE
hé
Khuyến
nhược
Po
Đắc
Str
GMT
scandal
TK
Đỏ
cháo
ướt
Palest
lung
Roy
Quỷ
Áp
Ocean
nga
##ame
Khôi
##che
đun
nuốt
xào
Kur
Max
Đằng
hưng
cớ
golf
Thì
thửa
Ân
##ven
BC
##ăk
LS
TC
đắm
ĐA
khuya
Khác
VC
##iev
Super
lánh
Gar
râu
CR
ập
Saigon
cỗ
##ốm
ngỏ
TM
corona
chốn
Option
đốn
China
Góc
##ony
radar
bún
Pep
nòng
nạ
750
khốn
##ella
TD
Me
trệ
rong
Palestine
##IS
mài
tràng
he
đan
##SCO
Ký
choáng
Instagram
Điệp
Ngư
##ua
YouTube
trán
Hollywood
cấy
me
Trở
##eta
SU
TNGT
mìn
răn
luộc
##̃N
##ếm
xoắn
Ha
xoa
##uki
thê
Fl
tem
Chinhphu
Charl
##ere
ml
Lò
VnE
Cúp
1988
protein
Sn
nuối
diệu
##ris
1989
Mel
Rồng
Củ
đục
Flor
Kia
Bốn
gạt
nấy
phì
tẩu
##aya
Màn
Abe
gậy
bạ
gai
xổ
##ida
Sim
nản
Amer
##uel
##aptop
rách
sim
mau
##chain
quật
##act
TX
gieo
TG
VietNamNet
##ife
##eymar
Vol
mắng
Capital
##ss
lén
BL
TNO
Young
##osh
Techcombank
tia
sưng
seo
Chuyến
Dis
Hi
##bi
Chúa
visa
bẩy
William
Chọn
All
##bes
101
360
chèo
Nik
nghẽn
##iF
Hảo
Mậu
cày
giơ
##50
Tra
Nghiêm
mar
CV
Phổ
Nay
iOS
mạ
Global
##national
##aha
##py
##els
bạt
##ờn
Tông
quỵ
Phụng
Jun
Han
Cú
Neymar
Lat
rùa
##enko
Đứng
Nhuận
Chấn
RE
Sky
Canh
Pat
ủ
shop
dang
Vài
nhái
lư
Kẻ
gõ
Dĩ
Web
Brun
##vest
cọ
Vĩ
xướng
mini
nể
sỏi
##ckchain
##TN
ầm
TĐ
chiêm
Pe
tivi
bỉ
nhộn
via
Maz
##mo
tấp
Mạng
gừng
at
ủi
bin
Đam
ac
Tiết
ngoạn
oz
Asia
Bãi
##itt
##uts
sâm
Los
EV
##ert
##erson
vãi
GIA
ngươi
Lân
XV
NTM
Buff
Trụ
##ÂN
Med
set
##iet
rẫy
usd
Món
Sabeco
mít
quỷ
hổng
Forbes
str
ngậm
lanh
Lang
##ker
Tướng
Ngữ
##ander
##ustin
lộng
xay
##ole
##lus
bới
Jord
Dr
rước
nhiễu
1986
Hạt
SLNA
##air
SCIC
bệ
Sm
bực
sành
oC
Trân
##FTA
Mùi
phở
Cro
##DL
nguội
Giọng
LA
Tố
Vinac
Hường
TU
be
Mang
xắn
##ibaba
HOA
lẫy
dẻo
##du
Oscar
rập
hero
giò
Sir
Benz
International
ok
##iness
Aud
650
##isa
Bánh
BR
##óp
102
##ider
Nad
nộ
##̣i
khoanh
##ishi
Joe
rụng
Ngũ
Meg
tấu
Pu
##ashin
gặt
khoái
quấy
ướp
Tốt
##jet
run
Càng
##si
tản
rót
##ave
##stan
rảnh
##HC
ngàng
320
Cải
128
Đẩy
Gặp
##ign
FTA
nhậm
NDT
Lầu
lữ
Dong
SB
Thôi
Hot
##Ch
vách
lún
gầy
##ence
thạc
##do
Tuân
vòi
##vel
##utnik
##EF
##letico
##enger
##bor
##reet
Tý
##yn
tăm
dè
Chùa
kW
##NV
Nav
##Ị
Rooney
HQ
Trải
Bern
##fi
ế
suýt
triết
TPO
##zone
xé
bén
##our
Assad
chững
Lên
Đợt
res
550
kìm
240
bú
Vô
Colom
##rge
##FC
Alibaba
Lữ
Liga
rễ
Carl
Tor
##ila
sấu
lờ
Op
##cel
muôn
Jer
hack
##ival
Atletico
1987
rạch
XIV
Ger
heroin
khỉ
dì
Asian
##ET
##emen
Nền
Dan
Nghiệp
Suốt
Lô
Ái
trader
##EM
Ưu
bênh
Chan
##ange
Sec
Thom
blog
##ons
chì
chót
VIC
bã
##VC
Tràng
Kiev
##PS
Lớn
rụi
Đóng
##CD
sọ
thòi
Ji
##ki
lụa
is
191
ETF
##ski
Intel
Sputnik
Dani
coin
chọi
Bor
##osa
##VO
toa
King
Dam
Lâu
##gi
ngửa
xịt
sp
ki
shi
laptop
Infonet
Dow
sừng
Nhớ
##hy
NLĐO
##asc
Ne
Chữ
start
##ixel
gốm
Doãn
rô
phen
Côn
keo
##DS
ngây
Don
Hợi
chưng
##nes
##aki
Cat
Nằm
##Co
Nhiệm
Martin
PN
Nợ
Màu
AC
##ille
next
Old
Mazda
hăng
trêu
nhịn
Nat
##ks
off
then
Jordan
##ield
Yam
nhã
##res
muỗi
##bus
##agen
cty
Lũ
##kh
tạt
Quách
Vấp
bìa
Chàng
113
Mưa
Mây
giằng
Ngọ
Đậu
viet
Dinh
135
George
cuộn
##vo
Thưa
hít
vùi
Vinashin
Pha
Vietinbank
kiêng
Bát
phẫn
GAS
##ita
diễu
vỗ
thản
##TTP
Harry
Chăm
##AP
370
Johnson
Cúc
Won
Giết
Sắp
1985
##ớm
##aser
uốn
NGUYỄN
rỗi
Sar
tốp
Moham
RAM
Ur
bịt
##mail
103
Hòn
Mối
phao
##01
sexy
##aku
vắt
rầm
cối
##esel
CQ
Đền
##ago
Munich
##ages
Angela
rã
GM
Colombia
Fi
SD
##ader
##anda
PHA
##rm
Utd
Frank
gộp
náo
Thú
Bỏ
Đáp
Victoria
Tan
##ster
SP
##imes
##ading
bẩm
##kel
##BA
##KD
VNĐ
sòng
##elle
bẻ
sờ
Vai
##ding
by
##raph
##́NG
Franc
rưỡi
vét
##bs
##istics
VII
giã
##ER
lũng
Tịnh
LED
Ru
Louis
Nas
liveshow
Green
Maria
úng
##limex
Home
dê
mí
nần
Phấn
nức
đao
Sl
CU
sô
Tur
Lim
cào
ngứa
Ireland
Chiểu
giòn
Diện
Youtube
Moon
##ree
bừng
Ver
Mur
đả
Pol
##pto
Mr
Miura
Crime
Wil
##̉N
##iFone
Vang
háo
Vietjet
MobiFone
len
lười
Ah
Lau
##uồi
Bos
##ươm
##SP
en
Cầm
Uống
##eda
mốt
xoài
##ppo
##IỆ
nhuộm
thon
Dần
UPC
Đen
##ement
##uto
Mẫn
Ving
##les
Móng
1970
nóc
Sắc
Tầm
ri
##fford
Nic
op
##ets
khiếm
KL
bik
lẩn
Thới
cc
##sey
HU
UNE
voz
##orm
đẫm
Thắm
Petrolimex
Hoan
##ủi
1945
chảo
##KH
Chile
Up
Lad
using
Cas
sởi
##aro
##van
Hỏi
112
đò
mg
ngán
Ib
Hold
##ahoo
chánh
bọt
##ato
Vingroup
ưng
nhọc
tro
##Tr
Crimea
Whi
Lão
Cử
Beck
Chống
Dj
nhàn
Tuệ
##IDS
Form
Idol
##issan
kèo
yến
logo
SUV
##cy
##rypto
##ator
Thuột
búa
Oai
##tin
dấy
##conom
HNM
Chín
Đăk
Bọn
##arm
##ym
Kính
xáo
CK
Thiêm
Bàng
phà
Rập
Thịt
##unt
BG
Đấu
Sàn
NK
Út
##99
kWh
Mạc
nhồi
##ele
Fox
##́I
Ea
Bas
Nỗi
##̉I
##MB
##gar
thạo
107
##EA
1979
Đám
fl
##ific
1984
##ody
nang
104
Teh
lều
Hỏa
##xpress
##itch
OP
Tuyền
sầu
kìa
LHP
ĐHCĐ
Luận
USS
pr
hán
UNESCO
##kin
VHTT
gót
Bur
ngạt
230
##omp
cưa
Blu
Ol
Ple
ách
giặc
106
xít
##íu
mic
Motor
Xo
Jan
PVC
NX
Hano
IT
Mek
VT
quất
ve
chích
go
đôla
Kurd
nạo
##exus
thục
hit
##estival
Quất
miệt
lầu
Mosk
cúi
hức
khắt
marketing
##wa
AIDS
Đặt
chợt
Binh
##cl
Peter
Tang
búp
##VOZ
##awa
##rey
Tống
123
Mike
nextVOZ
liêng
trù
Tag
ứ
mãnh
##ado
link
mỳ
Trafford
##gg
đàng
Mag
gò
thặng
Yemen
##onex
Xá
PPP
nghẹn
##oM
vờ
Niềm
Huấn
Khảo
Đôn
VPBank
##aut
Sữa
##oli
##edan
##alk
Gates
##assage
blue
Thử
Trưa
Cánh
canxi
chớp
##QL
khỏa
Hết
Phản
ảm
##su
##be
MINH
Nhập
##ene
##ernand
Giả
Ken
mương
##ện
##emo
##ầng
##ush
Liễu
giáng
##ory
Crist
Mir
##xin
Dựa
Gl
##rah
Tốc
##iana
Zh
Pháo
##ador
giục
Ac
##EP
Tehran
Power
hông
bus
nhủ
Hel
Chào
xảo
Ranh
##Í
nhăn
##ST
Trách
yen
sấy
Kênh
Masan
CHDC
phàn
Thuốc
Bông
##Ộ
tà
Ins
##CCI
##ifer
phác
##esla
111
Vinal
Hè
xê
Sand
Smart
##tis
giông
116
VnExpress
phật
##ling
##ivers
thỏ
diesel
UPCoM
Model
Show
Nadal
Abd
nick
141
##pper
out
Tex
tạc
##ổn
cẩm
teen
Lav
On
lúng
Lot
Niger
Rạng
AR
Tuất
Angeles
Invest
ngoặt
Vit
đái
Play
Cent
côi
té
##rov
rạn
HPG
Steve
Moskva
Đệ
bikini
##EN
sắn
Anton
SX
gr
Trại
trade
1983
Xương
Lệnh
Jae
Suz
##ika
sào
##sta
ngả
thề
MSN
Mobile
đơ
Eng
RT
THU
gân
TBKT
Mits
Uông
##ury
##lay
##gen
Business
##mit
210
miên
DV
##arez
AB
SGK
##reak
##star
vá
Lái
ngơ
##SS
Suối
Hyun
Corp
quỳ
##uay
Sửu
##BĐ
Mah
Láng
##iban
Rẫy
gật
Fan
thốn
Pac
Liệt
##ction
##brid
Đấy
dạt
Tích
kiếp
sài
Séc
Die
Ka
TIÊ
check
khinh
ADB
109
ĐK
trói
Sev
mươ
thính
##RC
##INH
Truy
Pog
khang
hệt
##ken
##mund
nhốt
Yang
##isco
Mất
TBKTSG
VCK
Mekong
Street
OPEC
##ẽo
Biz
##ily
##fl
##cu
Next
##kaku
Phường
CC
ID
Te
##kov
Ngài
nhét
##ral
nón
cafe
##OM
Quần
260
forex
trèo
Es
Haw
QLTT
chùm
Audi
280
ẩu
1972
AFC
lừng
thà
dặm
##TPP
CHDCND
toan
Vinalines
Merkel
Len
Metro
nguyệt
Festival
Az
Ok
GDVN
Ung
lay
Thai
##min
Fab
Pin
270
xịn
##̣I
Ele
quấn
PR
114
Dậu
Nm
##col
BCH
Tội
225
Wat
VÀ
126
lì
Vinaconex
Tesla
Sel
##orth
Berlin
mượt
CTV
hấu
CPTPP
##ise
Phối
miêu
Noel
##news
vôi
lượn
nhuyễn
VCCI
##oster
muỗng
massage
stress
kha
quặng
Jul
Dẫu
Richard
Tạm
post
1960
HDBank
117
Thomas
rock
xíu
Kạn
Kit
Bè
Ferr
##tan
Feder
CQĐT
##fa
viền
ngắt
QUA
Giữ
Nổi
Gương
Phí
Pogba
##ye
NXB
Hạn
Đảm
##tt
Thìn
Cực
Che
Andre
ind
bừa
##ami
Jin
like
rang
chol
Đương
Hóc
hóc
ghe
thoa
Tế
HTC
##AT
Thoa
##wer
Krông
##dinh
logistics
##arus
USB
175
Dom
Hungary
ngục
NTK
##iku
Shar
Formosa
Tóc
##ican
Tấm
Dạ
Taliban
Thao
ruồi
ngụy
Vui
IC
Suzuki
Win
##GC
liễu
tễ
lóc
##adi
Rau
Lãng
##oot
##ardo
##ogan
Nghề
Hillary
Nhàn
GV
Lớp
##iola
thốt
Nghĩ
je
Luyện
nhóc
Nob
vàn
Jennifer
vạ
cúc
TRA
##Ng
bô
Texas
##row
Cứu
mủ
startup
AV
Jung
Biến
Vỹ
Wenger
Trãi
Xa
##men
Thạc
miện
chuộc
PA
ECB
Hun
##amb
Lin
850
file
kẹp
két
EC
bung
Cụm
vãn
EVFTA
Nigeria
Lá
1976
trổ
##ONG
Taylor
Bê
kV
KSND
##ross
Cháy
Jeff
Vượt
trặc
chèn
tụy
model
Images
kỵ
121
sẹo
Blue
Khán
vụn
trơ
Ash
Hari
RON
Kiểu
ANTT
##olog
nè
Diên
Tiệp
Kịch
ben
##ÌNH
Hứa
1981
1973
lựu
váng
##box
Vẻ
IB
##ucker
Buffett
##ason
##ifi
Kaz
Marc
Nhì
Bữa
TL
loãng
JP
đúp
STB
Email
Dấu
ấu
Nap
Tao
Khóa
Sud
Master
cr
##ườm
Eth
kiêu
Dao
##inger
##esterol
nêm
Bale
Cơn
##ềnh
sam
Des
##ition
room
##gin
Justin
##EX
vun
##uri
Florida
ar
##atia
##over
khoát
Daniel
Bão
##lott
Bag
155
Fort
Phục
or
##br
Chăn
si
Belarus
Cristiano
Vietnamnet
Rodr
Thép
HH
##IT
Thưởng
##icester
gội
##ubishi
##ilon
cụt
Eurozone
HSBC
Dubai
Sanch
ww
SGGP
team
Tái
Nissan
##ont
##ds
Đỉnh
ngóng
full
##Viet
bọ
Hye
Gói
GTGT
Harv
##okovic
CD
Mid
Sương
Sơ
##tra
chà
FBI
Dort
Costa
lùm
sưa
Kat
CPH
Quyến
úp
Plaza
ốp
188
vâng
ỏi
Guardiola
204
##ift
Dortmund
##field
lầy
CIA
1968
Ank
Lion
trút
quí
thuở
ổng
ANH
Sin
card
ray
Sub
phôi
##OC
ATTP
McC
##lv
tỉa
mẹo
##NK
Sum
Cạnh
##WS
Yahoo
118
Leicester
Nhị
Zucker
##ema
##11
HÔ
Chốt
AA
GH
Pleiku
gáy
Matt
Cy
cmn
127
VPF
Tần
ICT
Ngồi
ub
vozer
Gây
Khiêm
##ati
Ali
Bia
##ệch
122
Bul
Suarez
loét
Gaal
Sav
##page
new
Rạch
330
Port
Dẫn
Ap
##ếch
chạp
##tic
Thúc
##imb
Nàng
Nhắc
Giêng
Dragon
quẩn
cholesterol
950
gàng
Giàu
suôn
##den
CMND
Zuckerberg
Jav
cat
Sung
Voice
##ric
Rodrig
Nor
you
phiêu
ngó
www
Thiệu
##daq
##eller
Djokovic
chải
Thục
chốc
HK
Rang
Som
##edit
Brad
##atin
Giadinh
nghiền
Ankara
Lạm
Nick
Vietlott
it
1974
PNJ
bồng
##DP
gập
gang
VIB
Phả
Yamaha
##CoV
##jan
Chư
Gra
##IÊN
Chạy
THANH
##ever
GPMB
Rob
##ealth
Kha
Ni
nành
Tỉ
1978
Tóm
##eron
Everton
##ugh
##ical
TGĐ
##urt
189
nCoV
Dường
##orning
Ngã
biếu
sủa
##̀U
bèo
Bờ
lửng
Bit
Đẹp
Cấm
Mitsubishi
##rop
##ys
rơm
124
dầm
TO
132
NASA
Enter
rồ
##wan
##aga
Tuyệt
Giảng
Tràm
nhào
thắm
##ux
Nasdaq
203
Bính
ngòi
ôi
sal
Sóng
vuốt
VIP
##ning
##ito
Rock
Shang
DP
##IP
Steph
##ves
crypto
tẩm
uất
##app
blockchain
##elli
##lan
##med
Eb
##uc
##ES
Đau
chập
Ts
nhích
##EL
ngấm
vẫy
phồng
mải
Hal
calo
##ovo
Tour
Trans
Tượng
Thụ
Xăng
Erd
Media
Nhiên
America
##mad
##iff
Diego
horm
VIỆ
##cast
Pacific
##dney
Roll
##XD
ubnd
series
Vành
Niê
xỉu
Alexander
##enter
đoái
Lux
trọt
Award
rãnh
quế
Snap
ngùi
Lựa
Pi
Krem
nếm
Bom
KHA
##nhap
145
Tránh
##kei
##UNG
Ren
Wi
##ways
Guardian
##king
ĐTQG
vung
Croatia
nhổ
##CL
Duẩn
xùm
Jet
Gà
diều
##eva
Gard
##õm
##mann
Cờ
##20
Xung
Hưởng
Wh
##dam
Fernand
##RA
nạt
tít
##FI
Dịp
dằn
##ascus
giỏ
TIN
KTĐT
##ome
tua
thă
144
Bush
nhai
DJ
##earch
Musk
##aby
BB
toát
Mũi
dr
##day
rán
Art
Mắt
Ukraina
sưởi
ngươ
Airbus
##itz
nhấp
VNA
chảnh
Trầm
##IVE
Chris
NHA
Far
Inc
mớ
Damascus
Toản
Kal
##ius
Sầm
Yu
xước
Ev
Vay
Lexus
võng
Link
Bổ
SIM
cồng
Cit
Thẻ
Vill
bai
##sin
134
Jim
##arta
##encia
Erdogan
Stand
Cự
nghẹt
TÂ
##hai
165
Tỵ
981
##pop
##iki
ếch
##zi
cõi
Lar
Qa
Gad
##tech
Peru
đố
Por
Dàn
Cast
Kel
HoSE
##urnal
comp
Yonhap
##Media
Tru
khiết
Stan
mỉm
Đầm
119
##IL
##rick
Andr
##obile
Jam
Mão
cent
VD
VAT
##hr
lon
1977
Face
Scot
##ette
Shinzo
CI
nhàm
Diễu
hoay
Vọng
##hd
tưng
HOÀNG
Brunei
pho
xua
Sydney
Warren
băm
pol
##ora
Rap
Leon
nilon
trĩ
##lov
##Ế
Roma
mép
Kremlin
##tyle
Cuốn
tủi
trau
Qaeda
day
##ctr
Sina
##úa
trend
365
cas
Triết
Jak
##aint
##ild
Dem
##sky
ASIA
sỡ
nb
cội
Xúc
##osite
Chơi
Pay
1954
BizL
##TS
đậy
carbon
Ferrari
EURO
hen
Federer
Holdings
xui
Villa
Ye
##88
##ved
Cook
##PG
##̉A
##66
NAM
Nikkei
bầm
Ul
Quỳ
##̆N
Wang
##ega
quýt
sel
##her
Jean
Luis
múi
##ou
Đế
##oi
trading
##oshi
Manila
Yong
Luôn
XX
thung
##DR
Kid
PLO
Gươm
Cang
Jol
Thơm
xuồng
##borgh
Trợ
khét
Mãi
Jon
nập
điếu
380
VnMedia
Mb
Ngà
##borghini
quây
256
185
##ather
CTG
tuột
##rahim
níu
##OO
BP
Tower
Lừa
Redmi
bầy
##able
Hộ
##icon
##oy
##gr
mẫn
ươm
BQL
##ẦN
chat
Ia
Miếu
Brent
1969
Pomp
Adam
Nậm
hacker
tẻ
##ms
##10
BizLIVE
pen
Cống
Đốc
Soo
Cốc
##terte
QC
ngao
DC
BVH
mứt
lol
Men
phông
trót
Suy
ae
Aleppo
Chức
##iew
Ry
Resort
Beckham
Phái
Mơ
Rad
Lamborghini
Xí
rỗng
IN
##ures
nbsp
##dd
cabin
##LA
##af
##olas
view
Hổ
dứa
đực
chát
Xê
By
Vincom
##iat
##uez
Nep
cạo
khoẻ
##ĐTB
găng
win
riết
gram
Nho
##ait
Đoan
Life
xộn
gào
sedan
Off
củi
Day
xốp
340
Trò
comment
##oid
khuấy
Silva
Brid
ngốc
Cad
Thy
PCT
thêu
Ltd
Sergei
nung
Chang
thiền
mẩn
nhung
khăng
năn
Macron
##ison
##omes
Serie
Valent
hê
##zz
vớ
Mật
KB
trá
DH
code
##odo
##vin
Sanchez
Sợ
Chờ
RO
Gạo
##ool
Ê
##Phone
Tak
sỉ
##ori
Dệt
át
liêm
won
Georg
138
Nobel
chằng
Il
Duterte
ĐHĐ
Standard
điềm
Journal
Open
CF
Gea
nhang
##ooth
Khmer
2023
Rio
VU
ASIAD
loay
Khoáng
hoà
chướng
UE
1971
Lew
Ibrahim
mail
Ter
Fir
##bar
Mầm
vòm
Cù
Eco
Catal
##íp
lẩu
der
nhả
Ferg
129
Căng
Kang
##ABank
cuốc
Kan
Sâm
##ery
##ui
AU
##ound
##Berry
##lib
GI
margin
Scotland
Virg
Gái
trũng
play
##ibo
ngách
live
ngà
Dream
hlv
720
##bek
TTHC
##cur
##12
nude
Wales
Biệt
UAV
Sant
MiG
xiếc
Nhan
cấn
XNK
##OL
vỏn
Charles
Marketing
Pompeo
##́P
Lotte
BlackBerry
Tags
VIỆT
480
Chev
##idane
##aps
##̣NG
micro
phụng
AG
##ats
pop
Ic
1967
570
1950
Haz
ah
dăm
Lũy
136
vin
##ợm
Morning
Disney
Ret
ren
Jackson
Jess
laser
Giàng
##uson
THX
##ser
##udio
CỦA
131
186
Hới
Camera
Idlib
trướng
vũng
trỗi
Hap
Ngôn
Royce
##DĐ
##uguay
##utsal
##uỗi
##ladesh
ngừ
đọ
nơ
gym
kẽm
Tào
##orsche
##achi
##aster
BTS
133
ngẫm
She
br
Jolie
##evin
Leo
##lex
héc
##oss
Rub
##ci
CNBC
##ni
Jobs
Alph
UBCKNN
ừ
Bruss
##GA
Smith
Giây
nặc
Dmit
##comm
Gener
Uruguay
##rency
chao
jo
min
Teleg
Hit
Harvard
Raf
##Cap
Zidane
Type
Bir
tab
Valencia
CX
##ray
##work
Luc
Sund
del
Mày
Ryan
rình
Đâu
##load
om
##ƯỜNG
Airways
##book
Đê
QĐND
##dy
Bangladesh
À
xiết
Khung
Bửu
##JI
Phone
##mark
Qual
##view
nhằn
Hạm
##ware
Thâm
Jakarta
chệch
Trùng
hèn
##eman
Mont
LÊ
cộ
Chic
Hắn
Lionel
Gang
with
290
137
Acc
##ĐK
bro
GDĐT
##ashion
môtô
niệu
gắm
VNCB
que
Pop
##esl
ADN
Ferguson
cốp
Chiêu
##ret
Ak
ĐÂ
Lavrov
##tn
Pers
FT
IA
Corona
CII
High
Porsche
TPBank
hất
Kerry
ĐTVN
AK
DT
Lư
Tòng
Fal
##igu
Laz
Ebola
TDTT
han
Pen
chói
dí
##kip
Nou
Cướp
găm
tuông
##ển
##ancial
Delhi
Ngu
##ecom
##onia
ngời
##real
##ject
420
Carol
VPCP
Nepal
PS
Thoại
142
Họa
Rolls
Garden
Shop
Uz
##Theo
##cept
Nà
Game
152
Pre
Cel
Agu
FO
187
##iter
NGH
VĂN
##dafi
cuống
Lã
HV
lùn
Electr
bùi
hiên
Class
Nụ
goo
Rai
Brit
Brussels
break
dong
ĐHĐCĐ
##din
rốn
resort
Coin
##ennis
139
VEC
nhâ
BXH
DS
Lượt
KP
OceanBank
Saint
Kevin
##reg
Kl
Phá
##bl
thừng
Tà
Way
đt
Gaza
TI
múc
##oga
1965
Mik
TPCP
Europa
Awards
von
UBTV
Khá
Las
bướu
HSG
##onetsk
Sri
Series
Chiêm
logic
tảo
hormone
##ision
khoá
ĐHQG
Hee
DU
rành
Hall
vk
##walk
##IB
GDCK
Chả
Gaddafi
##oni
CAQ
Dữ
Gab
VHTTDL
Ay
as
Fortun
TKV
Dev
Quay
##ampton
phượng
Khúc
Rượu
UEFA
##ize
khuynh
Thuật
roi
Medved
giỗ
Club
Abu
sảo
Cav
Live
LĐBĐ
bịch
##ựt
nguyền
Store
DOJI
Aston
Virgin
phớt
Bent
BCTC
146
mấu
##Nh
Love
Serbia
LĐTB
##hip
Phạt
BTV
143
##ởm
id
Bez
hắt
CÔNG
Fu
ICO
Center
##Gi
chước
Hoằng
##ryst
casino
Donetsk
Chicago
##Ph
Bat
##cơ
##led
bịa
nỉ
bướm
Ray
Lien
HCB
Dy
nhện
##fie
SK
xù
lạng
##etooth
Kate
Chen
Inn
SS
loan
##abeth
bậy
Techn
168
##RP
sặc
##BT
body
Dar
154
Dia
chài
chòi
Nắm
Time
BVSC
Medvedev
DI
mA
sil
Bon
Yan
Đu
Sur
nhúng
##shire
google
Giúp
CNVC
rùng
sảnh
Morgan
##jo
##̃NG
giở
Liv
hon
737
Full
Baghd
lươn
phết
Alger
Hát
dãi
Qualcomm
ngáo
MBB
##oke
PVD
VIII
##ology
Mill
mịt
Composite
##Post
##QS
##pot
Rủi
##akia
gồng
##ington
Hinh
##ater
Mâu
Abb
sục
REE
167
nhoáng
Nar
##aland
Fuk
liêu
Pas
Basel
##atra
##nn
Secur
Juan
##ọa
nhảm
UBKT
kn
giun
##irl
##ror
gớm
gòn
Rem
##xx
IX
##oko
##ơng
Lind
tơi
Manag
Scott
rát
White
##berto
Uzbek
bần
Xếp
ABC
Bh
Gọi
HÀ
Insider
VinaPhone
Watch
153
##EWS
Card
BLHS
##autu
vê
phai
Dig
Choi
Swift
460
Jang
National
dột
##for
##wagen
##oshenko
tuýp
Antonio
##60
cù
##stem
Leb
dẫu
Klo
chớ
vặn
Met
huyệt
cau
Kw
##RT
Sudan
Kn
##14
163
Hazard
##dragon
183
bục
Nhấn
Sửa
##ault
Nhựa
lẻo
##lic
triền
Kyo
đh
hốc
Cắt
Tae
Thaco
oán
thun
súp
fanpage
162
hòng
1964
quăng
rợn
##loud
##ỨC
catwalk
Dep
Mary
Tầng
Ath
1962
spa
##ichi
Bezos
##mun
##cher
##̉O
nhớt
xói
147
##house
Cẩn
bon
Aqu
sing
vơi
Uzbekistan
##ỌC
yếm
org
mAh
Nuôi
acid
##ze
Kazakh
Trảng
##̉NG
Music
Sor
sum
Yếu
##oody
##castle
Cong
yể
bh
Char
Blockchain
rev
##stock
Sergio
##erg
310
metro
rep
##well
youtube
Thím
ì
##kswagen
Bưởi
Mái
##thi
DOC
184
UBTVQH
NO
##̣N
178
Cám
##ness
Fe
##tv
Valentine
##tar
##òe
Eliz
##tec
chắt
òa
Francisco
tý
148
560
Nhâm
Đón
##iểng
Dmitry
reo
Fut
Gian
156
thóc
Visa
Khoảnh
cáu
GHz
sán
HCĐ
PHƯƠNG
cộm
Carlos
##pearl
Philip
##express
bùa
American
húc
Lòng
##ities
Kenn
##fer
bẹp
Ramos
##rystal
GiadinhNet
Part
option
Cur
fb
vía
##US
nẵng
Mát
gọt
Hil
171
Nguyen
tòi
##dg
Bash
yoga
Den
cup
##ereum
Góp
Univers
Golden
Financial
rưng
Thuyết
##jaer
Thiều
##ious
vãng
Suk
phốt
Kazakhstan
xỉn
ngủi
##yes
1966
##dro
lút
##pol
Henry
ốt
Woo
Om
##ple
Geneva
Bund
GL
miếu
Thỉnh
ĐÔ
vầy
Newcastle
OCB
Ox
Snapdragon
Hor
Sports
##mes
MWG
##rome
Khẩu
Cannes
Klopp
430
Lối
##bao
Kos
VS
158
Wan
Jac
##ju
HSC
Algeria
sói
cừu
Central
Lump
182
trump
Cons
iphone
Vitamin
##estream
sảng
vâ
Tận
bt
##dautu
Pap
149
down
##avi
Royal
##och
hãnh
Nỗ
##uỷ
##TI
##egas
Đạm
thẳm
##ista
Steven
dẫm
##eld
Ti
##Book
hân
Volkswagen
ngói
Trồng
##rolet
Credit
mè
Xinh
Gã
quậy
Loài
Williams
##enthu
Market
House
KDC
Gran
Mario
wifi
RA
Kuala
##viet
##anon
rượt
Dell
212
độn
##LX
IR
##hen
##read
##amine
Doji
##zen
PB
1963
157
Hoành
North
lán
Eric
hươ
mồng
nhá
Tony
Bridge
##enthuc
Kir
##win
Rừng
##esa
##athan
Ivan
##DN
KHÔNG
Tit
Va
Hanoi
##own
Vinpearl
##currency
lim
##skjaer
Gun
Thôn
Coca
KHCN
Quê
Mèo
##otti
Nửa
trọc
ngổn
NDĐT
Lỗ
main
520
mac
Thuyền
mon
đùng
Tik
RC
Binary
Lumpur
Lỗi
ram
##apan
2050
Hous
580
Down
Trừ
ĐTDĐ
EPS
Hô
Stephen
cưỡi
181
hùm
##̉M
Bak
##bach
Kháng
Khe
boy
Huynh
huỳnh
tủy
Shanghai
PVS
Angelina
Elizabeth
Tọa
Conte
fe
##̆NG
Aj
HC
nhĩ
Brown
Latinh
##date
bộn
mix
960
Béo
biê
hóng
khoắn
Truyện
##log
Telegraph
Marit
Key
Got
Auto
Chim
##conomy
vế
Làn
Benzema
##MS
nách
Dễ
390
##back
Hạng
thán
174
Thập
cover
nem
##rol
Rô
Mass
##utter
Ngạn
Cameron
khâm
cặn
USA
EX
##SPL
Lanka
Chevrolet
##ars
bói
gởi
##ations
Ngưu
176
Ôi
Ast
Nắng
##lam
Của
giấm
dấn
##CMP
Lậy
ĐSPL
440
Sach
đốm
##ươn
Light
179
Palace
##atus
Andrew
Solskjaer
389
hiê
trợn
151
XS
lép
cont
trồ
##san
##abi
##GD
Romania
##inet
Kienthuc
Lop
##ict
RSI
livestream
##tainment
##alem
Ker
mênh
##isto
LU
Robot
còng
Food
Investment
Ibrahimovic
Bob
##esta
##out
Răng
EPA
ICTnews
trc
Cỏ
Zika
##axi
nạc
nhờn
teo
cửu
nháy
Zen
hờ
Mỏ
Aguero
Bashar
Thuần
Hab
Express
##eber
xy
Mand
##ilo
Kai
nấc
ES
Jetstar
mận
##ental
Khái
CDC
SAB
Fund
PHU
HSX
Thám
##AD
##ÊN
phất
Vinhomes
Soft
Ful
ngẩn
DNNV
Ying
Hiên
form
Lum
Sap
bái
Bamb
Say
Ig
Cafe
Website
##edy
##ahu
##nis
Dĩnh
ngửi
dỏm
Hôn
##̣̂T
##GS
Panama
selfie
DNNVV
##RO
mách
Anth
##garia
bank
##22
Trav
kali
Khuất
rap
Pot
Trader
Nhanh
Opt
159
chắp
chiêng
Holland
căm
Wood
##ban
##asun
090
Mác
Trust
Tiêm
##iverse
gạ
đong
Lebanon
hòm
Ấy
##har
##ịm
đãng
##cr
Bù
nhẹn
ME
ii
##rag
205
Santa
thiều
MK
HUY
##form
Bai
viê
##zech
##alty
fence
164
CAH
CBCS
kình
sáo
177
mậu
box
Phn
##PTNT
##aii
demo
Kelly
SCMP
Đứa
sm
Bulgaria
##ICA
ổi
161
##ẤT
max
Goldman
oanh
thâ
Vâng
rậm
##owski
tanh
phách
Penn
##Times
vụng
QUAN
jeans
AVG
Persie
Torres
XL
mướn
free
trươ
nai
Ethereum
##uma
##athon
CPU
Lady
##rin
Mis
##room
##no
rằm
##asa
##cơva
khoét
Ốc
##̣NH
Gam
Nhiếp
172
nhối
Gas
giăng
Thách
Bội
muống
Iceland
##RI
bời
##irates
sầm
kén
quyện
Lenovo
Yoo
##ten
Kích
tắn
Ngắm
par
el
Trip
tấc
Noo
NL
1930
cằm
##ult
phèn
hằn
KN
chôm
##ude
af
that
Castro
Seung
##69
##yo
vụt
Les
##peria
##yd
quai
đẽ
##abeu
Fri
Camry
##ese
Elon
##xcơva
SO
Miên
Trail
Nicolas
hâ
RS
vẩn
##iago
3000
rêu
Monaco
GPLX
Ann
Jay
gỉ
Giấc
XU
##azz
Salah
bấp
Girl
chần
630
Raj
thuyên
Nhựt
sọc
##las
##red
kèn
KCNA
Ôn
1961
##girl
##uồm
Poroshenko
HNMO
##fé
KD
ATV
##oxin
##ther
999
ĐS
Vios
Kpop
Mega
CAP
trầy
1959
thét
not
##uan
Chữa
Kore
##bie
ngạo
rôn
Tháo
Ant
##TW
Lab
Fre
Viêm
Lock
Bernabeu
Toshi
##try
Gom
Sus
TÔ
cõng
biếng
##ovich
245
##fo
solo
ekip
dìm
##fia
##rent
LP
Czech
Mễ
Nhạ
lợp
sá
Cola
Maritime
tuấn
phình
Ngọn
Blog
470
2026
##rad
sạp
ntn
rê
Fil
bưng
Tem
2024
sale
Fid
##ulin
tiệt
Lạnh
Áng
##ula
##ute
540
##̣̂N
phước
Trộm
hời
PO
gượng
##cci
Bluetooth
Entertainment
##amond
VinF
this
##sterdam
##Plus
Out
IBM
Law
Best
Kam
Charlie
chan
chang
poly
Cấn
Xperia
LN
990
Lành
world
Anthony
MD
nắn
##ivia
TNCN
Dạy
vest
Trading
ship
##TD
Kas
##cent
Telecom
SVĐ
Chạp
BSR
sộ
đít
all
Cừ
XVII
Universe
##ững
Trai
Bruno
Lukaku
ten
##aux
##gl
Iv
NGỌC
ẢNH
meg
cẳng
cùi
thệ
Crystal
sà
Prin
trailer
HTV
Econom
Moody
Core
Southampton
Sevilla
Limited
Kitco
giu
KBNN
Cân
Chải
Tab
Ves
XM
giầy
Khủng
Zhang
Secret
Rodriguez
thoả
##ẾT
HĐTV
##boy
##cheon
##ble
cs
Nào
dẳng
phượt
phồn
núp
Contin
Senkaku
Mak
##sy
bả
LCD
group
Lũng
Tơ
##ior
##usalem
730
##emy
AL
Napoli
Pixel
Khổng
Lôi
##board
Bil
##luck
tỳ
VinFast
QUANG
##list
ACV
met
##ual
Him
##ollinger
mó
166
mag
##kav
##pad
Maps
review
Andy
Nag
ThS
Tui
TE
Mao
Murray
Cruis
Amsterdam
215
Stock
Tặng
##ated
FBNV
líu
Hawaii
ngút
Ther
hễ
KBC
Loạt
##vis
noi
Banking
lạy
NP
PVF
mẩu
Juve
Cười
530
##ìu
cryptocurrency
Xứ
Var
Cien
Ecu
dìu
173
Pau
Dal
CHÍ
ĐKV
Chênh
gắp
RIA
tột
5000
EIB
Anna
Azer
##esliga
bành
ins
Kem
Boris
Emirates
Rút
lào
WEF
Cle
Joong
##had
Kane
BI
Lạch
640
piano
Xong
##astic
224
##68
XD
MBS
##urs
##itar
hấn
VO
169
khay
##otel
##light
lố
Đột
Mộng
Sachs
Bò
235
TTCP
vietnam
Jerusalem
vắcxin
BSC
sò
1946
ABS
Clau
Blues
Gon
Lamp
##eu
Edward
câm
Exc
Khổ
Bột
Laden
Bahr
##13
Management
ngoãn
##aren
1958
CAO
khóm
rapper
Stam
click
gd
kềnh
GĐVN
##flix
Boston
##15
mướt
BNEWS
Japan
vcl
##70
FTSE
CSHS
##oom
##ỐC
Sứ
Cienco
Tiếc
láo
mui
490
Terry
dặt
NNPTNT
##name
##celotti
ĐV
##idi
ĐKVĐ
660
LB
túm
Leg
##ffe
râm
Ecuador
Diamond
Sát
##anyahu
nhỉnh
điê
tậu
Tả
VL
KC
Kum
Rol
Aut
des
flash
LienViet
ITA
##Capital
nhuần
tợn
ói
KIÊ
##ht
##iva
Cont
vần
Tạng
Lọc
nom
##appe
Ster
DVD
Space
mĩ
clb
##ills
THADS
Jackpot
777
Phnom
Mirror
Alan
Gỗ
McD
GCN
##Jet
Pier
tróc
lẫm
Rain
TRUNG
Vegas
bluechi
Thung
Biện
##oro
##bridge
##ru
Gala
cút
Ancelotti
Bundesliga
Ped
sl
##baijan
620
ngầu
##ỚI
Chanh
##Ề
Pitt
Khiết
Netanyahu
##79
Hotel
ngợp
##40
208
HB
lòi
SCB
Fire
Liber
DM
##TƯ
HẢI
Run
dơ
chỉn
style
321
Phill
Bec
mào
hăm
##̀o
##CA
Sher
Fred
Calisto
TRẦN
Robin
##ẳn
##ras
sả
VR
ATVS
Michel
##ience
Sho
General
##urne
##ij
Touch
Phiếu
OTC
back
nôi
thỏi
Phẫu
Sk
Rash
##anic
Fashion
bit
nhiê
Olympia
QLDA
510
Rover
Sê
##izer
Lumia
Bamboo
##lish
UV
CG
Mẽo
MACD
Dị
vol
Yingluck
Bahrain
TTAT
nhọ
Brand
Harris
đút
time
Đèn
##mon
Franco
Tắc
ran
Imp
are
AMD
Christian
SMS
275
Wayne
Mừng
OL
Chỗ
Dưa
vc
##cer
xoăn
680
per
Khẩn
##irect
247
mobile
nê
Joseph
##LB
dốt
##cap
Liu
GPS
Cáo
hat
ISO
Cấu
Tar
Azerbaijan
Nev
DX
Giẽ
QCG
chổi
Week
photo
GA
Armen
NM
po
##18
Hum
XHCN
Coi
##ướt
apple
Ngộ
gb
Zalo
bợ
NY
Swan
##wich
hởi
Khuôn
Đèo
PP
càn
Dải
Thua
hũ
KCB
##ais
acc
giời
Trứng
Ất
MSC
##rak
bít
bở
##ờm
truất
VietG
banh
Ole
ráng
Đổ
TND
Rà
xóc
Lil
France
lìa
Color
Marvel
nươ
QN
Nut
##food
Đẫy
vênh
##osti
##óe
Chết
Snow
##ender
Start
gov
##ĐB
KV
Peters
Bồng
410
Hollande
Pow
Điếu
ĩ
Lắc
##FO
##33
nhác
xoang
050
Dạo
Wik
610
make
##reen
RM
thiếp
Island
Vinat
##ville
Oceanbank
Town
lăm
##ping
##45
Def
Rome
real
Armenia
Slov
##ector
##jamin
##arth
Asus
Sat
BVĐK
BVTV
##ỏe
Nét
sảy
##́NH
nháo
penalty
##aine
ROS
cằn
##wang
Virginia
Jos
Rafael
Stamford
Erik
##angnam
##erland
Fidel
rúng
Oh
hơ
##pi
lình
Xoài
Thiệt
##ential
ngùng
Mịch
Gareth
sùi
Gor
Maduro
bét
Serv
hanh
BCT
VE
air
vò
LienVietPost
Geun
PCTN
vali
VSD
##amex
Đổng
bèn
nhe
gán
tuỳ
HĐBA
nham
tì
##ieu
Research
nguôi
Moyes
mạt
nhô
phiện
status
Nole
LIÊN
Mbappe
PVI
Cồn
Mach
sững
Mata
##wait
Perez
COC
we
##ces
Khỏe
Đán
255
##enna
787
tràm
Vnexpress
Hanoinet
Chàm
NGA
Coun
Kenya
Thiền
Vươn
rich
##als
Hart
chội
##agan
tiếu
##furt
nhỡ
Penh
Saf
Mohammed
vạt
##ibank
Sea
gmail
chừ
thoi
Brook
VÀO
tép
##teur
##manuel
WTI
View
##usse
222
Manh
Sanh
Chụp
hun
Dol
Khát
##oa
##ylv
SHS
Lẽ
ab
Phê
Book
data
Vik
##eople
CHI
##play
vảy
Health
Nhịp
Bet
##adona
nhấc
NVCC
Túc
##esus
Der
hẫng
Lag
LHPN
Today
Wave
Martial
Bàu
780
##ushima
##FF
xòe
dan
Ngoan
hổi
##́U
##elop
##nia
Bieber
var
##atti
##iri
chips
SGD
GR
##nect
diêm
block
vệt
Michelle
JPY
##ingham
Hotline
Lopez
Huyết
cạp
PVX
Khan
Gaz
Kaw
vít
##allad
Benjamin
##OP
Incheon
rườm
BST
Khẳng
nao
dụm
Osaka
Album
Od
kiểng
##ef
PCI
Lưới
token
TNDN
hờn
ngớ
1953
##gn
Rah
Moz
##ibe
##HN
Scar
Roberto
share
Rashford
Golf
ngót
TNCS
Bkav
##78
##bul
ắt
toà
##HD
toang
hydro
Keangnam
Civ
LienVietPostBank
news
##regas
##ifone
nit
Simon
Khoai
Georgia
VB
chông
sải
##ello
Fac
Rào
đểu
Sab
##pport
Dụng
##lock
##umi
244
##REA
HNG
##ylvania
mẽo
Emmanuel
Michi
PTT
Abram
Ngụy
Tàng
911
TASS
KTS
kền
QUỐC
đỗi
##anka
##ượm
##annel
1900
##ollah
##hani
kiê
Thảm
IL
Baghdad
##MO
tỵ
##CLOS
mil
Novosti
vén
trẻo
##MG
KTNN
Cab
##ners
thỉ
SSD
##asaki
Lampard
trầu
Tôm
ắp
##get
##uda
Lửa
trư
chấu
tv
SAR
VCG
ed
UNCLOS
Office
Fabregas
mút
short
rầu
gao
Good
Bong
Pes
vữa
hãn
Khal
Slovakia
Mohamed
sanh
derby
##25
jack
tằm
luy
Cột
Chanel
Hugo
##43
##UTE
Tiger
pô
325
pv
Deir
Log
cứt
Ted
samsung
Voi
vkl
Hass
mị
##eter
##XP
Kuwait
Frankfurt
Chuối
um
cal
CNVCLĐ
Sổ
VNE
##TTS
Act
Jessica
MO
hụi
kẻo
VnEconomy
Maradona
Rửa
Pasteur
Đợi
Queen
Gall
##dong
Fel
207
##iez
Electron
Kiện
CHU
Gil
TMĐT
Carolina
Weibo
Timor
bích
Mộ
wh
nhòa
Nóng
Buồn
sàm
ĐỘ
Trích
case
quẹt
nano
##cal
CHQS
buốt
Nhược
265
cứa
PK
980
ụ
##ỰC
thỏm
oai
Pho
Xưa
##izza
dẻ
##mond
920
Gomez
lốt
xuyến
phui
SBS
##amo
VID
concept
CÂ
AMG
luyến
##Tok
phan
Kennedy
Soc
Seng
ck
1957
Arena
lênh
sùng
đần
cast
Fortuner
Thác
226
SXH
VinaCapital
dev
Tunis
Abdul
hú
rìa
SME
Innova
nat
Industr
##rique
##aks
##iti
one
Cairo
sửng
Fast
Wo
Johan
Carter
Hav
Yas
##Land
Vết
##acera
NGUYÊN
gameshow
##enz
ải
Taxi
Bright
nẻo
219
yểm
##etta
VietJet
Reg
Ngàn
quáng
##times
Ron
THÀNH
duệ
##utterstock
Mù
BCĐ
rem
Ashley
lõm
970
Alb
ghẻ
sw
Hamas
##17
gene
soái
Hộp
twe
Nak
Vinasun
Kab
Hủ
System
375
PD
pixel
##oth
cap
##ices
Wolf
Dục
##otelli
TTXH
##ears
##UTERS
dis
Bali
217
Nhuệ
mầu
Cout
##sylvania
Mại
Ngự
Us
muội
thuỷ
218
##cker
Kids
AUD
820
##raw
Mosul
Phar
xiên
Lát
Cambridge
Hài
fin
Baby
Christop
Becamex
##GĐ
REUTERS
auto
nhuệ
##ullah
Gol
VĐQG
##iane
Eun
##pping
Gel
##uthi
CNLĐ
Adr
ối
670
##oda
giùm
Press
Thang
##apixel
##ember
TCB
gar
Siu
chồn
thui
FX
Dừa
dioxin
tw
##rat
Balotelli
512
1955
##ECD
OLED
hươu
khẽ
##agu
futsal
BK
Modi
##eway
bết
knock
Alexis
Py
ắc
##phê
NHƯ
206
##buck
nín
##80
##39
náu
234
Yoon
Maya
Hitler
##thiop
xình
214
XEM
##ondo
Hạc
copy
ngưởng
209
Fukushima
##̀Y
Phillip
đấng
hom
Thoát
Thăm
1956
Netflix
##For
Finance
thụt
Pia
Trạng
##cert
##awi
MSCI
##́O
Macau
Bentley
##of
Squ
don
OECD
NTD
khùng
TikTok
Yeon
hotgirl
Novaland
##cia
Network
uran
Sùng
điếc
Lyon
Tiềm
Iphone
GE
Well
JICA
Exp
ỉ
Thận
hích
##rogen
Deb
eth
buồm
mướp
Tảo
##19
##rit
Houston
Sad
nệ
Wol
Manuel
##zh
##Ảnh
TCM
Skr
Kiatis
##oul
NB
Corpor
Chỉnh
sê
##FT
##upe
nặn
University
oi
trệt
Habeco
vựa
##kk
Cer
nám
Kyodo
IU
uyên
mal
Marcel
Mẹo
idol
rông
coll
Già
Slam
Fly
##umin
##obe
cmnr
##MI
cóp
Ngăn
Dây
EB
Pedro
choàng
##́M
Java
##55
Huyên
bol
Ethiop
Made
Lis
Chuỗi
Nổ
Cáp
hẻo
Lisa
MAI
##stanbul
BHTN
Patrick
anti
216
Petersburg
city
Baltic
héo
ts
chây
##glacera
reuters
##bourne
##Thương
est
##yeong
TY
##mas
DK
LINH
tuồn
DPM
Joon
##qa
ĐN
Wel
Alt
590
bủa
Luông
##attan
##colate
Viê
Mul
Roger
Report
hột
THỊ
tã
243
ĐỨC
Án
chầu
##ylon
TTO
1947
vừng
Pennsylvania
Yoshi
nc
##SDĐ
mỉa
##dric
Lig
ngáy
285
SBD
Gem
QR
##COP
if
tt
Viglacera
SMA
AAA
dơi
android
##sc
combo
242
##iy
Kro
zalo
Shaw
Rose
##oween
##ront
##ira
Project
Vàm
##oidu
##won
EP
Ranger
315
##̀O
##auty
VINA
sệt
##cha
Powell
##kong
##iezmann
HIÊ
Pri
khít
##oiduatin
Oppo
Nối
SƠ
NE
vote
##Mo
Vé
lỏi
Nô
Gabri
Istanbul
Gary
Alexand
baodautu
##ball
273
MacBook
##IỆN
Mobifone
Cay
Hon
binary
Ny
Vải
guitar
Coop
##anol
Sẵn
Bồi
nãy
càphê
nấp
##cin
Hỷ
Tải
Burn
café
CBRE
rịch
Sapa
Kun
SEC
Hò
##89
Main
chày
Lính
##azer
Zimb
Thói
Dailymail
update
Kom
VCSC
Bad
Russ
Tunisia
##sean
##fit
pass
McDonald
Kard
Mov
Vỏ
##alle
Chiết
##away
chóc
##inea
Deuts
##36
RCEP
##eed
Johnny
##tom
##ense
VHM
will
Road
Fur
Khoái
suông
Colum
mích
phào
Rep
##yad
##attle
Rùa
Not
moon
Mini
Photo
CNC
nhõm
##ublic
Domin
##ship
cữu
##kins
gờm
##gio
##cons
hec
stream
tầu
Marie
##uta
Rh
##inson
TKCN
##acy
Santos
213
First
ngớt
oto
sy
cmt
Khen
TNMT
##fizer
760
Starbuck
Brom
nv
bỉm
dượng
tráo
Larry
##GB
Retail
Ross
Pass
Ball
KĐT
Viktor
Rodrigo
##aso
##̣M
tablet
Hoà
mửa
##ussia
Griezmann
FE
##ely
Motorola
Trác
##hio
PE
Gắn
##count
SDF
nghĩnh
Gaga
##cho
Tráng
loanh
rat
megapixel
AIPA
Box
Mum
Sterling
led
vir
Savills
##TG
Sak
dỗi
Till
Lức
tennis
beta
Andrea
##oóc
hybrid
Mig
xúi
Ẩn
Virus
index
Lật
rocket
Spr
Aki
Team
showroom
dùi
Bolero
Vel
Thuấn
topic
##ough
trick
Jr
OGC
930
##ben
Stanley
Dưỡng
lác
##eira
sn
Bell
GBP
VSA
mõm
770
tùm
Sarah
##000
239
Motors
Lược
##16
ANZ
high
##aska
Ell
Ajax
HỒNG
Joo
nà
Hố
tịnh
vắn
##sson
Đập
Mn
Chrome
mọng
KKT
Edition
trớ
Ultra
ngượng
nhún
NHCS
295
Tày
God
Krist
lâ
nọc
lèo
##una
##ule
Had
Kath
Int
##igan
Chin
Trông
rục
Stoke
Berk
Đồi
vút
Giác
Tas
nghiê
840
VietGAP
##mir
##sov
QP
Whit
##iko
##lat
Securities
tur
KY
Lyn
Vinacom
OCOP
Sul
tởm
Pence
nickname
##abwe
Travel
Cadn
Sunderland
dát
TNT
nhũ
Uỷ
Cham
279
xới
phot
blogger
Digital
Hassan
229
sto
##BV
Zel
xén
Comex
236
maz
##tylist
Page
TCC
##encent
Ling
Minzy
Jor
##eim
Mực
##77
##Ữ
nực
Sah
Leonardo
##23
lẻn
phiệt
830
Guinea
liu
ôxy
305
TTTM
Ran
Bỉnh
Halloween
Lucas
bềnh
ỉa
Silicon
264
##DT
khấn
DTTS
Trend
Korea
VNI
##emon
Exciter
Michigan
CôngThương
##bat
xỏ
Arập
Theresa
Copa
##hou
TNXP
Review
##eiro
##asy
River
vẹo
cac
đát
Bun
##umer
##roud
radio
Ngủ
Vinacomin
Starbucks
TĐC
Ot
Call
##ikh
oải
CHÂ
chĩa
mc
lồi
lẹ
bot
690
rầy
Selena
khựa
Found
TANDTC
Nike
##rog
ICB
254
NBC
Cò
Nest
fr
##ardy
rít
Io
Zimbabwe
##ias
227
Premium
Somalia
tuồng
Vinatex
TTATGT
##idd
##ilm
##̣p
##orp
Ozil
NHCSXH
Chà
##Ự
Sốt
hên
Houthi
##dotel
cỏi
Alpha
Dọc
park
##cao
McCain
Ưng
##Asia
Shutterstock
McL
phích
miến
EPC
Blade
710
hửng
##MTTQ
##war
##LT
XUÂN
Shark
228
##ilia
VPB
Pharma
##fish
Dành
Ill
CĐCS
tót
nghiến
nhẽ
Cuông
Kiêm
##awk
bă
Melbourne
##XT
OS
Sergey
Boy
Arn
Brian
Mali
Francois
tweet
Modric
part
##etts
VNR
##uras
line
lẳng
Esp
Dừng
CBCN
Kol
##uf
##29
Small
đùm
Cole
hecta
##̀M
Ces
223
Bolton
MBH
Nương
319
TVB
Nguoiduatin
880
CHO
246
Matth
Thuê
##anks
##uer
TCty
Eti
268
##oma
Xavi
Canon
bỡ
Đe
Shah
ĐIÊ
BÌNH
##́Y
EA
Sớm
WA
Hạo
uỷ
rèm
##eme
Talent
kiệu
page
Miami
FS
##inda
##hol
VJC
Deutsche
##gs
##onso
sấm
ngẩm
But
Kyl
Jason
##eline
BRT
Oxford
mot
stop
249
Hez
Bối
HỘ
Band
lằn
##ution
Ngang
Khâm
Cotec
790
Chó
Money
HL
Midu
##rence
CÁC
##ancy
Civic
299
Everest
bặm
BẠN
market
##ants
Minsk
tuộc
810
collagen
##andowski
ỷ
Bond
##hana
ngta
##LVT
lạt
Cre
Xổ
##tered
Dim
Gonz
##acci
Wu
Tillerson
Fernando
luống
Nguyện
ag
Pav
##val
suyễn
Nhỏ
##arn
Wester
Wom
##ible
cừ
##TX
Beach
##ives
chít
860
big
CCC
made
ĐCS
hs
Cavani
##imi
Porto
xở
##long
Vision
##ffee
Mall
hiu
Tencent
##ady
Vinap
HR
Bồn
Rivers
lả
211
mụ
ML
VŨ
league
##ANK
bốt
Colle
Vespa
Ohio
OK
boong
imp
232
IF
##so
tròng
##ahn
Hezb
Kéo
MoMo
##ipedia
Lite
##Kinh
khóe
ngốn
CMC
mún
Thuy
DD
Electronics
##iesta
ngoa
Ethiopia
##ỊCH
fans
BYT
##aire
##main
##achus
Kyrg
Hugh
chùi
##SV
ố
##eca
221
CSCĐ
Duyệt
##LL
Diệc
Diana
gỏi
toái
Bab
gài
giẫm
Non
Yeah
đờm
fake
335
Phe
NCT
Night
Cruz
PHẠM
loang
Swansea
nheo
QG
CCB
##etz
hớt
##ggs
Hiếp
LX
##enny
Southern
poster
##irus
Rơi
admin
cốm
Giroud
chuồn
##can
Tủ
Gio
##ashian
Ủng
Bô
Mend
quặc
TRƯỜNG
sấp
luồn
##lant
##iah
##urce
COM
Peskov
Anfield
đóa
Miu
nhếch
##aton
##epend
Yell
trụy
##pson
Họp
Thà
Gai
Ahmad
Hezbollah
UBTƯ
omega
##very
Lazada
TẠI
Omar
Snowden
Has
Nghỉ
Gram
Rica
Bey
rợ
252
##ibon
##pers
Athens
##́CH
Bể
NĂ
Cand
##round
Etihad
##engers
Fen
táp
Low
Sop
Hanh
Nấm
ẵm
Bỗng
##rie
nít
Sark
##lt
##via
870
Meghan
Corporation
333
SeABank
Mỗ
Bolivia
Lăk
HQC
Hé
##bass
biếm
LĐLĐVN
Tồn
Dh
chằm
##ava
ATP
Đak
chừa
Dũ
baht
304
đày
Pôn
Dor
##umber
enzy
##izona
Cross
##ode
##bit
amp
Hag
##Mart
##idas
séc
Iniesta
CHÍNH
##wen
cn
Raul
Thuyên
School
THAAD
##hir
##TTT
ngợm
Rou
trồi
Lewandowski
cross
TTĐT
Jonathan
CNH
bv
Khoan
##asonic
lùa
DongA
1080
Zar
KQ
1500
Chap
##rard
vv
Nhãn
##uya
##IỆP
QUY
xiao
Jar
thót
Đính
233
buff
Rud
Wond
ny
##change
##rera
ắng
Arm
##face
##iller
##arch
gel
Haiti
##elson
##onto
##tri
mâ
vồng
sụn
##75
khư
258
LUA
Vog
PVT
345
FPTS
Vas
##ledon
HỒI
##eno
##his
mả
moi
HoREA
##olic
Doug
uyển
##ifa
##̃a
vac
Gb
Pir
Navibank
NC
Chịu
SAM
LM
##cle
WW
Phantom
##HT
nỡ
lịm
Iron
##essa
##SEP
Paulo
Giggs
##lyn
Hongkong
Oman
TTVN
Rat
ganh
Data
##vn
Xóm
hàu
nylon
740
Happy
##kt
hye
##imbledon
phộng
Này
##aph
Chùm
óng
QE
ĐẦU
302
##ative
Isa
PHẢN
hí
##emb
##achusetts
Tụi
rúp
VJ
Bật
##bourg
Cash
luẩn
SBT
Colorado
CCH
Rời
Mol
glu
Cour
ROE
Cơm
dế
LLVT
##ipe
Share
Nao
Davis
Tayy
975
##illas
Christopher
##tour
##agl
##NĐ
SI
oh
QUYÊ
har
CBCNV
Địch
267
Raq
272
237
giỡn
Parag
Wars
Loa
Riverside
thảy
Ax
Messenger
sứt
liếm
nậu
##aus
shopee
Bế
Catalan
Rex
Tung
Berkshire
##mb
Sis
chuốt
Bơ
080
rup
Chiếu
Alaska
##38
Hoang
Futsal
##ƯỚC
Att
Est
##ukov
##oshop
Hur
Khói
Nhậm
Singh
##trong
AH
##ctor
##prom
MAX
nhơ
Vs
server
tía
Sham
Súng
Richter
India
trụi
Aug
Hòe
Kardashian
IoT
TÀI
bn
Buk
##die
HBC
Túi
Lor
Tripoli
diva
thong
Clark
VCBS
XVI
Bio
LY
lẽo
##dan
Jesus
##eot
Avengers
098
HUD
##cess
thò
Coutinho
vát
Mátxcơva
bảnh
##In
Wimbledon
IAEA
Edge
Crypto
Đủ
hắc
##fan
Morris
Marco
over
Trailer
238
ste
##iro
VASEP
Bart
##ibonacci
Hãn
Arizona
Infin
rủa
East
vẩy
Abbott
Giày
Tran
##Ố
Fitch
Chiếm
##Giá
LO
chocolate
Quin
nhầy
pu
khế
ngải
Wid
cật
##cott
báng
PCTT
trĩu
deb
FDA
kil
rả
Flash
Nin
đươc
Thong
SXKD
LĐTBXH
##berry
điểu
TẤN
Hills
Eden
Trống
##fast
##MM
reading
People
##aker
rôm
Dài
HVN
đm
EMA
titan
Pierre
bự
##fin
single
Tayyip
HVG
Cruise
##raft
Bphone
355
Pfizer
DUY
##ozy
Bug
Bày
Pique
dance
XIX
BMP
##AC
Túy
xoá
Range
##26
bổn
nhút
##ache
KLS
Mattis
231
Kê
Bib
##ittle
Enrique
casting
end
Yar
Bạo
940
ngóc
chòm
trỏ
##ility
Nén
Cạn
Nano
best
Raqqa
GO
Massachusetts
Wilson
Graham
tal
Dun
Wr
Chartered
##vers
Back
Mến
Naj
##igo
Astra
nghén
Jamie
##sw
Free
##acle
chạnh
Slo
YG
ngâ
Arsene
Mía
##ridge
##esco
##Kh
KHOA
mel
Micro
nhen
Cher
chưởng
Riyad
412
##cos
hỉnh
##ẤN
Markets
Nhiêu
Analy
001
SNSD
Bung
pm
##loyd
##ravel
tào
size
Chiềng
há
Sarkozy
Luiz
insulin
giễu
ùa
Continue
Dz
Prud
Moto
Luk
sin
Ya
mess
search
Vẽ
xệ
sẩy
##amily
hoạ
Síp
Trào
Line
##St
##ICO
##acker
Toronto
tech
Casillas
Tev
Manc
##NS
##ĐH
Bút
##ocus
LGBT
Vent
##itez
Pul
love
nong
Jen
Posted
Măng
Ích
KHÁNH
Đuống
##cam
##uble
312
##ism
DR
##QC
262
##thong
##ios
sẫm
DATC
XA
Ơn
Pres
4000
LAN
Channel
xẻo
##ente
soc
Kor
Gucci
your
Gat
Lạ
##dor
nệm
Fintech
SJ
BGD
gặm
Doan
Spa
Smartphone
##uo
##yz
Sale
CHÂU
ion
pan
##rt
Energ
Pel
fir
Gan
DXG
##organ
##EI
hóm
##ario
lem
Binance
jean
Alf
Emma
Latin
##QP
298
IEL
##nar
##vet
ngai
Gib
Francis
425
UP
Ahmed
ngông
whi
890
248
024
##ollow
ss
Phot
McG
1200
Đạ
mad
##imer
huân
lóng
Que
##tonia
khanh
lượm
Đác
Salv
phùn
Junior
TMV
sk
Miller
1949
Trâu
Benitez
BGK
MXH
Rum
Bull
385
Tỏi
IPU
458
thúng
##riot
Nghé
khiêng
##beria
Thước
Tươi
Isaac
nhừ
##ieg
Toshiba
Guam
Dụ
Roman
Tí
VIET
gù
Duc
Quà
##izon
IELTS
##atherine
##44
##uce
Tiện
Manhattan
288
Xuyến
AEC
Panasonic
kit
##ales
Dựng
SCR
435
Má
Tevez
Mond
tk
Ligue
chạc
Ric
Tha
253
Cheng
##IỆU
Phở
Gấu
Produ
opt
VỀ
##heed
##hail
Thợ
TSKH
Philippe
sú
book
##borough
Bella
Columbia
##wondo
LD
LC
Fair
Albert
dùm
Company
Serena
Ten
Mk
##uchin
##ahi
Quí
HM
Goal
Chừng
308
Chấm
Gabriel
PMI
vánh
ret
Spider
Thiệp
sml
Options
##inaw
Lev
Kin
##hanna
studio
ip
ạch
##side
##udeau
Turk
INF
VNG
inox
241
Chậm
##oon
VRE
sg
đằm
Kèm
##ING
##coln
Teen
##abad
Set
Treo
##arin
##ilet
niu
KCX
Samuel
list
##inez
bolero
Holding
chực
Islam
LV
hực
Thak
##alt
##estay
##met
Miley
axít
HỘI
PLX
##exco
KINH
##endra
Dec
rạ
##afe
##une
ATVSTP
Sanders
##nb
Technology
CAR
khuếch
1948
##vax
gara
ASEM
Mueller
##và
324
##ucher
##itor
Just
356
ngác
key
Elly
NHM
##App
McLaren
húp
bluechip
mart
Kyung
amin
val
Tá
Cech
GRDP
Asset
VAR
lảng
Xóa
Of
Pad
Cạp
Bollinger
Ôtô
Beng
##uzia
Rác
Honduras
CÓ
##hoi
ruốc
IFC
266
Mem
GMD
##aron
nhằng
Catalonia
rè
đay
CCCD
support
Né
##alleng
Earth
cơi
ETH
##̉U
shipper
##aru
Hilton
Stop
Hắc
Wong
Yoga
##uyne
nm
lõng
Block
Novak
Prudential
##pl
CIEM
##astian
UBMTTQ
thẹn
##bu
VFA
Allen
hớ
##ahawk
##90
##ents
432
Oil
ké
Chè
SW
sới
giãi
##etti
##uti
ton
Jenner
Cài
Independ
##EG
##eri
HSSV
NSA
Nord
banking
bs
Higu
301
Trudeau
săm
xâu
Gruzia
PLA
Mĩ
XP
555
Great
##35
VAMA
nghê
Shinaw
Chav
CVT
Lúa
##Le
Dior
Doll
Plan
Muối
WS
TUYÊ
##arov
Ze
##olla
Aviv
##nie
gien
Delta
Gul
DAB
##ume
ISS
xiêu
##atter
Gerrard
##conn
##bro
274
Word
How
Elite
##̣̂P
Estonia
sec
call
257
NHÂN
lip
Wikipedia
Carlo
QT
Vịt
tịt
Bian
Múa
Tệ
Lockheed
caffe
##cs
nhẹt
xxx
lự
Shinawatra
##alog
##ipan
DF
pizza
menu
richter
CAD
##ƯỜI
Donbass
john
007
1940
##ugeot
cọng
UK
BU
mafia
pip
Western
2045
Wiki
Beauty
##oku
BHL
cons
Jacob
Vers
##hing
Nốt
Lắp
##edo
Download
lụi
MG
rú
silicon
405
Mull
251
đanh
Seb
##more
type
##hner
##ency
Fax
nin
CBS
##ẾN
Thiago
##vietnam
This
VEF
phả
nuột
LNG
Falcao
Lênin
Mumbai
Đáy
Fans
Kabul
Marcelo
Anderson
McK
Ghana
286
1800
Roo
rụt
Commun
##endo
phil
Science
##set
Salman
ăng
Daw
##alan
475
hđ
THI
##dinand
mọt
CCHC
cọp
##icky
278
miết
Sull
Pao
Pelle
bịp
Alves
1920
Futures
under
Igor
nẻ
Nish
chẻ
##kan
Mald
nhọt
red
Eo
Phiến
##28
quàng
Ezz
##ekwondo
Zin
nịnh
Kyrgyz
NƠ
Water
Mira
nhăng
ợ
##ify
testoster
máng
Jane
##sch
##gy
chùn
##aman
##uke
LTE
TOA
##instein
BLĐ
Jersey
Củng
Chơn
##ambi
Stone
Kay
Gazprom
##65
Villas
910
Iz
yahoo
CFD
##ỜI
nhảnh
vằn
##wi
giếm
pc
TUẤN
Phán
salad
thpt
Marse
zing
##PPO
Dark
VDSC
Foundation
hand
Bruyne
##isk
lấm
Higuain
doping
269
399
BĐKH
Ủa
IDC
Walker
##HA
Bugatti
sần
Mancini
Coteccons
Nus
Ngõ
Koh
khỉnh
##isse
##̣P
Nhí
Kash
DNA
Let
KIẾN
Abramovich
Miêu
##ivo
Ferdinand
##NC
Barb
BGTVT
##aria
Comment
Sunny
Hand
Ngưỡng
Hầm
Đéc
263
##sor
mă
##coni
đản
##aig
BẢO
Turbo
Villar
chíp
Venice
Lac
259
Chip
QNg
Ong
EXO
sofa
322
liếng
Kilo
043
TRANG
ỳ
Sếp
Lincoln
Nêu
Source
##ushu
rưởi
Trộn
Modern
Khoang
Interpol
675
Chán
work
mánh
VGA
GIÁ
BGDĐT
##mino
##inawa
Ana
sv
Vienna
VÂ
khê
##show
estrogen
Kiatisak
TTC
Anne
Rup
##ous
499
ngậy
Cooper
##asm
OPPO
dôi
ná
Bọ
Thaksin
##aini
soán
LNST
Súp
more
thùy
Martinez
Garcia
CHXH
MR
Sara
Kyrgyzstan
Peugeot
##xon
av
##ept
Diêm
Sharp
Eva
nhẽo
337
##ƯỢC
##bell
Fulham
Nexus
##omon
505
Rihanna
ù
1952
Điềm
##rap
Asiad
Hend
Perry
##ECO
Gạc
Ja
núm
Brah
Bre
Bac
khất
sun
##jin
Pepe
Lawrence
##izu
Hae
Fell
Danny
##ili
##IR
Mohammad
Joy
##ural
búi
Cua
feet
##udo
ICBM
##olo
Patriot
lev
##ggio
úc
Paraguay
336
##uka
010
##anth
rẩy
phũ
Suga
Howard
UFO
##ident
##24
Luke
LONG
Nathan
Nhiễm
##ters
636
525
gẫy
Wis
Alonso
Triệt
Busan
Equ
Hiros
fran
Dak
Pok
Gelex
ĐỊ
Greg
Grammy
Luyến
tệp
Đem
Điểu
den
Mnuchin
CHXHCN
English
TOP
##echen
VDB
##ipple
Morata
HỌC
Test
Roland
Irina
il
303
##rogba
##uza
Nhai
Hủy
Marseille
Legend
xẩy
##achem
Nich
phỉ
nết
cạy
##sburg
thía
Karl
##rico
##74
Rod
Bún
đận
Nhẫn
BTT
Hama
##Ể
đĩ
VietQ
##rea
huỷ
ZTE
Kien
Nan
EM
hỉ
888
THẢO
trans
Pray
Sag
bill
Dynam
Okinawa
##issa
Rouhani
Ess
tấy
Robben
Mes
British
CTD
Hath
Dã
ILO
Blanc
##ateg
276
##̀A
##ợc
Neil
Drogba
Xích
dn
Pra
Samp
cur
vồ
Carina
MERS
Vở
húng
BD
Lay
Girls
##Hay
ang
1944
CCTV
Price
carot
##eren
PPC
tành
Tèo
##ono
Samson
415
hám
nầy
Your
xuýt
Hind
Energy
##gram
##urgen
vẹt
020
Fuj
Kop
sur
Aung
sạm
Tịch
Tắm
nư
Coffee
víu
##unes
sub
dấm
##rush
thày
NGƯỜI
nhấm
2035
##raphic
625
Kent
Ut
384
afp
đáu
Kus
Lead
NGÂN
Frid
Tray
chổ
Laurent
##dap
Fanpage
Chai
rạc
##hua
292
Kaka
xắt
nòi
##bay
concert
Asean
282
ngẩng
Lewis
Avent
Viêng
TTF
Renault
zin
##opol
Hẳn
Dơi
nghêu
tề
tom
WC
GIANG
pre
Najib
Bernard
gả
DŨNG
##itsu
Phiêu
##rio
##ods
Vsmart
##FP
##rise
tăn
##ient
Trục
Vat
CNY
Yi
Yun
Corolla
VIDEO
Pink
CNCH
##ấng
##hill
Sett
Luxury
Schol
306
##oọc
Chol
hel
Nhổn
HÀNG
chịt
##lins
Sr
mói
Foxconn
Hom
nôm
POS
Marcus
toilet
488
Mãn
Cau
##ambique
PLVN
đuốc
ox
##gate
stylist
hù
Pepsi
##plus
316
item
Mảng
Melania
TRONG
coc
##inness
cáng
TBN
đỉa
Burnley
##asha
Abdullah
khờ
575
##ÂM
thau
diết
##lusconi
Cin
hót
Dang
##dar
Point
Slim
289
Evans
Yoko
Cloud
##oka
##thur
háng
747
##egal
rết
Security
ms
##osi
Studio
Tanz
nái
Front
Taj
##chenko
Sochi
Chavez
kháu
JPM
PTTH
Ming
##bright
DB
1941
AQ
sport
gl
Sô
Factor
395
xèo
PHONG
Style
nớt
Châm
Matic
lắt
was
inbox
Berlusconi
Mozambique
Warner
318
Toure
QQ
Row
CSB
ED
cựa
ESOP
ó
Bever
Yangon
Archi
Prime
quầng
STA
##OR
Wei
hộc
##icator
##eone
Connect
Xát
##stone
##akov
##key
soda
Vedan
##veen
Midd
NHTW
Ổ
##ove
Fernandes
Kroos
nhợt
Hernand
xiêm
nhạo
Design
tuôn
THÔNG
home
Reb
283
Gừng
thỉu
Khuyên
AirAsia
Bot
vỉ
Vinachem
zoom
Sapp
##apova
Bran
VOA
thơi
natri
Kov
Soi
Ngựa
Sập
Christine
##arat
Reagan
ngát
##alin
Tomahawk
Yellen
ĐẠ
VNN
lâng
Vietravel
##beck
Vient
Lever
phăng
Siem
PCA
Sean
##92
Angola
##enos
viettel
cún
Huê
##Bay
Knight
Doha
Stud
Mikhail
Đua
##egu
Raz
##ete
PCR
281
Ott
##gu
info
nhưỡng
Susan
314
dĩa
9999
Vald
nhản
Lit
Now
##agawa
đềm
Hathaway
phom
##pan
Matthew
Ống
SpaceX
Váy
Luxem
##onn
ló
Riv
Mập
##dep
Hem
##tois
DHG
Hồn
đùn
Remix
rọi
Malta
Liberty
Bếp
##was
HƯƠNG
Sảng
005
khiên
dả
xàm
Jurgen
Đẩu
ABBank
Wonder
317
Nghịch
Khiếu
quẫn
điếm
Siberia
Congo
gt
góa
##MN
rating
515
Sâu
have
Homs
HĐLĐ
Sắt
triê
Vis
ngụt
Vogue
guồng
284
Masters
Giỏi
Rak
##amol
261
Develop
##rez
ngùn
Nhuế
##cep
##kus
1951
RIM
True
rìu
Cos
##eroon
Britney
##hat
Meth
hững
Ern
iHay
Strai
uổng
DW
Mép
PHAN
Pon
TÂM
Piaggio
Pellegr
##Sport
rởm
Graechen
Marina
cf
Grande
##ighton
huế
Tít
Tanzania
ye
Independent
tuyền
Giành
Mate
Khâu
fun
##indy
Sharapova
##34
phàm
Oliv
##tu
nhâm
Khoán
DNTN
pa
Moss
Kiệm
SƠN
##ress
##stom
ass
gút
Think
Mug
Hernandez
Vinaphone
Potter
##alke
Nancy
##ido
##aud
##achel
SSC
war
Amb
hợt
328
##Com
Residen
grab
NAV
kị
Diệm
Jerome
##itol
black
Hwang
##ento
JPMorgan
##oggi
Um
Conf
##izen
gio
Landmark
##yu
Phun
Cameroon
Viv
Beat
moóc
313
Aventador
BÀI
Guinness
Romney
Hans
TTĐB
Dollar
##tton
Tản
Khash
khiê
##uber
uranium
##say
##allas
##Air
sho
Julia
hip
Mans
##duc
Bilbao
Ing
Zo
stock
Muang
UNIC
Xà
thread
Courtois
phâ
build
MHB
áng
chầm
326
PX
##oit
Oracle
vacxin
xạo
Bird
Watford
ib
##aze
Ripple
Shay
dúi
##hama
##thers
download
Asan
Xy
354
MẠNH
Riyadh
Ừ
KHH
nện
##ụm
307
HÙNG
##ootball
Gmail
ĐỘNG
Cath
Máu
584
Complex
nhẩm
##petro
HDB
##uyen
Pellegrini
Adidas
Electric
Muôn
Katy
Little
thiê
Fellaini
##hit
545
ON
VK
ờ
Trăm
lặt
##erenveen
Enterpr
vái
##ych
##inese
Abdel
UNICEF
Poor
Mâm
homestay
##gie
thoắt
##chat
##mat
Schalke
marathon
##appy
Neo
VSI
##TH
Fansipan
##quin
##word
LPG
Hơi
Allian
##ii
sến
VietTimes
khố
Stanford
khuỷu
##đt
##abet
Nôm
Abbas
Ezzor
BXD
order
Bibica
inst
Kham
311
tét
Giỗ
ghềnh
Vientiane
##gt
Buy
Hiếm
honda
Display
##eder
Đích
Heine
cợt
Lazio
Vivo
Partners
MY
CBCC
Mom
rựa
nhói
##iation
cữ
Lường
Future
MM
##Zen
Khashoggi
309
gạc
040
nứa
NCB
Alv
##iar
##chett
##arde
đờ
Sig
nài
road
##AI
Force
##aid
##ndex
BRI
##fica
277
Unil
Beyon
Petrotimes
PET
Shoigu
##lorer
GDTX
Queens
Exchange
##egis
##cop
AirP
##ipal
quẩy
OnePlus
Fall
343
##card
##heimer
##ering
fix
Bitexco
##sha
ICA
cưu
ghẹo
State
răm
bươn
TIẾN
Đm
Friday
đă
##adel
##iao
##rich
VCS
##aguar
lọi
chàm
Whats
Thor
Ivanka
##eko
##ppe
Gho
siêng
Ducati
Jimmy
chẵn
Kawasaki
LI
duỗi
quote
dec
##mand
Choáng
tể
##ussein
323
huệ
Herrera
loser
##lav
eng
401
##holm
##hire
TCH
Mảnh
##othy
Ud
Lake
nghé
Bền
Julian
Walmart
##tag
368
bet
lòa
##ebe
Rắn
##off
Chuột
##atchback
BCA
tel
408
AstraZen
tày
Sid
Europe
bas
chart
##WA
##eyang
##fu
testosterone
577
iPod
##utt
297
ap
##cul
##aily
Ao
hop
##iston
Uni
Aub
##UB
Silver
offline
thiu
KHHGĐ
Glass
##ÍCH
API
NVL
lỵ
SGGPO
dãn
Sukhoi
Pur
follow
lạp
Miguel
options
##chel
đênh
Hút
Over
bướng
phò
super
AstraZeneca
Rel
##ỘC
Miranda
271
Phổi
Din
##atem
đác
vót
Luxembourg
dầy
lin
Heerenveen
Fore
##allet
##elin
Buffon
Break
Ngon
##cht
PAN
ruổi
Hẹn
465
Focus
BVMT
294
biếc
nháp
##itton
Hz
Benfica
Seattle
teaser
rần
366
ballad
plus
Hussein
ngoai
Ibra
cỗi
Hapro
bim
TẾ
Vincent
##ỆNH
DOA
Opera
Square
Poly
##BD
##32
Atlant
Billboard
##ety
SR
Heo
Tưng
KIS
##fox
327
##Pro
Chun
Tê
Walter
xối
##hanol
367
##lett
Hey
Nicole
KTT
Sheikh
##omet
Schwe
sứa
##rice
Brooklyn
Gord
ĐẠI
Heineken
##dit
##iron
mazut
tè
##idan
329
##aido
Jorge
liếc
deal
##bury
invest
Emp
JMG
ngỗng
chiu
Trứ
Nấu
Quái
Nusra
Oz
Phẩm
Surface
Neuer
Xưởng
Sha
HĐH
##85
Pos
tóe
BE
kham
Rog
vù
##burn
Indoch
sủng
##ensky
Lãm
chịch
Plat
296
##penh
tắp
Sướng
Acer
TBA
ter
LT
##phy
##fri
DƯƠNG
Startup
Douglas
Fibonacci
Guill
DAX
viol
##andy
Lisbon
334
CSVN
##berl
toy
Villarreal
đặng
Jaguar
##Chứng
##eds
##jk
LÝ
##persky
Yoshihi
Chase
Liveshow
GPU
Kend
Challeng
lag
KHXH
Hỗn
Nộp
Amy
Bực
##mec
Xay
name
##uterres
Ghouta
##ECT
Hóng
Muller
meth
rùi
lợm
Voz
gal
495
Straits
chửng
Bấm
Ton
Nelson
pe
Khôn
mer
Aur
070
doll
Marsh
##ako
Org
Yuri
xơi
KBS
413
##VT
287
thảnh
SPDR
ú
JVC
dich
carbo
voucher
##ating
Lung
##riz
hn
585
Work
Nghè
##terest
338
Toan
Adrian
phàng
Maxim
Mane
đượ
Nhạn
sên
##andro
##ecial
Spot
Sign
##omb
293
Claud
565
Cưới
Đoòng
CĐT
##istic
##67
CAC
PetroTimes
030
##zheimer
Craig
thình
quệ
hoe
gold
Maldives
í
chóp
##uman
phone
Shangri
mành
##ologies
Bôi
Nhượng
bđ
Patt
Sốc
chùng
pap
##avan
##blr
MSI
Unilever
##lon
363
Trùm
Bành
giêng
add
VAFI
##amoto
bâ
Guterres
Nishino
##xh
has
Ve
##tru
Janet
Yokohama
GTN
VNS
CHA
Vạc
##etamine
Kiêu
Make
Vietsov
##kusen
Scarborough
##aa
Bow
Mưu
Moore
gãi
Bruce
Pearl
Sok
094
nhòm
Hamburg
Gánh
class
##izz
##cz
NTNN
core
349
Aaron
Giồng
TTGT
Number
Asanzo
Huang
445
york
##omat
PGĐ
cui
##ibr
UBS
##igroup
##enix
Càn
đếch
lun
##ilton
Bắn
##ional
Bhut
##occo
NPK
##Ex
348
##live
râ
Llor
master
##ANA
Ronaldinho
Control
485
Latvia
nua
xx
xẻng
##enness
##ubank
455
lock
386
Service
##emouth
Magu
Soros
fac
Denis
Sào
dep
##obi
tg
CHLB
##hydr
lit
thây
364
DAP
chớm
Uyển
Logistics
Assoc
trạch
##rant
Ồ
lởm
##lando
##aver
tươm
Yuan
Quãng
lot
OSC
THĂ
##Leaks
Nở
toả
Ghềnh
725
Bog
Nani
ĐỊNH
MSB
Ths
tit
Kền
##ICE
##gra
##inois
Lem
##bal
NAFTA
Tumblr
lỳ
382
##QSDĐ
Tề
account
Kylie
VLXD
##LS
Jal
ps
Leverkusen
Stew
Drive
##tc
hến
##ingrad
##hito
##shine
Rằm
Emily
Fit
Niel
Steel
SỐ
vó
cầy
TRO
Alc
Wy
dm
Kaspersky
DOANH
##Con
KTX
bêu
##leton
Nút
Software
chă
##ịmới
Horm
Vuitton
##ôịmới
Pic
Mạo
bập
Fish
Yak
Vững
Matxcơva
Harper
##phia
beng
599
boo
phủi
##LD
##FE
Heung
595
Habubank
Gro
##urnemouth
Welbeck
CLIP
372
Lắm
Gạch
Hànôịmới
##UR
Aquino
Cyrus
College
ớn
virut
đư
402
##ippines
Mệnh
PHÚC
##onsai
broker
Indo
Vissan
Fior
Nem
##ovin
Settings
bollinger
games
371
Hop
Katie
er
band
event
##iton
power
352
Palm
##silk
MPC
Lingard
002
LDP
765
##95
##ME
##pander
FSA
eBay
Rối
Realme
Xoan
388
Consumer
Broad
Vatican
Skype
lơi
Stockholm
tag
chửa
Accent
Lily
Akira
Lip
condotel
Vert
router
produ
modem
##venia
Explorer
##iso
Code
DIG
##uộc
Kyi
##KA
XT
##bery
##busta
IPS
Miy
Campbell
thúy
Bỏng
KO
Bournemouth
Nevada
Vietsovpetro
501
vựng
##anke
xoong
Kings
419
Captain
##ilding
chộp
FAO
Gateway
Jazz
##inste
Lựu
##avin
Qui
Ổn
##roll
416
Cir
Ral
bặt
Kì
342
##cord
##tourist
Harvey
Isk
Xinhua
dền
##tinental
346
gluc
ESP
##inder
Nhảy
bra
Hùm
quệt
Ian
Ẩm
Engine
Recep
Laptop
Ruby
Titanic
còm
##omi
Parker
gôn
Rossi
##qi
Citigroup
talk
ròi
##aun
Interest
331
quỵt
##tron
##Sh
lạch
giãy
096
##quoc
##rê
lổ
404
Anders
Tuc
Toni
Kỵ
##covery
IDI
##atemala
RB
Vaccine
411
ethanol
Rico
Hodg
Chiên
Walcott
gáo
Map
##azi
Ramsey
khập
camp
##park
loss
456
môt
lết
xéo
TPDN
iii
Lợn
Jacqu
##otte
film
##ỐNG
##ababy
LHTN
Grace
Drag
mống
ACBS
##̣CH
666
enzyme
Tắt
hong
CJ
Senegal
diệp
377
chãi
ngan
Search
Dominic
##cet
vèo
cuồn
Aeon
PTI
BĂ
HAI
Hoắc
##gas
THƯ
##KE
PGD
##ivate
mv
Quới
Dur
BigC
bệt
BỆNH
Did
Hat
Slovenia
CIC
Ương
Rus
339
Baghdadi
##leg
dấp
615
##́A
Holmes
JCP
crossover
Ghế
Deep
Like
conf
Mắc
veo
èo
##tern
##FS
WhatsApp
Bỉm
EVNN
Technologies
VFM
VM
Marathon
mom
pay
Tiệm
ngoặc
Lak
Nang
357
378
##liu
##AW
Dốc
nhót
yểu
gô
##base
Vicem
Tớ
Tah
Narendra
scan
060
ku
Alphabet
nhẵn
##fishco
Hann
Dâu
Aires
Chìa
drama
Exxon
Claude
photoshop
Anto
fashion
Wells
Jab
Morrison
fre
HÌNH
VNDirect
##iram
Kap
Stein
iT
level
Harley
xó
mãng
uh
Nix
note
SY
BHTG
FM
hẹ
##edl
salon
##ml
MBA
Gióng
##avirus
thóp
HƠ
Gốc
##quez
hói
CE
##TCO
Lotus
Smalling
Guatemala
muồi
##astas
CMCN
Active
Vozer
Meta
Orlando
Agrico
Simeone
CHK
665
##rông
Carib
Navas
Suu
tn
376
##gansk
Fortune
Henderson
Alzheimer
UND
lủi
Angelababy
cuô
Javier
Acad
Siết
##lia
Adv
Lagarde
content
JA
Thoạt
##world
nhúc
tòng
chác
Buenos
MN
iC
Lugansk
Alfred
##ansas
Lặc
mịa
KA
rai
Norwich
Trỗi
Rao
cạm
TPCN
Pinterest
Led
332
col
DỊCH
WikiLeaks
##ulo
Analyt
dậm
Khăm
Mitch
Nê
##imo
##zan
Hull
CW
##asil
Mạn
giương
##stant
vông
##ful
##insteiger
504
Lane
More
Đun
Hunter
THE
##igi
Karim
Puer
trứ
Đòi
Altis
nghành
Gle
##ostok
Oánh
Tro
Carrick
##aume
##ỘT
NƠXH
Pod
Volvo
Pit
Vinmec
Prad
##OOOO
Nham
##pert
Muham
##lé
HKTT
mền
Palmy
Đéo
Tựu
mp
291
bla
COP
Mina
##TL
Hello
ĐHQGHN
##Gs
Phoenix
VSATTP
RFI
Maguire
Rac
Nùng
đờn
Ep
418
Yaya
Alba
NHK
Stewart
móp
jin
nép
blu
module
Phàm
Tốn
Myung
362
955
502
802
Leng
##raham
##Work
Union
CƯ
SEO
718
Thuộc
mat
##ỡi
reset
liềm
##ieri
##uver
Khép
sx
TTTT
Chiang
Bó
Chặng
Alice
Miếng
HAN
Jeremy
##enberg
##ular
luỹ
##comBank
VEP
##lander
Venus
Osama
RX
inh
6000
ob
347
Austin
Dallas
Lấp
##nic
Palmyra
baby
Daew
Lap
414
Schweinsteiger
AZ
##onna
##eol
SoftBank
TNVN
1942
Corn
##raf
383
998
Shopee
Tong
twitter
WSJ
BX
Chao
PHÁP
##ground
nộm
Nova
XSKT
Shan
##OI
Brothers
nghiễm
Shim
Edu
##Ổ
mếu
359
thiển
##hium
hạc
Carn
bal
ĐNA
Tiki
Búp
hừng
Pent
Chat
Valley
au
Lov
star
Saigontourist
hatchback
##andi
JCPOA
##ories
Under
Kobe
645
business
358
##urance
##elly
##care
Gill
Zara
Jeffrey
##auss
THẾ
tóp
##arton
bịu
xtan
rub
705
Excel
789
Duma
ngước
Cưỡng
468
uột
Hero
Mats
kar
533
CGV
trịa
Zelensky
1929
act
##illo
BÁO
Hunt
NĂM
Furious
loáng
Bosnia
Widodo
Illinois
Milk
##consin
##ờng
##ivi
Meh
TDH
Rin
phung
##ipt
##adelphia
353
373
##Trader
ns
hotline
Bianfishco
Buộc
Rạp
thươ
Sebastian
Family
##ids
Scholes
Sunni
Maj
rupee
NGHIỆP
##fax
Ug
Four
##ovsky
ATC
Fulbright
Yết
535
##vious
Gốm
Services
##Cham
Isco
Napol
Gợi
VỤ
ngố
street
##anie
hécta
tưởi
pH
409
Hidd
ñ
##itary
Zlat
Accord
Indochina
BMI
918
ĐƯỢC
##watch
Radio
hục
##ERT
##Qu
ROA
rên
##moud
Infinity
##zig
##less
Laura
trảm
##mel
thướt
##SH
mợ
THACO
ICE
##USD
Natal
XVIII
gươm
##oday
##avy
##tral
CES
cy
Nhấp
Đẳng
344
Kuz
vp
##Công
Cass
PAC
Vinafood
Lah
Thả
##emi
Stream
Skripal
gấc
Petr
Fried
855
715
Willian
gáp
##isha
##umph
##cky
os
Mam
trề
Firefox
ĐVTN
Kienlong
Hoá
Stur
carbohydr
xuể
Nại
Janeiro
##Group
spam
341
With
gẫm
##rys
Hak
gổ
Lí
XXI
trịnh
785
Yanukov
Vả
##hiệt
Vidal
giũ
##edonia
Morocco
CNG
Hamilton
Oliver
caffeine
ghẹ
Kashmir
lỉnh
##low
Via
JY
Coupe
Ae
Siri
trát
##eet
Cháo
khiễng
Keo
##auxite
Fon
XKLĐ
LÀ
nơm
McM
NI
##jun
##chen
def
ADI
835
Chong
xẩm
lòe
Hoạch
Nielsen
Giếng
trám
Khăn
sol
AAG
KHĐT
Puerto
Yanukovych
Football
##ểnh
PCLB
kếch
Cyp
Hybrid
nhặn
Bros
Safari
quyệt
Lilama
##̣T
768
Matteo
NTC
##file
gặng
Ribery
##rive
Roberts
MỘT
Pirlo
bẽ
nhám
Nino
##itan
KIM
bluechips
Thỏ
369
##LE
Speed
Caribe
Marcos
##bang
es
##mos
Santiago
choạng
##rac
Chử
799
Suisse
Dáng
ĐĂNG
Asp
vơí
Economics
Rê
Kristen
Cp
flag
Soạn
Elli
559
Rot
OTP
##ted
Muangthong
Hận
ĐM
1939
##ENCO
KE
dó
Total
Miến
singapore
##wick
đượm
Capitol
leg
Seven
Davidson
Mubar
ACC
LUẬN
tâng
NGÀY
Dae
who
##des
Hoảng
Commer
Bav
gồ
Eur
Cốt
Fat
##ager
uế
Last
##ivan
Tien
##tail
PHO
##INK
Nixon
437
UNDP
coun
Goetz
##eria
End
##sberg
point
Cort
đk
417
chơ
Hut
845
##oly
sạ
ngò
rứt
##kor
##hie
HI
Liban
##Chat
Lài
##ượp
BIC
ant
Yen
hì
##acas
Aff
##Forex
351
iM
##couver
Đúc
Thun
Hadid
655
379
VW
Coco
TTLT
PVEP
VSIP
CON
phập
Maryland
##OLED
toi
NHTMCP
gout
##ierra
Mou
Spark
Mahmoud
##ticle
nấng
##VH
Add
##iken
403
Bes
ak
BIÊ
doạ
Marine
Dra
VIETNA
host
##ickr
Casino
Wild
Chur
Wir
face
Mind
394
núc
VNTheo
fax
sính
CƠ
Zoom
lõa
##ellig
Sex
##oop
bonsai
DE
Copenh
##ister
khảm
Mode
Sohu
##oglu
đẽo
##ameyang
Gordon
Lụa
Mì
huyên
925
508
##non
##cus
ez
good
##sport
##ares
Village
##ezil
Papua
Ấp
Coll
Philadelphia
605
Đòn
Barry
Fabio
Ấm
Catherine
Xpander
Niệm
Subaru
cụi
PVO
##ehe
nhép
##ƯỢNG
Soci
Owen
Nice
Guy
Thuỷ
Raptor
Mbps
Pun
995
cạch
Hard
nhè
Rơ
nớp
Sporting
Cyprus
xoan
Giấu
Mars
magiê
Sunshine
khước
##antan
##ether
Sunday
392
##ciel
Borussia
##pha
Oezil
LTS
003
##COM
Ashton
Kiển
LE
428
Bhutan
Phì
Heb
FU
opmart
Hối
387
Thào
012
##acan
BVS
Mubarak
Depp
Bold
socola
##ipl
374
Boo
châ
ICC
Luz
Ore
Pict
Diaz
chuyê
Nikol
Fun
HUAW
HUAWEI
361
Kante
Rice
ju
chồi
Sic
Iskander
Cindy
Russell
CafeF
##alian
sỏ
##Pad
Vardy
Amber
KQKD
##ilic
Quanh
Chuck
German
Pochett
hoen
Arnold
Xoay
Bươ
KG
Capita
Bord
Nur
689
Rick
Giọt
VEPR
Aegis
##acher
985
price
##roe
KM
TÚ
Evra
Thail
YPG
Hoon
##BANK
Khaisilk
Karaoke
Sumit
hd
##andra
Sne
DPR
##chim
##owa
Pochettino
xúm
Pelosi
sắng
##eless
##ecca
ken
Prim
nhím
diễm
Toại
Brighton
Mách
##oC
##Fin
Ă
##nan
vịn
Dịu
Ác
##ablo
447
775
Tass
##edad
##ipzig
SHTT
##je
PMU
HDMI
Zlatan
dig
hormon
Thốt
giẻ
AMOLED
serv
Vancouver
Industries
Kendall
Pom
##imăng
Sợi
Ghost
Maybank
Cày
ios
Kêu
NĐTNN
Tiff
##fone
Quen
##icsson
lee
Sunrise
Aubameyang
Vil
nhuô
##illac
sủi
Chẩn
Arthur
VQG
##onin
755
GG
Garros
thổn
tuất
##ouri
past
Mugabe
khò
Heart
433
Chèo
##andr
Kob
Wisconsin
tuốt
Dâng
##BH
Tata
965
Panda
Spears
Thompson
Watson
##mingham
nhoi
Find
iTunes
Lynch
Komp
##bala
##ns
Bắp
ipad
voan
mb
Săn
Assange
Rốt
Bear
Dance
Salvador
PVFC
Rev
Hawk
Hos
What
rinh
Mahat
##ization
028
Wolfsburg
Bee
##oz
Indian
Đực
Story
Sán
Leste
ĐTM
Hua
CHIÊ
Lắng
Zor
ĐÌNH
SBJ
sch
shoot
Trốn
ngươì
chợp
Luang
BLV
Điêu
Demo
ster
528
Grant
##rix
Đoài
CHƯ
mé
Audio
##adil
champ
hoă
Suzy
Maybach
Mệt
Tucson
Zam
Bum
Comm
Kình
##apol
Duệ
uk
KHO
##suit
016
Aero
##rena
vlog
PDF
Huff
ARM
Germain
##HR
Dat
Eto
Josh
Riedl
biden
lb
gióng
Zero
hách
nhuốm
voọc
##atinum
Ngầm
##inka
##aming
##lanta
pes
thụy
Olivier
Ngâm
##của
cpu
Buck
##iffel
Thailand
434
##achim
Sz
Whitney
cộc
VIẾT
Dennis
Wifi
Tước
Timothy
VỚI
chuốc
NHẬT
Systems
1600
Soobin
875
##ippi
NBB
##tect
open
##tz
Pradesh
NAS
Farm
lap
##abin
865
Xót
Mít
Wind
##band
kỉnh
Đâm
Mí
Was
ele
quỳnh
##usa
chình
dà
396
Guillaume
dẩm
TRIÊ
Fiorentina
Mandela
NYSE
Logo
##ricio
Vung
506
Winner
Copenhagen
tone
Dead
##BĐQ
Danang
methanol
Ivanovic
Pants
Trật
Bayer
429
chô
1943
Roose
nhơn
##anced
DDR
sọt
Lauren
426
Ớt
##acca
press
malaysia
##NI
fintech
nải
Phìn
Madonna
##athip
Hughes
Xêu
action
rọ
trịch
VBĐQ
##copy
422
Kiếp
Antoine
##olet
Ace
momo
Lima
vis
Ericsson
Húc
kheo
indonesia
lum
##tông
McA
LAM
oái
##UT
Head
##feld
##cô
Siro
##velt
##hyun
Wook
Daewoo
nhão
QBV
franc
Bradley
Jai
ĐIỂM
Mận
Sanna
##Vietnam
Scandal
424
735
##elles
Latakia
438
Tiệc
##hima
Pham
Leipzig
Firmino
cv
ADIZ
##endi
##aryan
Vắc
THÚY
899
mike
đọa
tèo
dantri
##pace
##NMT
Dhabi
mid
##usk
CSTT
603
TỪ
##yah
ALC
Prince
Soon
Ngạc
ASUS
Educ
Social
rel
Demi
##lah
Kiss
LL
hold
Lou
##ktok
LÂM
RR
dái
PI
ủa
hoóc
VietnamPlus
đú
Ninja
trắm
Tank
tuýt
tiều
Vừ
WeChat
vacc
Birmingham
462
Mesut
diếp
448
AE
##weather
Fold
reg
trừu
NHÀ
##fun
Jesse
ĐÂY
thẫn
##edine
397
Nestlé
Hyo
Floyd
##erial
crop
Ahn
Joan
report
Aless
SỰ
Rông
phuộc
Classic
Abraham
chườm
FIT
NGHI
Gyeong
KẾT
##ights
##forman
##tenberg
BRG
csgt
VRG
##erner
Wanna
Thớt
Care
Enterprise
nanh
507
Gray
Zhao
Sierra
If
##icy
Margar
MHz
DRC
##chan
ghim
Hormuz
Thản
SJS
btc
Hermes
Baodautu
Xen
chạn
Kyoto
hớn
CCN
##ikov
Sas
rệ
OSCE
oằn
microSD
chờn
Ble
Kras
Dính
tiktok
load
Upcom
thiếc
xập
Rim
Pù
art
gall
825
##dom
Eiffel
vđ
##Pay
##dge
##201
##nho
IE
Thắp
mt
Xêút
Omega
##IRECT
##ỘI
Roosevelt
097
nhộng
Ôm
alt
Lọ
Helen
Tok
her
635
FSB
DIC
##amco
TIỀN
Pantsir
Soleim
##ousine
Mùng
8501
Muhammad
Woman
TCN
MAS
Leh
loz
025
miss
ROM
Development
##agon
Universal
CASA
Pil
xộc
Ná
##sis
Buriram
Five
CTĐ
XR
423
Defense
##dt
thằn
##ilyn
CHF
trấu
Mỵ
Caribbe
Comey
VHC
##mu
BRICS
004
406
##lands
##tim
393
Ark
dollar
476
Bào
Zakh
Chich
Neg
Kahn
457
EL
##itic
khàn
452
giê
ER
##ending
Mari
##ateng
AirPods
POW
xòa
vtv
suit
Luka
Stol
Soleimani
##iles
lợ
442
Giã
Foods
##icks
398
Evan
##ichai
Instit
Bald
427
Expo
Barclay
Elle
Quên
604
olymp
Marca
PHÁT
Đĩa
bđs
##nett
nượp
club
Direct
XE
##loe
phang
##uthor
Caracas
head
Cyber
OC
penny
Tiffany
NTP
Tán
gấm
hp
618
CSDL
Dustin
lóe
Gear
Mũ
Psy
ref
rặng
LDG
##esley
ngụm
KLGD
QZ
Sey
Shiite
Toquoc
544
TRỌNG
484
SCG
Cồ
THẮNG
Cool
Sociedad
Hub
KLF
riêu
523
spe
935
ĐỒNG
hỷ
nườm
Previous
CHƯƠNG
gala
745
Titan
ADMM
rợp
Armata
Batman
đìa
cut
iCloud
doc
##asar
dâ
##ollo
breakout
##Do
nhàu
Lồng
PHẦN
##uni
windows
Ek
Continental
Short
ĐCSVN
AIA
chrome
Sem
##vert
Trù
cặm
mường
NGUY
Kao
lủng
HẠNH
ht
daily
glucose
shopping
AMC
nuông
##enol
Spurs
Fro
Concept
Barr
Chad
MUA
Cisco
##post
Vỡ
Ps
##aldo
Tat
449
##vidia
mề
thoạt
Đành
Gerard
Morsi
Hiroshima
036
EAS
ATVSLĐ
trượng
Sturridge
His
Boys
Falcon
Kind
Lenin
Kienlongbank
538
hùn
USAID
##aica
carat
Nhé
##verage
Deport
Mân
gờ
VNDIRECT
ATTT
##lla
454
boxing
##Tech
Franklin
Malaga
VHNT
intel
Spir
Hell
Depay
Friend
HDR
MIT
Haaland
Rằng
Zarif
Brend
Gangnam
Fant
##iegel
HPV
##hia
Field
uể
##ượi
les
##enta
nán
699
##Những
Iw
885
##aven
Busqu
##ulia
yong
436
ami
đoản
Marx
973
##ea
##nhh
Demb
##luan
##̉Y
Economist
Yuk
Gián
Adele
NHỮNG
OPC
tạch
BQT
VIT
Cành
##arova
Diva
TTK
Mistral
QCVN
##rô
troll
Bộc
Diêu
Tol
balo
NHẤT
Investments
##OT
##antra
lè
Tròn
Stoch
Et
coupe
##embley
Nạp
NTBD
APP
Subeo
SOS
rắm
xỉa
##hong
##imco
##VF
tum
Stre
get
Megan
sky
bêtông
ĐTNN
Macedonia
Atlanta
ERP
Nig
##ovinam
winner
Hindu
HOT
##alaya
##dson
Sudico
HÒA
messi
##elo
##lywood
mode
nướu
Bạt
Joachim
but
Shell
giầu
Cadillac
Didier
lứt
Jeon
576
QS
Xả
port
BQP
khè
391
Ecopark
ICM
##ktop
náy
Shu
1931
685
Vpop
Ward
Dara
Byung
Gate
##cktail
Ỷ
ruble
Tia
##burgh
469
Zinedine
NDH
Wigan
seri
Đều
kip
##ska
SOM
##ande
TRU
##ogo
IPC
Yaris
Linda
Chạm
Giuộc
Solar
hash
nhãng
Tẻ
##yang
land
Kalin
##rier
##df
524
##EU
khịa
Queensland
Đakrông
467
Bernanke
Naval
Residence
381
Chanathip
513
Zur
BNN
PGBank
Token
Baker
558
695
##azeera
##group
407
TIẾT
Read
rủng
##KHQ
MasterC
Barbara
hùa
##vit
RMIT
Xiển
551
prem
barie
loạng
1400
Beast
482
HDD
586
Charlotte
##apo
Nim
Arteta
##anye
##CCo
system
Academy
PVcomBank
743
##iya
Prom
479
Wen
Sỏi
Sound
##aplu
069
HBB
nõn
Marri
Bề
##neth
##bc
nghía
Liều
Flynn
sul
##rysler
photocopy
edu
Saw
Then
##esis
##View
##ides
##ances
Mit
dẹt
Grow
inf
Hodgson
919
##point
Xuống
ĐOA
446
GDKHQ
##olution
Bis
Jerry
Kerr
Baidu
gọng
Apr
##jc
Aleks
Beta
phiếm
carbohydrate
453
Thanks
##champ
Buffet
Bân
##AF
Cruiser
Bụi
slo
Dybala
Jennie
##char
Albania
lêu
Pablo
WD
##tega
668
##VVN
##por
Gì
áy
##aina
DÂN
trê
lẹo
588
att
QSDĐ
CNHT
##par
quách
473
688
##xb
Must
Karab
Kub
sushi
ộ
Cohen
##ikistan
mảy
##zai
474
##21
DLG
pound
trìu
network
quạ
##iani
568
Maroc
Russia
Education
##News
451
Markle
Bobby
486
Rachel
Báu
497
##mont
chột
Wins
Dembele
turbo
ft
Uganda
PVFCCo
##neft
Arms
Đôla
Sulli
khấm
PBoC
Siemens
Yale
denim
805
eurozone
Riềng
421
626
##agle
cotton
xD
Stefan
ETC
Bảnh
KW
vietnamnet
Strauss
ECM
Tẩn
hâu
828
##azine
Ras
Alam
Pang
015
##irm
HUT
Showbiz
##dgers
eu
##PL
function
tnhh
Deportivo
ji
PBOC
Kep
HSMT
Mayer
CST
915
store
Nit
giậm
Gành
Ria
Lanh
Razak
folic
##lit
##come
##uj
##utions
Vista
Alleg
Tiếu
Kle
Nasri
opera
hĩnh
debut
503
GMS
sand
Geog
##etroit
Rong
Ngoạn
XRP
Jeju
driver
THÁI
##gor
518
nhăm
Cape
CHỦ
##irut
##vey
##rene
Sapporo
##ahan
##urai
Parkson
Nom
Sahara
lụng
444
Haram
mao
Jeong
giũa
472
Clo
441
Ám
et
phùng
Kwon
rỉnh
Mason
Varane
Dê
vd
##ỔI
THỰC
Sinai
093
int
2500
Marilyn
##ird
ới
Action
sit
Discovery
Schw
Tánh
khui
Kịp
Berg
Public
ver
##DE
##hitaryan
bĩnh
nẹp
SẢN
Eup
Indiana
622
AW
##bol
Cahill
pp
Miễu
rộp
Shinh
549
Chuyền
toanh
Gent
Verizon
instagram
Diều
TIẾP
motor
Hist
Joshua
##ucci
##UYỀN
Women
Beyonce
beat
Fiat
Einstein
526
##skaya
bull
##formance
##rell
Yok
489
##ders
477
464
##irin
carton
format
ĐÔNG
Orange
lú
ATNĐ
##rir
cook
Linux
##bike
##link
Vor
##trend
Marin
##rans
Lindsay
Pand
##adow
Wembley
què
rì
##được
cre
cơng
nic
xh
vaccin
628
487
##vaxem
Haiyan
##ape
story
rượi
##bur
nguời
Verge
year
INS
868
IRGC
Pack
##enne
ĐTLA
##nesota
612
bauxite
Ngọt
##̉NH
567
MÔ
Giật
431
547
phuy
##ichel
517
##anni
459
Cưng
diếm
hehe
Gỡ
443
##astar
##hizer
439
hênh
Pyeong
exp
Wolves
Tè
Lèng
##Tin
nail
Apollo
Robinson
461
project
##orno
Tẩy
Cardiff
483
credit
composite
##agi
GPBank
match
Capello
VGC
Đới
##upon
##illon
March
Loew
##icoid
##jing
Lif
Phép
##arito
Zhou
##uddin
##VL
haha
Seungri
Sumitomo
Mkhitaryan
Gay
##chin
money
user
Stoltenberg
xuâ
Turkmen
##ynos
thố
Mahathir
Lightning
##artment
lóa
bm
McCart
FOMC
Xs
578
Timo
Cesc
Ander
Playboy
Coinbase
MDB
Hagel
Dakota
##PO
##gart
##ndai
Mayweather
Lùng
##có
List
463
quĩ
Aman
TBT
England
THƯƠNG
Medic
Bùng
Busquets
##oman
Allianz
##eback
truân
Chrysler
Athlet
Taekwondo
fps
##cas
##aroo
846
DongABank
609
##icia
Bơi
Gur
lipid
514
VinMart
EOS
cell
life
hist
chong
##đã
##27
##ires
Nhẹ
job
đóm
Beg
##azzi
Golan
##esi
Hau
516
##igin
##eus
##gang
Thunder
Blatter
##alez
xẹp
##̣̆
CVĐ
##tes
624
ssd
Hope
##odia
543
Vladiv
xụp
Australian
VIÊN
556
chum
MỸ
471
1936
537
##VA
Jamaica
Math
NƯỚC
GLC
Đầy
##City
site
478
##ylan
dòm
##akes
buffet
Chưởng
##made
522
Giuse
đổng
##eyron
Kyle
indicator
Habana
Lighthizer
jong
##mid
KIA
Cub
##ffic
Chicharito
riềng
##stein
466
logistic
chề
##alla
579
cocaine
Vãi
boot
Yat
Sìn
Quinvaxem
Giê
gàu
Polit
Princess
Bing
kông
VFC
Chau
PVB
ATR
Karabakh
put
Pắk
Emdep
rói
##Nguyễn
iv
Year
815
TF
HHS
Dzeko
986
Grai
Bám
##IF
Rodgers
##onic
496
##hane
LƠ
times
Murphy
Iowa
jazz
Bae
cđ
HDV
xốc
philippines
pub
Becks
Stu
THIÊN
DMC
Angkor
Xbox
thẫm
##but
##err
GHPG
Sarri
##uoka
##kn
##Bev
ngoảnh
Anat
667
gùi
##imet
BOJ
##Thứ
Gonzalo
Dijk
Army
VG
Sói
Vinfast
ARV
sne
678
Khóc
Davos
Chem
guốc
Chuông
##evo
Liberia
##Side
##berlain
493
Hopkins
kw
075
##Thị
phảng
Snapchat
ximăng
mỏm
Lỡ
Kris
Take
Woods
##yama
Herald
##loss
NKT
nghễ
Bands
Cart
CMT
taluy
VNEN
tot
Alexandre
tar
727
Monte
608
TTr
Ice
Andreas
Hiro
7000
Caz
##hiro
Felix
##Tổng
PTSC
Chảy
Kok
Highlight
lể
OM
Alab
##Finance
trâm
Dean
shophouse
085
QUỲNH
Roi
Dir
Mia
##chang
TSCĐ
CƯỜNG
Ucr
gg
##ature
Rafa
GCNQSDĐ
Case
lừ
Barclays
fpt
##lop
dúm
Allegri
Kompany
WWF
Thùng
##ifood
tĩu
587
795
##enue
Monster
BẢN
CafeLand
##anyol
Diesel
##idon
##ỗm
Rab
flagship
TRỊ
Ngừng
Minnesota
Flores
719
492
Én
##neider
Tajikistan
SAO
Tát
mư
Alli
536
Championship
urani
##berra
##adan
Kenny
SCTV
##apluat
Đản
ứa
START
Norm
rươi
##ogen
mor
788
Interfax
TÂN
Ricardo
vạy
Blind
##pal
##enzie
##Index
Kalibr
QTD
Trúng
ớ
Missouri
KDH
##ging
##avia
616
Mut
Jud
ém
##orama
Detroit
Kona
mơn
##don
##enburg
Nature
Bluezone
drone
Chamberlain
Kaes
##ingale
nịch
Pico
##untain
519
zăng
Xiêm
Ms
##loy
Tahrir
Vắng
Vladivostok
Liz
rích
601
##agua
Bậc
553
1938
Scud
##NDEX
##ffer
562
gợn
KFC
905
ads
##nya
532
VNC
006
Karen
##acho
oăm
Đốt
Toshiya
052
Tục
Andres
bẹ
##ijder
##othi
Platinum
##augh
Ley
##avon
##ithu
SAA
lithium
Khế
Ston
đủi
035
498
Dick
HHVN
yeah
gly
VIS
##time
Fau
##Go
##imp
Alvaro
##chai
##ums
##kíp
##DD
##uba
Daegu
Atlantic
##lade
Neb
hol
##mm
true
808
Military
Levan
552
##fort
Sirius
QUYÊN
Dual
young
Espanyol
996
Wealth
Ori
##git
##kar
cuỗm
Container
Pele
Joko
##osan
Kanye
##là
Gigi
NLG
011
Ely
SGDCK
NBA
ngấy
first
##̃I
Cul
Zurich
Turin
##cn
khoải
boots
PDR
Sneijder
1933
digital
ARF
Melinda
ESPN
##osun
##acet
MPV
ECMO
sop
Tuchel
##regor
Trắc
##hean
Giàn
557
SF
Mitt
Special
Mold
Gangwon
Congluan
cùn
Nicholas
skin
Hao
527
Update
Player
##oph
##yle
peso
##rill
Bast
Honey
slot
##VP
Johns
##cherano
Viss
Ranieri
BKH
Flappy
Shayk
media
767
##ede
toyota
Hyuk
TRI
Havana
Chern
BHS
Dub
018
571
##iFi
Beirut
Kuznet
Flickr
NỘI
##encer
##shere
##gia
Jens
mố
Romeo
icon
Jiang
tửu
Look
Kud
Prix
Blair
##cape
Rid
Mikel
Hiểm
lẩm
629
Monroe
##ECH
##ois
ngáp
Strateg
LÀM
Florence
##yuk
quot
lẵng
Nation
Lách
FV
bĩ
BỘ
##sang
Rojo
cóng
Wright
##xia
Hana
coron
ct
Ether
ev
##ized
617
ITC
phẩy
sign
729
627
##iu
ĐKD
Baek
Hiddink
Đàng
lẹt
BrightSide
STO
Housing
548
OTT
TCVN
Liam
602
Veyron
ks
##AX
Nghèo
Ariana
##PPL
##agas
##anov
Giản
##Ờ
IEA
509
OMO
Bổng
##asoan
Olivia
iran
Mascherano
##awan
511
##rập
Khơ
Talk
##oker
Alm
usb
Lukash
HKD
audio
##eong
map
Kosovo
Xứng
784
Alexei
##̆́C
##mers
SHN
Schneider
attr
dằng
FAA
gaming
Libra
534
Thiểm
Dab
care
Nishi
loát
slogan
Adobe
Gao
AEO
hủi
Marshall
NNVN
Liền
Ảrập
Huffington
Moderna
Hễ
##imart
##ippon
đơm
##RL
dell
##home
Dawn
cort
##hop
Challenge
##uring
##kho
Hui
YEG
Lloris
Vidic
bẫm
ĐTĐ
Leeds
trendline
Joel
HƯ
Athletic
##usta
Canberra
##CNhiệt
sít
Avatar
##ring
nhại
##AV
lù
canada
KHKT
Đeo
Jenny
563
##amph
812
Galat
WiFi
946
RF
chipset
Marriott
toasoan
529
xiaomi
##elu
Gianh
Nưa
cocktail
##GE
9001
oCNhiệt
##edi
Boko
##osit
561
chường
det
SAT
GIẢI
945
hee
Sofia
749
tien
1937
sình
##ouk
Oto
##TQ
vga
Mei
Hudson
Thấp
Product
Paolo
##bout
##arro
Wilshere
DiCap
Rakitic
Khắp
598
Burg
##aith
Huyndai
Florent
DHA
PHÚ
Osp
##trom
Nặng
iS
Andrei
##ammar
Sôi
DQC
Vãn
Ảo
##ỷ
##RD
VNCH
Macbook
##inki
tẹo
nhòe
Oregon
DỤNG
AQI
Tommy
ị
quặn
Hid
Nồi
Stev
Levante
##mouth
Quô
Litecoin
MBBank
##right
##Các
cói
##onda
Aramco
##orf
Neville
Caribbean
Dãy
##omin
##chinh
##uga
zero
Chém
CNXH
DiCaprio
Esper
chọt
Nvidia
Euphr
cro
##aphaco
Beo
Vướng
##isson
ved
LƯ
Lở
Boun
##perty
Stars
Parad
plat
FMC
##ăc
##zin
Valdes
ĐL
542
566
649
##PI
uẩn
cở
cheo
494
article
991
1925
Sáp
DWT
Mick
##ịu
geo
asp
Keith
Hấp
carotene
KK
Spring
EcoSport
PVP
##bient
Colin
ngãi
569
Walt
Rogers
Doctor
##dc
##hang
##abal
GDĐH
PHI
Shinhan
Bour
Traphaco
Lều
Dạng
##osph
buy
LCG
Rand
quằn
KTXH
Milner
Magn
##Trung
UTC
Tấu
##Mos
típ
Magic
Kaesong
Phèo
enter
Dế
Hul
cmnl
Soul
lab
Lol
Kamp
621
date
Oper
Saleh
Dave
##oria
008
673
Xâm
sid
##endy
thồ
769
Yoshihide
bụ
Utah
sậm
Shakh
##alanta
564
xém
Fuji
589
khải
VEAM
Versace
##kkaido
public
chồm
Rush
UH
Kushner
Yeo
Rousse
rưới
AIG
##utra
Nina
##elts
Tau
Khalifa
iF
bỉnh
From
Crown
streamer
Stef
##CE
Thấu
CDU
tb
Eug
KTTV
Sov
1917
Spiegel
##champs
IJC
844
nghịt
572
##sar
quẻ
Niêm
Orion
Gau
##ises
Elantra
##uzu
##Pal
Nicar
Noi
491
Edin
968
Zhu
##õa
Hilux
642
Peng
Thr
đớp
lằng
Winter
Cip
Pick
Bầy
554
Silk
Vip
611
nằng
607
Intellig
Euphrates
Zah
TỔNG
loi
Sancho
926
toác
nhể
laz
Fernandez
rớm
Heat
Napoleon
dượt
Draghi
LLC
##oven
716
##yon
##nbull
##cab
Altcoin
Country
Loading
Boateng
##hock
Ghen
Thoái
641
đìu
phét
##shop
Ventures
coronavirus
539
STEM
RSS
Hir
about
##enstein
Vl
Celta
674
Fol
Praha
Cell
mĩm
ICD
583
Nippon
fal
CSM
PY
Wanda
chới
##ges
TTKS
túp
mich
Condotel
##udi
##vez
TISCO
Aw
asen
Turkmenistan
đuợc
LNTT
Gonzalez
Ring
Body
Grey
INT
ĐỖ
Pte
Child
ĐKKD
hem
VPN
nhúm
##intendo
Blancos
##liner
Phàn
HTS
galaxy
ul
thạnh
481
nỏ
##mobile
##jar
Seong
Sell
##ithuania
nhử
low
Gy
Feng
rốc
##eles
vầng
Dipl
##worth
Adel
Blan
##edom
tool
Hash
Bengal
##reat
our
##tek
##ỮU
XO
shot
Juncker
GIAO
Exynos
pastel
thênh
Mendes
##week
washington
char
ring
altcoin
Khed
Niu
686
Cọ
mũm
réo
MỚI
938
##add
606
Side
nẹt
##agne
##ffect
Kot
garage
Cald
Vực
én
Margaret
Dana
##colm
Khỉ
Spy
ngưu
HỮU
dửng
##cio
diez
hard
vẻn
ÁN
shock
971
804
613
QTDND
##quir
Vinson
TOÀN
669
##CCS
##icogi
Thê
Film
Jared
Lon
##ndon
Wed
way
Check
##phin
KỲ
Pác
Conn
##verter
Vietstock
055
Stat
Triumph
##gher
Koeman
Summit
Gin
ĐÀO
mus
Muộn
úa
tiki
Christina
##ardi
VX
##cial
Hokkaido
Naomi
BrahMos
spread
##ffield
Vanessa
Helino
Boas
##eto
ngấn
sar
##ibu
Tỏa
Hin
THUA
##online
##stra
##chill
##zman
arsen
##kos
Pictures
##pro
TCCN
091
Fah
develop
Geleximco
Hớn
Attap
IVS
ĐKDT
Siam
ACE
Turnbull
752
hihi
ngọng
Monde
Gong
tx
##tos
BoJ
ANTV
##48
Century
Lei
##mpic
##awr
SƯ
Ngỡ
alo
##craft
##rav
Guang
Ping
coli
##ocar
Societ
Hein
Haley
mòi
ngụp
Ortega
##ique
Gồm
##cat
Samd
949
Economic
XDCB
Six
Collins
Cathay
0914
ABBANK
Vod
##nheim
Sv
##ivot
VIX
Vigo
ADX
##anium
chếch
RU
vại
kiềng
Moses
xõa
Naz
MBKE
##ming
khuân
wid
clone
Xơ
bõ
phẩn
VKSNDTC
##hak
581
vuột
##AL
Quát
701
Chay
Sạt
653
648
592
Não
Amanda
##iman
ĐỀ
Hels
##asaray
Gấm
lg
Nol
Khoe
895
jun
Islamabad
ngổ
##auer
Blackburn
tong
##icker
Moldova
Bryan
##aroen
Werner
Mobi
Fries
Heng
Hựu
##ushi
Jazeera
Licogi
Suez
Tasco
##may
Born
bấn
text
pal
Anti
Linked
lact
Navalny
##code
Alberto
Ksor
Newton
IFRS
giư
573
Khedira
##stantin
bluetooth
PVG
Nicaragua
##isic
054
099
908
FAT
##imov
ngoáy
##INE
xị
med
conan
Khỏi
594
lũi
##Ho
BTNMT
NOXH
handmade
Kindle
Meng
##IỆM
thòng
Romero
##DV
Julie
PKK
pent
Bach
tươ
##Bike
658
Autom
vip
814
Cesar
kiwi
abc
Clas
##eaux
dau
574
vedette
Kwang
fut
CBNV
Zone
Natalie
McKin
##itano
TrustBank
HMS
##ƯỞNG
Rhod
##ancer
AII
bôn
HỢP
gran
gđ
Xấu
531
Ruộng
Điệu
lọng
thủa
Kagawa
MasterCard
phờ
resp
Zhong
Skull
lear
thy
JW
Lithuania
food
Thấm
Atalanta
##aca
521
GIỚI
Himalaya
Vbiz
hoc
HAR
Lehman
654
##ienne
##Bộ
Consult
2040
Pag
ghề
##aves
Kad
##eem
##Pink
##oitte
Miệng
Mount
PJ
HF
BLA
Adams
GAP
##lee
Mốc
magie
Geographic
##mler
HTM
quại
##osn
Apache
##Tài
CPP
546
Kumar
##ged
Woz
Running
Galatasaray
##hisit
quạnh
nhoài
##Mark
##rame
Carlsberg
bio
Muk
MQ
##̃y
mót
Maser
Tổn
##asser
Evo
nịt
ĐVO
##ptop
Cỗ
TNLĐ
truồng
Age
Fay
##athi
##adone
898
##jon
Kè
634
BDS
##eli
nd
Dâm
Mobil
##lahoma
BlackPink
##Nhà
ngăm
##ủn
##egro
##không
king
xổi
pat
##ÊM
QPR
045
644
shisha
Lomb
741
722
dộng
phúng
##GDP
Afrin
LGE
bands
Gust
Cost
652
##ehy
lụp
bob
shit
ngòm
rubella
Oc
##asma
Fo
Hebdo
##thu
Buồm
Pasc
CSIS
uric
Bail
rate
Fus
088
Yatsen
HỒ
Jonas
ghì
thủi
hỡi
ĐÀ
Vietbank
Tiễn
Foster
Hitachi
Warsaw
alex
mọ
##trây
Bolt
##midt
##icut
STT
Pose
Quick
Fig
Petrovietnam
Nhôm
basa
8000
DG
bẹn
661
Saigonbank
##korn
nhem
khêu
Sầu
title
Sacomreal
619
##igator
month
##aty
villa
Abhisit
vượn
tuý
886
Tụ
Deschamps
NSX
GTX
ria
923
KẾ
##đa
##addy
582
Kathy
ngoi
GMP
RP
664
917
Vóc
##fr
VÂN
Hack
Communic
lă
Access
HE
Shakhtar
##doch
##city
Aer
Momo
Phuk
liê
tq
681
##oxide
056
PetroVietnam
##UYÊN
spot
BCI
Kèo
Nhường
##59
##ril
Đoa
037
NFC
##ucky
Carey
Deloitte
##iFood
Only
707
Xiếc
comeback
Amp
Pix
Philippine
691
712
Iker
NZ
VHG
637
Lille
##hanouk
614
Optim
Det
Typh
rsi
clo
Twin
SOHR
Tivi
Community
DBS
638
##Me
##splay
Cen
fly
NKG
##MP
Duật
Ishi
blazer
Tun
SANA
##phcm
Mey
bỉu
Uẩn
Outlander
MF
loẹt
##ovan
voteid
Pharm
Café
786
714
Khơi
##rist
charl
717
Tỏ
Troll
##aper
luâ
Honor
Boldsky
campuchia
MWC
##côla
quắt
##ulife
Trư
Ralph
Samdech
903
ĐSVN
AIIB
osin
Thuở
olympic
File
##ving
THỂ
##Ngân
Montreal
Sheffield
711
##EAD
bass
##tha
Clear
JB
Claudio
Server
Jeep
Megastar
TMT
Citi
Bok
##sun
Hyper
AEON
896
pressing
Institute
623
JS
##aise
##uttgart
NutiFood
TGP
Velvet
Đr
##PCO
phới
##awrinka
china
chel
672
Concert
tie
rữa
Reus
633
Radar
Train
ronald
Giuseppe
838
Philips
##bana
TTYT
HƯNG
rec
Kwak
BLACK
Louisiana
Ngao
BCG
##lev
Romelu
Ottawa
Bấy
Dio
##fect
KTN
Account
EI
##TR
##jad
##Doanh
Alabama
track
Hara
Weekly
which
##mei
Mahrez
Zakharova
##thal
##dress
##dapest
Gunnar
921
Fadil
##fur
Aqua
Kylian
Kirk
Huracan
rắp
PTC
SBIC
HBO
Mizu
lọn
932
ẻm
Woodward
1932
Khao
Racing
chiểu
909
Cerato
IUU
##itzer
Emery
mill
Wer
Cherry
Mấu
NHO
829
Hn
541
hagl
fol
##SL
Trạc
801
BTTTT
##leep
Litva
Phà
Brasil
Thier
word
726
Para
Chart
##bientap
##mani
plug
GDNN
##visor
Pizza
##TEX
Maserati
Trib
people
##ennessee
gâ
##jero
Chủng
banbientap
Easy
FL
hớp
try
Empire
oliu
CỔ
Victory
fair
##Việt
##life
Đoán
Leop
JC
SIP
Guo
##tedothi
Dm
Vertu
Sew
Tip
quánh
ballet
1300
cov
##sworth
##ference
##amel
HG
mem
##pes
chun
IPv
Mustang
êkíp
Đãng
Beverage
##dale
##zuk
Vietnamobile
pi
Mauricio
##ku
Vovinam
Soy
CPC
632
platform
##VI
Fisher
Ván
039
Bớt
Sik
Rousseff
##pole
##ils
Stochastic
Sandra
##bra
Syn
Nghìn
urê
##TB
864
958
Lybia
Oklahoma
Quad
Wanbi
904
Centre
9000
Bống
Nong
CTTC
TRIỂN
Nintendo
##37
skill
sandal
Malcolm
Jian
IOC
GHPGVN
Navy
##acetamol
Stuttgart
edge
734
CHIẾN
##apolis
NGHĨ
IHS
PayPal
lìm
rỗ
sea
##aug
##̃NH
779
##shin
ETFs
ĐSQ
##adept
Woznia
mn
##uru
Forum
DỰ
Elliott
Carr
corticoid
silic
639
Ent
capital
rom
Ức
Felipe
MMA
##etting
Cord
Bú
Pam
Chặn
huề
forum
1890
touch
713
937
Bark
##yi
##ellini
##tract
816
Bron
##amac
##assem
929
XN
Hailey
ACM
Ngòi
##ĐS
masc
Summer
Clasico
Ghosn
Griff
fi
##mous
##hara
##foods
Bổn
phơ
Duke
Sophie
##cumin
double
Ernest
RFA
Eriksen
điếng
##Play
##pin
amazon
Mix
##Thủ
Lóng
organic
frank
976
Chibi
thớ
065
bọng
quơ
Spe
##bel
676
##ỐI
Ethanol
##odom
Emer
GDPT
821
taekwondo
Place
Hưu
Drop
839
Oxy
dể
Phillips
Dimit
Ayun
VnIndex
Ivy
##riend
Wawrinka
Vinmart
##jic
##epard
##chu
Hủa
PAP
brand
##tvt
##enegro
##iler
682
Scarlett
August
APG
Jing
Mito
Uh
pơ
paris
Friesland
916
JYP
KPI
Kiatisuk
SĐT
Asahi
ASM
TRÀ
Blake
939
##ograph
##imedia
CFO
Musta
843
TRÌNH
Berm
Chẽ
Muammar
bấu
##evich
Ucraina
Engineering
stud
##Ngh
704
niêu
alumin
nhó
Khuya
##istant
Rey
Kuo
Rafale
Kệ
Gaming
rén
##agh
Poster
Puy
BCC
CSĐ
BOG
Kil
Reddit
sell
##school
PSI
polymer
hashtag
##ƯỚNG
683
Bored
PPI
PHÂN
##anning
679
CXN
##hon
##IDO
##lobal
##oe
Chir
1911
Phanh
KTV
Stalin
QB
py
vè
##rd
##ries
hoả
Tomas
Chech
Pw
ara
009
Thoan
Jamal
Wit
##sing
Phận
Hamp
IG
##enkov
723
cacbon
Sihanouk
Helsinki
Bei
708
Planet
##Watch
Dứt
house
Getafe
XC
nt
nhìu
Sumatra
bua
Vinas
687
Bizlive
Nab
##UP
ANTQ
Gemadept
VTVcab
Bordeaux
lững
##batov
phiê
SMC
756
bâng
Nhữ
Party
PHR
PVL
##ION
Vall
vnexpress
##enzo
##HH
Nghê
profile
Rik
Vò
766
##ladbach
Vinci
Bẫy
quô
wave
##rs
ĐỂ
##aval
866
PCTP
dem
Copy
WAGs
Phuket
662
Mirage
823
Budapest
Mack
##ombie
Nakh
702
##iper
Arch
Saddam
Manulife
ĐO
Nhâ
Thạo
Davies
Webb
##ulf
##oàn
Pô
Kuznetsov
YO
##mane
##enei
##LK
Shel
years
MBC
Lukashenko
FORE
Noda
Wolver
Eagle
922
MX
##ilen
728
849
Nến
Qi
ĐNa
Marawi
Isuzu
##oS
tno
Carne
##rod
##iance
##jaya
nghiêp
Florentino
##daplus
pep
591
vón
NIM
##ooter
Rut
nghếch
##bic
774
VIETNAM
##FX
VINASA
988
bonus
Freder
CAN
Suth
657
DIFF
ngạn
##kina
##ooc
Dylan
##cor
Zhi
cash
đẵng
##avonoid
##ermo
gs
##GDPL
Vlog
thăn
Nxb
Genoa
nn
Private
arg
##001
xốt
Montenegro
##frey
Tỳ
Rắc
##stad
Malay
033
##Ở
tời
Trăn
593
Ship
Cắm
##ogne
Oleg
Armstrong
ĐI
Sisi
Bish
Flip
That
Lướt
green
pate
##One
VietJetAir
Are
crôm
##ould
Claire
019
Kido
Rứa
Phen
Connecticut
hão
LUẬT
muốt
dt
ninja
Dut
Poseidon
Kod
Studios
NHIÊ
bat
Carbon
CHỨNG
757
EE
fast
Raymond
kt
liệm
##itage
MetaTrader
Tennessee
Scr
Hornet
cx
Digi
Jacques
Pereira
Sint
vạc
Chop
3200
##window
##BM
##esk
Huổi
Bremen
643
Khay
Cry
TÙNG
##ostr
##edict
MIC
Hague
##gam
sực
Forest
##qua
Reno
LỘC
Gerald
Attapeu
Paraly
##tion
hz
Lucy
936
HÀNH
Associat
Charm
Caroline
Nghinh
##omics
Bild
Roth
ghiền
Kazan
Warri
image
Koch
Prayut
choai
##etto
Pokemon
hc
Blink
light
khua
596
597
Kung
Foreign
Zheng
Bosque
ol
Wag
mov
ửng
887
IO
Khô
856
hiềm
Choe
##hay
Rosario
Chechnya
WP
751
Grig
EIA
Fukuoka
848
VSH
##ưm
mẫm
PRO
Viagra
##ướn
Robo
Oak
Phỏng
TSC
Bốc
Đước
Tow
Berbatov
MTM
Kak
Khamenei
##wasong
Sprint
##istar
Wake
them
744
HIẾU
##otic
##ige
Court
bds
CBR
CSND
Simpson
Crow
toại
analog
##zukic
##nhanh
834
sars
Đạn
##ighter
659
enzym
##Tek
##ansa
IDICO
súy
Rumani
Cheryl
Typhoon
##World
bel
ĐKXT
Madagas
láy
Thierry
EuroCham
Đĩnh
##orla
phầm
PIN
trườn
Andrey
##etamin
PLC
cloud
khứa
966
gă
KTNT
##cielny
Fargo
Jag
Đụng
Isab
Tyson
902
AGM
##mels
Triton
Schmidt
##hieu
693
Masdar
PwC
white
david
927
JET
Mỡ
Vesak
miều
Rolex
ngoằn
##sten
MRI
656
TỰ
##put
sales
khạc
County
Odessa
Jút
gtvt
nia
thg
##elia
CSKA
##onnell
Mohamad
Khalid
Airb
Chua
Mitchell
##cki
ruồng
xl
díu
AND
DUNG
Rapper
##imbun
692
##DAQ
##TTY
Saostar
THT
lia
##ogh
Atlas
Hm
coupon
##amacare
Rost
html
huawei
Rẻ
BNV
##cheng
Monica
Lềnh
##iday
##ulu
Metropole
Nhện
Sophia
Loạn
Korean
Lãn
donald
014
##asi
Property
Frontier
989
dead
Chloe
líp
Charoen
Mund
Kaliningrad
eT
776
Camb
Tad
677
646
bec
Jalil
##̃u
Koscielny
798
pdf
1918
KGB
Fiesta
thinh
969
DNVVN
##uld
FOB
Pew
ĐOÀN
663
BÁN
Tyler
Kinhtedothi
mớm
Sed
loe
baking
738
Cazorla
##các
Scan
NYT
custom
Beverly
Mous
Điên
Phớc
Betis
##ancesport
##AMA
PSV
tạnh
khong
978
977
Bernie
Baldwin
Telegram
907
Ernst
Mountain
Metropol
Glor
Wendy
Room
just
Hwasong
mùn
Mash
879
nhốn
647
what
ONE
TRỰC
bòn
##jal
xép
Diplomat
kiếng
Sandy
Herbal
759
Clar
858
kịt
xt
806
Path
##phong
PBGDPL
##sonaro
##antha
LPB
thít
Spirit
Miện
##spital
Rùng
festival
##eke
fund
746
viển
Suất
Giz
Xoa
##hin
BVN
Thani
Bóc
Khark
Rahman
##skiy
Bs
Mandzukic
Print
mú
Sevast
##etic
giựt
ge
TMS
volley
##EFL
tank
ATI
##elf
Rung
##Kong
Brien
818
Derby
Toà
##illing
Pub
tau
Dực
Abrams
Pv
Shen
Dọn
Prof
##Camp
aut
Prayuth
only
farm
095
Pajero
Medical
Prông
733
TSMC
##illy
ANĐT
Pơ
Daimler
Deng
Heath
068
Highlights
##vili
DANH
963
Yulia
Obamacare
Rosneft
mangan
Hamid
Og
Chosun
Bơm
Tea
##etty
Gand
SINH
Advanced
asean
878
SAP
##adon
HMD
well
TPB
Bean
833
Tina
dật
Storm
##verde
Sưu
Otto
959
caroten
Dash
Stones
889
Merlo
bươu
Vissai
mascara
dô
BVHTT
PVOIL
Hulk
##vas
Palermo
thuâ
cool
diê
Chon
703
ĐU
##ezi
tele
Tap
##hl
xư
violin
Stephanie
631
Ipad
Norodom
BLTT
##fen
##iaz
##AG
FEC
viêc
##merce
iq
vy
VÀNG
rảo
##anin
954
Slav
Reed
732
service
AIM
VCP
Keane
Javad
tuabin
##andom
038
Beaut
877
Murdoch
Given
Tusk
##tens
phèo
mần
Bass
##AR
Eurowindow
phay
Ec
music
mak
##ipras
soft
082
Udinese
852
##mall
GrabBike
3600
TRÊN
Chinese
GTS
Mariah
bống
Gior
Gund
Lưỡng
##PINK
##GN
Tủa
Every
GW
Oa
##ÔI
Shimbun
CHUNG
HUYỀN
826
dark
724
974
##nha
Zenfone
Bôn
Mizuho
brazil
##onghean
TTATXH
Gõ
tút
now
Vicente
##bil
Human
Sorento
822
LinkedIn
Szcz
Bavaria
Hummels
SEAL
Xiêng
trớn
UFC
##với
Comments
Gross
##ieng
lói
hoắc
pot
nicot
##mal
Trữ
BLACKPINK
##ér
design
gener
desktop
924
microsoft
##asin
NF
706
##qlo
mcg
Prag
##ante
CNRP
Moreno
entry
##tho
Gap
arab
Bry
792
Industry
Curie
##monella
smartwatch
netizen
Bạ
CSĐTTP
GEX
##wat
##és
736
##acao
697
##ersin
GETTY
Cắn
Alo
Manager
Ding
Buzz
VNACCS
health
##ennes
##imoto
778
772
##enco
Innov
TCHQ
##xay
Ngập
Madagascar
##ards
DBC
electr
783
##izzie
choán
##antas
Yus
1100
Krug
Reply
Eduardo
832
Ngát
651
##wide
Dil
912
Vất
BNP
LĐO
Lloyd
Ellen
928
TẠ
Div
khuây
867
Dion
cit
987
Xôi
VietBank
NASDAQ
##onymous
##jima
##aldehy
Luồng
Ard
##sei
##rik
bak
Vinschool
Magazine
Krasn
vẩu
TTH
##Báo
696
DĐ
##rough
##olski
Two
cer
##TTM
quẳng
tếu
Zag
đụt
nạng
ron
CTS
##azette
Greenland
##vang
Bolsonaro
Analytica
Iris
##Re
Silv
Trop
Deal
Dì
##share
956
017
ceo
Petra
ráy
Eddie
ghém
Puyol
##ethao
BTR
762
Chớ
Schi
lét
Utt
Sevastopol
Kitô
##fam
Xạ
Kansas
029
Leone
Viber
Bosch
Lông
Lud
##IFT
Vietnamese
##Cr
##ifan
Celtic
vạm
Akihito
Lừ
núng
##jee
LƯU
dat
Roadster
vức
NHS
culi
##doanh
fashionista
Shib
Mrs
##asmine
##drop
Zay
##truction
wall
DNBH
##ỐN
baot
Oslo
027
854
Tian
##estone
DMZ
Tsipras
Granada
UY
Hwa
962
ebook
webcam
Christie
048
##unya
oc
Jake
boss
volume
##emont
THÊM
Platini
Author
hẵng
Hwan
brow
Vinacafe
thãi
##vy
##IE
Luzon
748
781
nũng
bina
Resour
Brendan
Lù
##tok
Schwar
Greenwood
Wigo
khèn
friend
Trin
PAK
alpha
last
##phenol
Sullivan
TGPL
cosplay
ep
HOÀI
sám
Facebooker
tằn
##̣̂U
Jis
tip
022
TOEFL
Dabaco
827
Ous
Henri
Lượm
vcc
Seag
982
##jn
709
764
##OSAI
##Phong
Arc
##asso
##tario
##để
Middleton
CEN
Urban
look
Ráng
##zel
MTTQVN
##phis
cót
Agency
##esny
Xài
##rate
##MV
Aden
##intuc
giụa
Lie
684
Cra
Kishi
##Taxi
758
Industrial
857
CSXH
Hawking
VBF
sony
Khéo
Nghiệm
đên
##umo
##fol
##6900
Gren
JSC
1934
Falko
font
731
Hudd
DƯ
##pur
##hor
##atcher
013
HANOI
Parkinson
TBNN
rúc
Chửi
##asan
Penc
Sàng
Lặng
Computer
toạc
NTL
Broker
thoăn
##send
outs
bid
##Cry
1050
ASX
964
Nặm
##yanua
VSC
jump
##ovina
Organ
Cec
Truiden
Building
754
Joker
983
##bow
742
UT
Stegen
amidan
Heritage
ronaldo
stoch
Filip
return
BoE
##bine
##wal
##quan
Herbalife
##abyte
Giận
Kẹo
Airbnb
avatar
Termin
ls
GX
##ÂY
Harrison
793
GPXD
1935
##adar
Quyển
771
##lak
deep
Stevens
Walton
Eye
squ
TWICE
ThaiBev
Morales
THEO
Brightside
##fire
Hep
Trọn
second
gv
morning
Double
Panetta
Podolski
Bailly
McGregor
sitcom
crai
##down
Taro
Madison
NGHĨA
xra
##BE
Cris
##HP
##eni
Pure
think
694
773
##ites
nguyen
##roy
Khựa
Heather
##ulouse
Lord
Khiêu
933
Baonghean
Bukit
Ce
hòi
Ceb
NNT
##vertis
##kinson
Éo
comments
TÍCH
its
đoa
nhũn
ichi
##No
nil
gí
Fernandinho
Nau
##hiko
KHU
Image
DVC
WTA
##ppa
Dok
##ements
Burberry
##anu
##hnikov
james
hác
791
channel
Chrom
nghét
Páo
tẹt
HIỆN
Kospi
false
Pascal
WeWork
##wo
803
034
sôcôla
ríu
##ueta
811
Panther
Douma
đồm
Clever
##IPA
Khuyết
UPCOM
##amphetamine
Photoshop
Ngải
Record
FF
USDT
##uat
Mastercard
782
cùm
mob
##OE
Sane
Ellison
##ause
Robusta
Thầu
948
Ryzen
nhẹm
Hip
chỏng
##fried
xuề
##mins
Hampshire
Walk
Ctr
914
trác
##arning
Lucky
##unch
##trex
Celine
##antara
talkshow
Hadi
Szczesny
Râu
##Food
vnd
Kaity
##anao
##tory
NET
ry
Chul
hyun
Băn
MCU
Alain
##araoh
Kwakwa
##break
Vỉa
HĐTL
Margin
##obyl
Valverde
1919
MRCC
Kíp
Mirae
BF
Kangaroo
NEO
##anam
Bìa
819
Ép
##ylene
robusta
046
Wah
chễ
##KV
Fren
Hob
cmnd
Mượn
##Fone
Cheon
ngọ
chelsea
Panorama
##ebec
##tum
883
SPD
901
##bre
Toul
##zyn
ber
##bac
khản
Ontario
Glei
rupiah
TIỂU
Reading
InterCon
Laser
Valle
Gig
##zhou
diên
##asmus
CNA
Tầu
2100
penthouse
##along
##inejad
Azp
oper
##fest
##iful
Tạch
Bravo
1910
Lenn
EVNNPT
##loun
##orter
##uku
Sty
offic
##ores
763
Toulouse
Never
##olin
##brr
their
AMM
Biền
807
##riy
Wor
XÃ
906
671
882
Kentucky
Terra
##water
##eby
some
824
Rodong
Chứa
yê
Rèn
VCF
Thẳng
##VX
Tù
ka
Sales
943
##CKH
ỉm
đét
Ousmane
##sev
Merrill
Massage
Lacazette
Lohan
876
Photos
Heidi
##Press
##omy
058
Verma
Lex
Stuart
tphcm
ăm
##erb
##KTT
##oint
##tner
Prague
993
Spotify
026
Sheraton
Taw
Barn
Zap
##ès
bad
Điếm
cherry
bìu
##illator
GSM
Ratings
Combo
##izens
đăm
kid
OPCW
Solo
Bore
they
Ik
Pắc
1912
Nóc
Ner
Còi
meo
pick
Skrill
repo
##mandu
Thank
fame
Tedros
OF
##erox
lead
##Station
Kenneth
##butamol
Yves
Chil
##emiro
BKAV
NSC
pur
##estra
Alisson
value
Irene
đảnh
HTML
Sisoul
History
Easter
##OẠI
NFT
##atedo
Pai
053
Jup
##rao
chỏ
syria
##ots
##poon
951
##ĐTBXH
mr
##bers
SWIFT
Chợt
984
CCQ
switch
product
##ilicueta
Dolce
nhởn
##ivar
872
nhèm
views
##mai
Cox
869
oxi
learning
Hacker
##reb
##fore
##anza
Billy
filler
Yatsenyuk
nhao
Casa
Kuro
Jur
woo
Crưm
KDL
Soái
Mốt
##̣e
##arius
BMC
Genesis
die
##uard
Fai
Vong
Ném
Nếp
gẫu
Burke
Hoán
Buông
##hamas
Dah
Tách
tíu
Anonymous
##wald
cuội
997
842
Beth
##iona
Ramires
##usha
chon
President
Pie
đb
##antile
NẴNG
##rina
Antonov
nạm
Horizon
Lahm
tulip
APC
Lơ
##ayan
ĐTTC
##kal
incl
Ngần
Mississ
##coust
Tart
Calvin
Đắp
Sylv
KHTN
Elyse
Suýt
vietbao
Boom
Taiwan
cad
cle
979
does
Afr
ẻ
739
QUẢN
milig
THỨC
##cript
Paralympic
##unk
Vital
Sense
Gustav
same
Melissa
Flex
Dreamliner
xệch
##YD
Azpilicueta
wushu
VSP
kệch
Desire
Xín
Chở
859
Darm
##chor
##essen
hotboy
Posco
banner
Nations
##Cổ
Lạn
dk
##LM
glut
lar
##hart
Sewol
##OB
Fabian
eToro
Equity
Retina
##quiao
##doria
Mổ
any
phơn
957
Intercon
884
##iner
##Sc
862
Admin
sideway
Quạt
Tax
cave
sap
KHÁC
##ators
##vic
086
023
Origin
Nestle
##Người
TOÁN
pips
Sisoulith
##ols
Intelligence
##Star
##ablet
Lứa
Seok
Endg
Ambani
ngộp
Kovac
Hector
Gum
##ernment
flavonoid
fil
Phăn
Pavel
##ellar
Vector
Yersin
tủa
836
Ryu
Yes
bụt
Qantas
london
Haha
##uchi
Haj
Amaz
Ilbo
077
setup
##ethe
##igno
NCS
Selec
ã
UC
dụi
Mercantile
Nghiện
Average
Johannes
TIÊU
TAC
Adriano
Nomura
thảng
##quest
753
##action
Lẩu
##myr
##ayev
Cali
COD
032
CBTT
Johansson
##look
Oprah
##Cont
079
947
Nồng
Họng
##inker
kiết
##eler
amiăng
083
THỜI
1928
Tul
Seas
##minster
ICAO
biền
InterContinental
JD
Shyn
##eyeon
942
##Car
TAG
##adal
Von
Xôn
##dore
gallon
Lynh
Past
Nutifood
Riz
dream
Khiến
IMP
Spl
Lốc
##grade
Bik
Samantha
761
##NE
GlobalG
Push
Kerch
Thongloun
GTC
##Thông
Lago
remote
ươi
##antino
Suri
##iser
##thing
Feed
bth
##acin
Uttar
813
Memphis
Hydro
Hanel
Ăng
Tràn
Chiellini
FedEx
##letcher
NMLD
pano
econom
871
GIỜ
Teo
Solutions
office
Tango
##ener
bur
Ờ
Malacca
##chy
Joao
EVNNPC
##nien
##amera
Ballmer
Paradise
SÁCH
891
okay
Gov
##inique
browser
mun
EVIPA
manag
compact
Rupert
##adol
Seg
ppi
QK
Quebec
tuốc
nựng
Endgame
ĐỌC
control
baotintuc
##var
Duân
ISIS
IPP
##RM
Luna
952
APS
NHIỀU
KOS
Ailen
vỹ
##som
Pete
847
mos
VAS
HHT
Mp
##ission
##elof
Mult
Wing
ccc
Aniston
##ibar
thốc
trằn
##aye
934
##HĐ
dot
Books
Giơ
Casemiro
cacao
Gw
program
tuế
837
chau
913
Sugar
khứu
aff
TÌNH
944
know
Pomina
niềng
092
px
##elen
Yoona
Avenue
##urri
Justice
GMC
Tym
Beh
center
Bluechi
698
OCH
Wow
##uno
Anatoly
Hospital
##quang
Nagorno
Save
equ
KSB
Kav
##ersfield
MediaTek
##pay
797
gdp
##leigh
inc
##ẪN
Chae
BHD
thẩn
Kalas
Sep
Luhan
1280
Bhum
MLS
joe
873
Trad
851
phỉnh
EDM
##estin
##wij
Ama
LNA
Buffalo
##ÍNH
Nới
863
##hal
BBQ
khựng
reb
817
Baggio
##uzaj
Boss
hal
bhxh
##trick
##ctro
##cules
##hem
Bahamas
Konstantin
874
##formation
Porter
huyễn
Karzai
Performance
Ngọa
##apt
796
##vat
Viêt
ngấp
Glo
nhú
994
techn
1927
Sampdoria
Robertson
Natalia
##CoM
Movie
QNa
Tig
oxal
Chow
##max
Beer
rỏi
##aguchi
##oops
Đắt
##UI
BỊ
##akira
Đuôi
Uniqlo
Gepard
benz
##chuk
lổng
Protein
Hew
##psey
##EIC
Cưu
BLDS
trạc
CFA
##adeco
See
##fiq
Viwas
##GM
Hoãn
HIỆP
QUÂN
TIM
Robbie
Mần
tiễu
Troy
##fly
ất
VẤN
night
thuô
gộc
##DB
GNA
chap
đắk
Januzaj
881
GrabTaxi
Calderon
##ishing
Hato
##bane
##bby
nẩy
##hil
ford
watch
##010
thọc
TĂ
WannaCry
thoai
Branson
##Tỷ
Wilbur
Mitsui
Norman
harry
gở
##anne
##Mail
BLĐTBXH
madrid
Our
mẩy
khơng
721
Glazer
Skin
##chimoku
ĐÃ
Jasmine
##ễu
Mồ
Chernobyl
Faros
VPS
Turner
##emanja
CHỈ
Kẽ
mịch
Tò
Coast
Herz
Óc
##kl
Ciputra
GCC
Who
##0000
atm
Bed
lazada
Vote
help
##otr
##enb
liver
##isao
Alp
Bain
972
got
##oost
##cing
##ubb
Bau
##fon
kềm
##hazi
tand
##ensen
Guzman
Kathmandu
Mạ
Chóng
TĂNG
máo
Quoc
să
961
UpCoM
Stylist
lat
Itar
RGB
Xh
VCIS
Flam
Byte
take
##insky
Sandro
##IFI
##ebay
siro
PepsiCo
April
##rai
ASOSAI
Raheem
Ponzi
Gart
Tàn
Whe
Choice
rĩ
Reyn
Faso
gột
TDDC
KPMG
Lầm
Lặp
HIỂM
HY
Kurt
ĐẾN
Astana
##WB
Burkina
IFA
sat
##bis
Sess
quota
GC
Ismail
fu
##tock
riu
Alexandra
Benigno
Azov
Raph
Tablet
Súc
##utoday
BCS
Ramadan
##ework
Elena
MỤC
##atek
Beijing
PCX
HKQT
Ahmadinejad
bớ
VMS
Fone
Pì
Tourist
Gorbach
941
Politico
tánh
trọi
##arie
892
##Campina
Nara
đọt
Phác
tuô
Naw
##dea
KSA
Thắt
aspirin
Satoshi
##olds
Unic
BQLDA
địt
grand
Essex
Ily
853
NHÓM
After
EQ
Jia
chổng
Nikolai
Aus
Richardson
interest
VNCERT
michael
TUỔI
Đai
DNS
nhiếc
Artem
xẹt
PF
Lốp
FHS
##atic
Maas
##jor
Brist
NCC
EF
makeup
##arazzi
Aziz
color
Lindelof
Carnegie
##uckland
VBA
##eco
##azaki
992
Carry
Policy
KTC
nhố
Rebecca
##wha
##STA
##econ
thuy
Fletcher
Neteller
Hoe
Phuong
APPF
Dus
Dora
chlor
AX
Hig
##zag
Vera
Mist
##fth
ringgit
Antony
Cologne
Otofun
Advis
THẠNH
Hus
Thein
Nagasaki
Dynamic
##ccess
QUẢ
##HK
sandwich
KTM
Nemanja
Bend
Samba
KI
dim
UI
Hollyhock
Thờ
Intercontinental
Todd
##PAC
Kiểng
##BO
Ryab
Craw
##erjee
Bolog
Sonad
841
Mansour
##Drive
Truông
HÓA
Kali
##asek
Ads
cũi
089
Pà
##bull
DHC
Ướp
Hư
Tựa
Ghé
Ign
Rest
Newsweek
Axit
##đi
##adep
hậm
##ibol
Imperial
Au
Xì
FrieslandCampina
Gut
##rong
Moo
##chun
HTD
##coustic
cộp
Know
Emil
##nt
đòng
NCKH
fail
Benghazi
dam
jim
Dempsey
lềnh
bõm
##leans
Rộng
##eka
Đẻ
Madd
Changi
VPBS
Advent
##evic
Phillipines
fore
steroid
##aldehyde
mạp
Atom
##DIC
Tuan
##Ad
cortis
071
##GR
Muay
vđv
limousine
##meier
TEPCO
##leck
found
Sut
NU
809
Airline
##aj
south
Ez
##raz
##lô
ign
ple
premium
##ebr
Fitz
NVB
##ih
##yev
##atsu
tuc
rim
Nikon
##daily
Khau
NLD
Architect
ANA
##theon
NHẬN
Preah
##iant
##ified
KIỀU
078
SAI
Blood
Supach
Christmas
HẾT
Nash
BANK
ngoe
TCL
Edit
serie
1914
VOF
base
GIC
##veland
##ership
##Tu
Sonadezi
084
794
Fury
Pear
Emmy
Pacquiao
BVHTTDL
Mining
Darwin
Liang
##upol
rám
chiền
Nine
dv
##isong
##thon
capo
ngáng
José
Quýt
##iven
kháo
893
##WC
##pply
dớp
soạng
Suthep
Travis
stand
##yaf
global
Panmun
FN
JLL
Rita
ql
##road
Townsend
##verev
##Life
##MH
##uxe
Cavus
champions
LIỆU
kang
##ibas
Nimitz
ệ
Sepp
sồi
Bris
TTB
##wing
##LCP
giòi
##teria
##amy
##Ông
flo
investment
MINI
##istr
Philippin
sũng
Pato
Cambodia
##uso
Katherine
vối
##ument
SDĐ
YouTuber
##zaar
##jom
Carnival
speed
nig
Đao
##bb
TEU
SQC
063
BCTN
ĐIỀU
Blinken
861
##cket
Mỳ
897
Nouvo
CarPlay
Rocket
Tuỳ
Globe
Mississippi
CME
vờn
##spot
1440
bủn
phosph
##west
##lim
##trade
##amura
Shakira
gú
Thomson
##rot
Lub
##head
##kinh
Hercules
VCI
064
pres
McConnell
mọn
Dangda
Kei
rứa
##ơm
Cleveland
Methadone
rúm
quẹo
831
macd
crush
##Fe
miligam
lém
##entin
Sever
Ting
1001
Multi
076
kkk
##uly
bằm
pt
Board
Gorilla
##ally
ever
bợm
##ansai
Sedan
ĐIỆN
##fee
##jay
##meim
Custom
##NTech
Mae
búng
dancesport
Offic
Alps
##tober
provid
Figaro
##ceton
Quàng
##acer
##otonin
Auckland
khem
##ometers
Cavusoglu
VƯƠNG
YẾN
prom
021
Zambia
Piano
YÊN
Sạch
choi
Ambros
party
Ngưng
Dám
rây
Southgate
##khut
Rostov
##nguyen
BTP
cand
Hyatt
coca
Chum
xtrây
đẹt
##cation
Text
RD
##SEC
061
vợi
cùa
##islav
Viking
Jupiter
Manor
##oai
Vê
khăm
Bakr
##eop
CSI
##upco
Bert
Zenit
##nch
Mog
NSW
##sak
thanks
##ection
buột
Spencer
Perth
Ferrer
Organic
Chal
poker
Citibank
##Time
Analytics
seal
NGÔ
##igl
confirm
Dag
Smile
##artz
đẫy
div
Brem
##obil
tm
066
Maurit
##odymyr
kay
đụ
Harm
airlines
dề
XUẤT
vấy
Sta
##OMO
gạn
BIM
Vinastas
Three
Kalashnikov
031
Carrie
Rov
FECON
Nile
Showroom
Huddersfield
Gaul
##ossible
##KK
Brow
zombie
Giêsu
folate
QA
ừm
##tey
Marg
##uban
firm
KWh
analy
Gomes
VISA
Kĩ
Transit
vers
Mell
EPL
Đạp
Spect
pic
##ostone
##lux
##ergen
DRH
Stox
VCPMC
##vening
Vanga
Carroll
##lement
Program
Budd
##ardt
DPJ
Bishop
Towers
nồm
Ey
##iten
##ansom
##engen
Hít
NGU
PNC
nhông
##trib
##Trang
##uang
Kyaw
Joint
ZenFone
Cinema
##ync
##omoto
##Dance
##zilla
Theodore
Ans
Hoff
dz
##ONE
Mangkhut
Inside
Heard
Urs
Prada
israel
Sultan
Kishida
Paper
Carsc
ASI
##antes
ISI
selen
BioNTech
JETRO
##etel
TÍN
##awesi
Bhumibol
rp
Labs
Citizens
Sek
lux
1700
##otor
##otion
TRÍ
phên
Cẩu
Giov
HỆ
Xabi
Winfrey
##dal
##chio
Sabah
UPS
##nhang
057
Dw
062
##LCNT
Clay
##vajal
edit
Mụn
pas
Phao
##Force
Ratch
Karik
Andersen
company
Ryabkov
after
Tuồng
Xảy
Stefano
Dutch
Rib
Mụ
##LO
traders
##icron
953
Adebay
ic
mấp
Pred
nak
SYM
Volodymyr
Navarro
pet
Elvis
Fiv
Cara
RAT
Rivera
Thiêu
Tộ
##Home
Pung
SIC
Nikki
Chê
894
Mission
bond
Darren
Bologna
anime
Truidense
tơn
McCarthy
dặc
##rek
Signal
##bok
USDA
Benedict
nhổm
dioxide
Aviation
Phel
Operation
VIỆC
Amway
Canxi
##Coin
##onica
Philipines
oang
##jen
Death
##ashvili
vùn
1924
FII
##IỄN
fit
đỏng
boa
Candy
Macao
Reid
Rộ
sơmi
##Mỹ
##meimim
##̆̀NG
Pó
##kit
Rasmus
NTT
Screen
Gorbachev
polyp
##fthansa
vanh
Gis
##adget
##Không
nhiêù
Finals
nitrat
Yos
##alis
KHI
931
June
Mersey
Kingdom
KHOÁN
lh
tụm
072
Dứa
Hiroshi
Konash
##NY
Catalunya
thiến
##copene
Tuế
SQ
##Arena
Pax
obama
rận
most
##dium
Inform
elo
amd
sền
Kill
Cnet
Admir
LK
##onium
nitơ
Buckingham
Jordi
Quầy
MOU
mul
Want
Sein
asia
Thanos
##eran
##itech
Silvio
##than
trẩy
##allah
Tet
Brooks
cortisol
flor
Sulawesi
Carvajal
Clara
DHL
Ert
Pagani
##rine
##mim
Cãi
##rizio
Cayenne
Thib
includ
đâù
Host
mởn
##rest
##osology
kẻng
##IO
hide
##berta
oke
Dublin
JF
mexico
Step
VietGap
##QPPL
##ste
phablet
sneaker
Nago
Tribe
need
##cock
Taeyeon
Gianlu
Sands
dòi
Gabbana
Xế
Fraser
CIENCO
toét
ĐỐI
Phô
Vinax
##JP
Osius
PXS
##Quy
giắc
Brig
SCO
secur
Mindanao
Valentino
Ris
vani
##indh
TNS
Uran
rệp
jung
Mallor
barca
##ĐN
Sadio
sì
ByteDance
Trừng
Phunutoday
##ợng
Sicily
##LR
Bazaar
##ftar
Vicostone
CCT
##acon
Thiềm
Ngoc
Rogo
Gallardo
cườm
Mariupol
##utuber
rạo
Bướu
Lải
##aia
tap
Youth
049
1923
Judo
##Eng
Prab
##erm
##esse
Raff
XTTM
Bụt
Solomon
Assistant
IDF
Adebayor
range
Resources
Anim
Juliet
##công
húi
PlayStation
ocha
Wai
Đói
Lufthansa
cfd
Cước
Khử
phy
BAN
Jew
CQCA
Viwasupco
Sagna
##ification
Passport
engine
##rock
##tas
Koi
EBIT
nục
##BB
##49
Jackie
rum
xoạc
967
TÔI
Bongdaplus
Single
bòng
Sò
thào
Chain
BHN
PHẢI
##anova
##von
SPF
flu
##uli
rua
antifan
forward
Chiba
Superman
Gulf
xuẩn
Gym
Kudlow
IRS
NEWS
Biss
Sạc
target
Kirin
Bận
##ngth
hơp
Giorgio
upload
Hmey
GN
manga
##edge
Brin
##hic
TVQH
Kiền
phớ
Wireless
Lưỡi
##KN
phụt
##akis
Gibson
ICOR
Stor
##icki
##ayama
HDG
đon
Merseyside
##onga
đước
xuyết
##Trade
##bij
1010
rường
gap
how
SGT
ping
Torino
1926
quắp
##erco
Hotgirl
##celona
Sonata
Marian
bike
##MEX
SPT
##raska
Sharif
ĐC
Gạt
##cture
Sính
number
Chand
##aware
Jill
Vim
Runway
Avia
Sapphire
042
MHBS
Brug
##Xem
##annon
Sirte
ll
Hemsworth
Diệt
Gibral
Princeton
##raj
Leopard
Satra
Vocar
Cop
##rel
##iba
##ws
Ngại
Unit
VNF
Kitty
Transform
Suss
Billion
MSBS
##IPO
Dồn
Dome
Anastas
Phom
SAS
##ufact
đễ
Sinmun
ĐẶNG
Kuin
##lai
3500
##cano
Phapluat
Elsa
VFS
##ayo
##abolic
FOREX
hey
##ulinum
Hên
dươ
##tôi
##VE
khương
Metal
##TU
Vinaxuki
Parma
Ngan
Bud
Westminster
##avor
Thal
Hyung
Communications
Sharma
Shibuya
PTDT
Konashenkov
Cúm
THVN
QUYỀN
##kaz
PCB
node
thoang
Association
##etch
dire
Xhaka
TÁC
Asens
Vocarimex
Sino
ngắc
vạng
Tymoshenko
##Eco
TienPhong
##zynski
Quynh
##elka
ORS
Johnathan
paparazzi
051
fibonacci
Zverev
##ando
Balkan
Chiron
BW
##test
##grande
##ebol
Gaulle
VDC
Urus
##akhet
##cé
##song
chởm
Beller
TOEIC
lt
Generation
Martino
domino
Raphael
toe
##icle
đếu
Pá
##fram
nhài
Panmunjom
Mị
fed
Đò
Juergen
bẵm
##UE
TỶ
paracetamol
Priv
ngoèo
LẠI
ACT
ọp
##jaj
073
047
SKĐS
##chart
Optimus
tor
Associates
Ertiga
##Chủ
Lukas
carb
other
Tree
Hannah
gato
đẩu
##atimes
European
##stream
Era
THỦY
Wak
##ebrey
Jas
Nhánh
##ching
WE
##IỆT
##acey
##ởng
Orleans
##ircon
Paribas
Bonucci
URL
nhặng
##angel
Lich
cảo
##arena
##aburi
NDVN
ậm
Hyori
Rasmussen
VIN
Thayer
##Forums
067
Búk
##money
Logan
Stark
TDC
##xit
nghỉm
Koen
phổng
PHÍ
Xing
##IDIA
Nott
Joa
Mt
Mải
biker
Ổng
Sala
##ppy
Alexa
Đờn
Cheong
##achment
Gundogan
Tím
yam
##qui
hattrick
nhảu
Epic
MTP
Champion
Chìm
Alej
BAS
QNK
##Trong
Swe
Namib
Cult
Strat
Kiêng
Zum
##Content
huých
Cream
AGR
##bard
chuôi
PVTEX
Asensio
NSD
serotonin
Hèn
Gulen
rịa
chẹt
chụm
Yao
Edinson
##market
Emerg
VICEM
Thiem
##ues
Thở
Machine
Klein
VY
CẦN
beauty
sớ
Thorn
##STC
Cod
THIÊ
NHI
acet
cươ
into
##TTH
Hãi
ẹp
sủ
Berry
Ural
VNIndex
mur
##ebreyesus
Beeline
TGDĐ
Icon
thó
Panamera
##indo
Days
Seltos
lớ
swing
##brink
drop
plan
Mú
Learning
Nhắn
Rosa
Banker
Sens
Rocker
sồn
Stad
Missosology
been
stochastic
Manbij
Kissinger
044
HƯỚNG
password
vff
##quy
iFan
Zac
BHNT
ngái
##meichel
xcơ
Annan
MẠI
Flo
biêt
Zy
khấp
rùm
Fusion
rằn
##Doc
##Point
clinker
JAS
Kirby
MCC
Nishik
CNO
##acha
TBD
TUYẾN
Yuanta
##ỆN
Rủ
TNR
lạn
Defence
ôsin
##iph
UBKTT
Brisbane
cụp
Mann
SLS
##asuna
##cut
weibo
##lar
Khớp
nhụy
ART
Lic
##hampton
excel
Leyen
she
Circle
Nicola
mir
Kry
Send
Haftar
VBQPPL
##uary
sms
##uage
fifa
##eson
NGO
Middles
Cheonan
nốc
##anga
##akers
Gibbs
##aglia
Doosan
Fivimart
081
Friends
Vitaly
##ivad
Sot
059
##SCT
AIC
##jek
##iences
PTKT
Gain
YoY
bựa
Freedom
ĐCSTQ
Mãnh
pull
##asu
LAS
Roh
blah
##RR
Samurai
Karachi
Commercial
##ĐC
##lake
CBC
McKinsey
STK
Michelin
Alessandra
Gibraltar
##IAM
JPA
khom
Transerco
Saga
CRE
hinh
##ultz
##brough
Nah
ut
Chút
Eriksson
Edison
Louise
Há
bor
Alicia
Bennett
Dolby
Amir
Info
Capt
Rubin
##PE
##valho
Lal
sapp
Icardi
Cúng
Cover
##arenka
Berdy
Hotels
Tàm
GSP
1922
VÕ
Address
##ench
CLMV
Klose
sếu
doji
Nhắm
##isi
AO
##pu
TTP
vẳng
Tanaka
##UA
NPT
toáng
AMN
Abid
Nebraska
Miz
thũng
Viettin
Carney
IDG
Sanaa
Span
CNOOC
BBT
##Ngày
0000
087
Andrews
Pull
Dominica
SantaFe
##yer
barcelona
WordPress
voice
Tribeco
##omeu
Beatles
MMO
kwh
ngoắt
Ricky
##rado
Thinh
Schengen
Taobao
Robinho
Franz
##ngh
EBD
##alongkorn
##asak
Job
##fitel
Steinmeier
##eve
Yaz
Nhậu
##adin
TVSI
CỨU
Bridg
Gamb
##kova
FARC
psg
##quirer
Malik
TTXD
Hmeymim
KIDO
Sac
Shield
##vette
Gìn
WI
piston
##VPHC
Olympics
Ajin
HIỆU
Bermuda
also
Kidman
Banks
VietABank
Mign
Montana
Ối
Ami
Henness
Wa
##iere
##ller
##NTM
##ectin
Lilly
##estan
THAM
Belle
Zu
CSG
Herm
##keley
Sandberg
Strategy
stoploss
VNX
HongKong
1921
hic
##trage
Osasuna
##wanda
##iflu
remix
##ricia
##akespe
UYÊN
##aris
Huống
##cass
thcs
##adeh
kong
Couture
Alcantara
Daraa
Mab
Seed
Berjaya
Kharkov
HIỀN
Common
Kelvin
Suboi
sir
##acht
Thêu
##ếnh
SSCĐ
Churchill
soo
Klaus
Kant
Platform
PJICO
2027
vnđ
Ghép
Kp
Gamuda
Hatoyama
##egui
advertis
##ource
##ades
Again
Arabica
TẠO
##DO
Armani
##uko
Bẩy
Đùa
trẽn
Bụng
##orus
Titanium
Inte
Mori
Perfect
iMac
Bristol
Cot
nịu
Rangers
Soth
Sadeco
Ctrl
véo
Gandhi
Watt
cắc
Curacao
##asia
##avong
Azarenka
URC
Vac
dẹo
Đoạt
Colombo
ĐVHD
Pattinson
Búa
Sold
Intern
Lambert
risk
beo
Things
Monitor
arm
##cend
Berdych
##santo
BLTTHS
xổm
Zan
Sofitel
Navig
PhoneArena
##ango
Bulava
Julio
Glenn
Clarke
Khiển
HẬU
Marqu
Aleksandr
Trôm
Grad
téc
Dominique
DTLCP
Ghebreyesus
Viềng
Wesley
Monsanto
Lynk
FCN
california
##idong
NVIDIA
Intimex
Aurora
##asco
Schmeichel
IOS
##nick
##atan
truong
Ruồi
Giul
Ghét
Yanbi
Saif
member
##eroy
Ngẫm
local
##yssey
zai
Soài
Guus
Cres
##door
Azz
##unge
Fle
dởm
Value
Dropbox
Maxwell
Spice
Irma
xính
HyunA
Sussex
Đố
AWS
##yun
##ersonal
Paypal
Windsor
IIP
lđ
Adren
HRC
UpCom
ÂN
##Ợ
Temasek
UF
NGHỆ
##alon
Chảo
Valery
##người
Ain
Bam
Sét
Torn
Nadella
QTC
NHUNG
vozForums
MKI
##KTTV
thọt
Lanc
##isc
Oxfam
TỬ
when
Nagoya
TẬP
Puig
Congly
jumpsuit
Dairy
Oxlade
BÙI
yu
##Chính
##iffe
merc
##sm
##atr
êkip
SDR
Consulting
XPVPHC
kung
Ajinomoto
đù
ISP
Warriors
virút
Pichai
ghìm
Samir
##far
Most
panel
Arkansas
vint
Potro
##Một
##aur
LỊCH
cano
leng
Amata
DailyMail
##mich
##cham
Truman
Navara
##recht
RQ
##eok
MAN
Olga
Yellow
##arden
Carvalho
Eleven
social
DCM
##uyff
HKVN
##uit
##Id
2400
##quid
Lennon
Activ
consider
anth
VAOOOO
Flow
detox
Duo
Winston
Nex
Noah
vietcombank
caffein
##istry
hiphop
Friedman
ignore
Vòm
##ansomware
Stade
nghen
bấc
saigon
Insta
##AST
Osprey
Flying
Tụy
Kimber
netflix
Tito
Dro
Oct
Stella
Kriten
đì
VietnamNet
Saab
PHS
Jacobs
Ichimoku
Totti
Delaware
##orte
Luộc
Ou
Rúp
giập
hường
##BN
bện
Prec
chấy
many
móm
Conan
Edwards
Battle
Lèo
Mignolet
Fum
Gregory
Cbiz
Gos
simp
VV
pit
Giường
Hotsp
Selecao
##agar
Ref
Ếch
##To
##index
Sayyaf
##pring
rệu
Kepa
khâ
0913
##china
information
Omicron
Fields
Bid
Thặng
Barbie
feed
Pong
KHLCNT
vintage
##aziz
##rabook
Kritenbrink
Jov
##amic
BTL
SPC
attachment
gàn
thúi
Kul
074
Ghz
Sình
ĐSCT
Mev
##buk
Vietnamplus
Bounnhang
Wes
paul
nhành
Diane
XZ
##sports
NSDLĐ
buô
lúm
liverpool
Thuý
Alliance
2028
Canel
Scol
##orov
dj
PHƯỚC
##alladium
khuyển
Transformers
wc
##ottom
Mona
KR
##verse
ních
##vard
phin
Đuổi
Mathieu
Annie
Bì
Bernardo
Noble
Glas
tuyê
CÁCH
THẠCH
Feb
ĐTNĐ
##ertz
##qt
Micheal
Kẹt
##bh
041
Lada
1650
##cies
Sax
Raytheon
Fact
Dí
##404
vinfast
THVL
CapitaLand
Holiday
country
Information
Dậy
##hafi
Fars
Portland
Sharon
Khốn
TÍNH
lm
Nickname
##insula
Sái
bios
PSA
Thuỵ
centimet
Kbang
offer
Escape
too
CẤP
Rag
Kut
##EW
IATA
##antanamo
##xing
Edinburgh
##irez
Forever
TTCN
1901
Outlook
Lian
CAX
Sẻ
tc
##tsov
Clean
Darmian
##egi
É
đẫn
Huoai
hyundai
##rios
##asing
##otech
DHT
Didi
QUYẾT
##SK
##inha
his
Saud
Pah
sdt
Úy
caption
Eastern
##CKT
Vaz
##acio
LĐBĐVN
Mendy
IMO
Ursula
Bẵng
LR
trap
CTr
maxi
##ession
THÙY
including
##mania
##oper
rền
##ĐP
Kurz
GF
Graph
Pont
##akespeare
window
##kou
Luy
pgs
international
When
##emin
Thrones
Vermaelen
Bartomeu
KSV
PHÒNG
Chặt
Dot
Temp
Cryptocurrency
Vie
Peace
VPA
delta
Ngắn
TSBĐ
##nel
tokyo
Kiệu
Carles
grow
##kram
TSN
profit
Cayman
dổi
HOẠT
##olid
wal
Markit
Carscoops
UX
##town
că
##jab
chúi
Arts
Rui
cũn
Renzi
publish
gư
Graz
rọc
mooc
Osen
IPA
##ean
##nhouse
iốt
Batt
RG
neon
Tron
APT
THÂ
Ui
1908
Milano
kr
ngoạc
Mertes
##EE
FTC
GTB
Rosie
Cruyff
Giốc
Valer
##carbon
TTGD
Alip
Gir
QUẢNG
mazda
Marquez
Shadow
Unai
Collagen
Yud
TCĐ
##jicic
plut
Pồ
Nutr
tráp
Beau
##esar
TDP
EIU
here
Fresh
Wushu
xúng
##dah
Trầu
Aly
cache
ĐX
Ned
ră
Brio
Surab
Hanwha
Spyder
UDIC
Nơ
Tut
##erna
trig
Denver
##ographic
Mish
Mertesacker
##patch
##783
hope
sound
LVMH
use
##ebank
Peg
Melia
Bod
Herman
ADP
Huay
##lot
Keng
arabica
##46
##abo
##ippo
ĐHSP
Right
MAT
OA
vios
Bellerin
Prado
Vig
screen
Nia
Milos
Ness
Rwanda
Đốp
Lả
qual
Beyoncé
Normandy
Hời
Tị
Wozniacki
Thù
Brenn
##rencies
rặn
every
luộm
caosu
##lycer
Dele
AFTA
Kẽm
Chích
sor
đung
Soyuz
Oan
##vision
Drilling
polyphenol
Moussa
##yuki
Vinaca
USGS
CRV
mas
##mag
Braxin
Danilo
Nicki
##ofi
Drew
thuộm
Bastian
Rò
Tamp
lất
Burger
Keep
thým
fox
JL
Sòng
##SM
Keynes
BIS
Artist
lúi
##etegui
thóa
Rolling
Touliver
Fujitsu
asus
CSU
##seca
##achith
PVTex
EN
##Có
Chén
Kono
Koenig
LTC
dl
Vaj
Mie
niê
Target
##sair
VTB
Atkinson
Dew
Worldwide
##asone
Vujicic
##tit
thược
French
Maha
McAfee
Jard
##aires
##rul
Chài
Mort
slide
Ambrosio
##orie
THÁNG
##wings
christ
Walsh
Doraemon
Cất
Nolan
##esca
Nhặt
Amazing
GlobalGAP
##Hà
##pho
trãi
Residences
Havard
Mắm
Borisov
Aspire
Ito
##56
ngỗ
Vinashinlines
ABA
Ngón
Samar
Guantanamo
Fiji
##omberg
organ
Akh
dua
Xiang
Jisoo
##foe
nhụt
##amer
lảm
Blogger
Heavy
Naru
UPU
Ivo
HẰNG
##quo
Ear
Savann
Depot
VNVC
THỐNG
Rosé
guard
##gye
ATK
##UM
Dật
ngoằng
Spart
mach
thuồng
Mozart
Quinn
Viva
Why
austr
Blackberry
##xic
Nêm
Insp
CHỌN
Osset
Final
##amendi
week
##tona
##now
future
VEA
west
old
Ports
Joyce
HUỲNH
lycopene
AWD
Vạch
thanhnien
fx
Đái
##Hg
RPG
Khab
Khoát
hđnd
Eld
VOZ
PAPI
##entum
##egovina
##ersh
industr
##feng
##ốk
Tac
Chevron
mõ
vlogger
##HV
Symb
los
GIÁO
cocain
Nakhon
Weinstein
TĐKT
##neapolis
Change
##itude
peter
##buri
Loch
Levy
arsenal
Rổ
CEP
Takata
##cassurance
bac
TBTCO
Menu
Society
##rar
##orial
Bongda
##len
##trand
Prius
Sleep
Swiss
water
xôm
Sib
Wink
nhẻm
khuâng
Sonic
Fatt
find
shar
CVN
KIÊN
ĐBVN
Ruben
Mozilla
##enda
##media
##76
Rashi
Schultz
##enge
Luca
Gartner
Affleck
##yal
else
Ossetia
Cana
ATIGA
pê
##cip
nhứt
Cản
Surabaya
##ÊU
there
luc
Eli
overs
Eh
KimEng
Deluxe
Mariano
vod
prin
Henrique
Scient
Perisic
Reports
Ams
Ardern
ĐĐK
Berkeley
Reynolds
IK
Sotheby
VETC
biz
##VCB
scam
Rhodes
Xăm
Jorg
Hàu
##Chang
Middlesbrough
Abadi
cd
Alder
RTX
naked
##Đại
Tweet
GK
Gwang
##ileaks
Alphanam
tiệp
Aben
THỊNH
##hanab
Limousine
Jour
Mallorca
##Max
Chubb
##hanom
EAEU
Spec
QUÝ
##hae
USC
Kra
##tee
Kram
Lens
##oji
Meizu
Bachel
macro
Paula
sapphire
LTT
cạc
Moving
Niet
disco
##omer
Neill
decal
Kis
hập
ThinkPad
Ghani
Track
IDP
Ngoisao
delay
Liêng
##ppel
Base
lức
chò
Namibia
Buồng
Ush
##cook
Nishikori
yang
##cil
##ẨN
Pentax
Robocon
##tai
TNC
Ruth
##bras
##DF
ir
##reira
Barron
##MCO
Chron
tich
Peninsula
Pros
Ning
Fis
Lula
Doc
Mogher
Mướp
Crawford
##erve
Artex
##force
hollywood
ẻo
TPL
Heinz
Egy
KTTT
Level
across
##HI
Kansai
Lopetegui
FW
Keita
LỢI
##ều
Sirivad
##ilson
NVX
CAS
Carnaval
Eps
MAC
emdep
lìn
Chocolate
Johannesburg
##Bl
Guaido
cookie
Gunners
Bashi
nole
william
ukrain
EURUSD
remake
CNET
Mogherini
##Từ
INDEX
Nhầm
##pus
##sure
Kamala
ment
ình
##tries
Fonseca
Lines
RI
Xông
##ahar
##achu
Tatar
CHUYÊN
Hose
HCMC
Olimp
VPI
McT
##burger
Mồng
0011
Wolverhampton
##aar
Evergrande
Passion
##avier
wei
Attila
##eltsin
WIPO
mmHg
Uly
##QĐ
Võng
Shophouse
SSIAM
Bim
Flight
Vinataba
##zhi
##etr
##isak
Herzegovina
Sheng
BẤT
##quer
today
SHI
Hốt
CKPS
Mino
cass
##mic
Exper
Trớ
Trident
##ening
rank
##ixtan
Arnault
##Lê
Ấu
VPHC
##child
ươn
Odyssey
##ăh
##trict
Alek
pos
##onder
Ub
CNV
##afé
ves
TAGS
BSI
task
Sirivadhanab
BTM
##KI
FR
##chengladbach
Earn
Shab
##moi
##Works
ECO
Zuma
Scolari
combat
dal
Indicator
FIA
đủng
Clooney
Hotspur
Shear
ANND
##mph
##quet
Zelen
Anastasia
Kodak
##gara
Tộc
happy
Barnes
##kawa
sonar
again
BSCK
Sắn
Ip
tửng
myanmar
Doge
CHÂN
##kon
Vet
tréo
Reina
BĐN
##icer
Vừng
GÌ
Alaba
Mister
currency
nap
##krasin
##aran
Pattaya
##ariety
Patricia
nyc
Wellington
Za
trối
##ophi
Yeltsin
##robi
DQ
biogas
were
##CR
phấp
##rle
financial
2600
Evening
SRC
huê
##ulfing
##wall
NVT
Georgina
##oso
fullbox
chạch
Sass
Dodge
Martingale
cruis
##chmark
TVC
Vasep
balô
Ounce
##wei
Raiola
trờ
##bolt
Cỡ
Petroland
pham
Bah
Otamendi
ĐƯỜNG
##hamoni
Minneapolis
flycam
Jeb
##ascade
##hakdi
lens
PCM
tax
##ryn
az
sjc
tủm
FPS
Marou
Boxing
Apartment
##oung
Curtis
Infiniti
netbook
Abenomics
Lost
MAMA
PyeongChang
##nikov
##active
##borne
Pê
vằng
Intr
olive
##thị
Naoto
phễu
##anger
Ariel
giâ
CẦU
skinny
NamABank
##iley
Rễ
Pitts
##bler
VINH
GTGD
Dinamo
Găng
##abit
Sule
ABT
Picasso
Domesco
Olympiakos
##terdam
golfer
##idis
rờn
##zburg
sopcast
July
toẹt
##awat
##ominay
Rhy
##efeller
##ankham
wik
Kamal
Cornell
tesla
Homes
Ix
đĩnh
khoắng
malware
TMZ
Brother
##0101
hooc
gá
##onse
Innovation
Ùn
jackpot
Member
judo
Moh
Sườn
##ehr
Rahul
tick
##ivir
##ichy
SVC
Cov
Geoff
HOẠCH
mass
Mundo
Rogozin
would
##night
Praty
KHÓA
##enh
VDS
Adolf
Franck
Kỉ
choạc
##arel
mol
Singer
Nâu
##icius
CĐM
Dynamics
Sit
##igne
Rubio
Plông
Phelps
##YC
plasma
Tartus
FCC
Mẩy
##yat
Cristina
Sành
lobby
JTC
lẽn
##game
AVS
THV
##igner
##atonin
Kand
PTL
pod
Derek
strong
toàng
##other
1060
mh
##essional
##byn
##aceut
Illustr
Mương
3930
Sakura
Khuy
Ars
NIS
Thatcher
kon
##Mobil
Trev
##oglob
Natasha
##ability
Hank
bờm
Mother
based
Catania
Fauci
Pò
Lavie
Crouch
Lall
##blade
GeForce
Tiê
##ưh
VWS
NHNo
Maine
easy
CLC
BĐVN
anten
NÀO
Adhanom
VCC
Round
##hold
tém
bir
nhẩy
##undi
MẾN
Lego
Yamaguchi
Shakespeare
Meyer
##chia
Candice
TNTT
management
Fx
dh
##GI
Osc
AGF
Alejandro
Ci
##lana
Anelka
CAM
render
##lut
Transfer
ozone
console
##Long
Ederson
##flow
Disneyland
NEC
Kuril
##SO
Tâ
##aide
LỜI
Thibaut
nhiu
highlight
ENV
Choo
##sanne
Hansen
Diab
dien
JT
##èm
Songkrasin
two
Zircon
TAS
##ironment
dual
##yeon
OIL
dõng
Phông
nhùng
Cruze
Serge
version
Hik
##tam
##Lúc
Pino
Alipay
cost
##HB
##mons
MVA
VIDIFI
Lorenzo
Sihamoni
##amingo
##xu
SMEs
Asiana
ẹ
kb
##antage
Zabal
Pratyusha
##tdown
Gn
##UN
exc
apply
##oton
##egger
##ĐD
khà
Qing
##anko
Qas
contact
Nacho
queo
##leen
IBVCB
bush
Viettimes
kiốt
ngạnh
Nhịn
Vội
want
Cold
Gbps
him
Kara
bẽn
Tornado
Pênh
##segg
Thắc
##roi
tược
private
ARA
vam
Pesh
xịch
##imate
Cụt
flow
Binz
Cookie
Tamiflu
Duncan
Loay
DOHC
Children
Wear
##core
Tec
##aim
##iza
Vinamotor
##RK
cụng
##vention
uae
##anies
tỉm
victor
##ẹm
Palmer
TOW
##cogn
Reap
lv
##ochoi
Stress
Gác
Sirivadhanabhakdi
EW
Trượt
Sấm
gông
Alfa
LMLM
had
sẩm
Phin
Switch
1020
Downing
Carla
Bailey
Africa
HND
##loc
vodka
ADC
QLĐ
##hout
snap
clor
trĩnh
khơ
bos
Arturo
DGW
Raider
Helio
##hur
OT
development
##gow
##perties
##ffenheim
hk
Cann
NGHỊ
Portsmouth
Loki
##oniac
Mohd
Iss
IVF
Bambang
madut
thơng
ACI
##TER
địu
CỘ
đom
##icz
Phẫn
Nhức
Joaquin
Pivot
Láo
##anti
Cleverley
rocker
Muse
##ILY
import
Trôi
Marchi
Fattah
FSC
Puma
văc
THOA
##aldum
##rôin
KSS
Pixar
sờn
Zabaleta
##abelle
Randy
Attrage
Lending
ce
yan
##yansk
THUẬT
Bần
Polo
gằm
Peterson
Expert
jp
Gieo
##itour
##ebo
Thuỳ
##tery
bẽo
Salbutamol
##sav
##fall
iss
Moong
Vicky
Seych
Thề
Quds
Hermès
Sà
Vega
Aguil
##pac
##adolu
Shia
quèn
saf
Ging
##KSS
Ultim
##rador
Rockefeller
UPI
KNTC
Dispatch
CHỨC
Bou
nhễ
Khấu
##yong
##heo
lới
Name
Suite
Shanghaiist
Schwab
LỰC
Corvette
Petrobras
##demont
##mantec
Blas
McTominay
Ara
death
vẻo
Sei
vọc
sởn
BÍCH
Dum
Penny
SouthernBank
GTĐB
##ibouti
##eview
caro
##ught
##hel
DAC
Kick
ATA
##yr
##cp
##uong
##utch
Rí
Sendo
yi
XXX
xuê
Lynn
Zub
Godzilla
PGA
Echo
see
##adam
violon
side
Jabhat
doi
active
oscar
Fatah
crom
Leroy
mash
DXY
##master
Saul
cnn
XDNTM
SỬ
##Trần
NSLĐ
Fantasy
xú
BẮT
Xám
CTN
##feed
Somali
Bluechips
rái
sticker
Bolk
let
Lik
ATO
##ween
Vớt
bida
Digiworld
Gag
TCS
##oneer
Kyushu
CKII
POR
ultra
chệ
Resorts
Xẩm
Maliki
##Kỹ
Phơi
afghanistan
Ches
Sami
nguoi
DDG
CBCCVC
Koenigsegg
##pportun
Autob
Haute
tuk
Jefferson
THỨ
cạ
thiêm
Khuông
HSDT
Hosni
Puigdemont
Rav
XHTT
backup
Sovico
australia
Eugene
Kingston
##chur
##ogram
Anadolu
##aceutical
TLH
Hilary
nov
nâ
Thàng
PNVN
Wallace
CỘNG
ngấu
SHIN
##7959
##atel
SAG
##wig
Gấp
train
Strong
VOC
Mukh
UNF
ĐƯ
tron
LCS
##BI
Anbar
##abank
cheng
Lallana
##EV
putin
nhíp
##vre
LDL
Motion
crack
Construction
Mé
TTG
##knapp
##pect
##47
##hein
bear
##ZA
Leave
Predator
##bas
##achev
toạ
Links
Holl
GLS
##uatu
1907
vảng
FOX
Hoffenheim
EVNG
mẹt
##aho
Goh
Dhaka
IRNA
Rotterdam
CÁO
Watan
chét
stent
##hoa
mủi
Libi
##ichiro
bmw
ukraine
Hammond
Spectre
NÀY
Teg
##auk
Shap
rest
retro
1915
Josep
##ophone
Rớt
##Money
XY
trending
Reader
Tek
fang
fc
Duong
##Be
Large
Emerging
gig
Nauy
##xít
##eves
Beek
onl
##hoy
dạc
hotel
fru
td
Symantec
##raphy
Seychelles
GAM
##jung
Giấm
Bertrand
rắt
McMaster
Vầng
Becker
Wijn
Wikileaks
Brembo
##adej
ds
##một
tomboy
Viettinbank
Lancer
Biel
Tsonga
HCDC
Cuban
Das
Thít
curcumin
Hosse
hoon
Odd
nadal
VST
Schul
Plei
Baltim
##egaard
Civil
##adou
Punggye
Ramadi
Etienne
sđt
##ẻn
diêu
Phiêng
Anandi
nicotine
REIT
tran
THỦ
xắc
suv
##148
##ƠN
##hid
Llorente
##42
Lỳ
Ké
1909
Lùi
gằn
##ief
Shine
freel
tễnh
TUYẾT
Oy
Aso
TNK
Challenger
##apa
aud
TỔ
nhạnh
##azza
Sedona
OEM
sái
##connect
Đùng
TCCT
Venture
vnpt
Chapman
##RF
##IMA
roll
Cut
Sushi
Bệ
ear
Counter
Luhansk
Nath
Rước
##giao
Koo
Hờ
vao
Fif
5600
##vironment
Muội
Vanuatu
cb
vietjet
Bion
Redknapp
diezel
Brandon
xum
Vinc
Extr
Crazy
##iform
Minut
Sail
##shan
UBMTTQVN
BẢNG
Rubella
firmware
##oh
Salis
Flamingo
KOSPI
##dia
Thoong
Rutte
##echat
effect
Giovanni
##strom
trét
GQ
Dione
sax
##jia
##eshi
qh
Saak
Mauro
Naver
Pride
ann
Toa
ISIL
đót
Enzo
Patrice
Ips
prog
##ocyan
Almaz
ace
##Online
phắt
Marion
shorts
Dog
Bại
khảnh
lẹm
Eu
Zal
VTF
NHT
Naruhito
Creative
##assin
BNB
Djibouti
Rajoy
Wijnaldum
Butler
Tell
xang
##eton
Cuomo
##ezo
Loss
SEV
xạc
##eries
Fight
Vây
CCV
Softbank
Dynamo
Race
Engadget
Remitano
IMAG
Burton
Gallery
Cóc
prop
kilomet
kayak
##HM
Dier
abs
ĐTTCO
##hingya
##finex
valy
##Que
Nairobi
Vest
2666
##young
Nottingham
TFP
##iens
##TES
Rudd
xtin
##cổ
##vip
Bolkiah
Trc
Liễn
ÁNH
Ivanov
Acura
Sundar
khẩm
QLQ
chành
LSS
Cởi
layer
Hib
nigga
dậu
##Cl
Support
Medicine
##tocin
Alexandria
Teng
Russel
Beautiful
Baltimore
blouse
##ced
Daisy
Sept
Jorginho
Scorp
Nemtsov
Pras
Tằng
##DM
##NL
travel
csđt
##ROUP
Maurizio
trùn
SÁNG
chễm
COVAX
Station
GĐKT
Eibar
Pant
phây
Defender
vonfram
Aris
Upton
Apax
Bannon
##iod
Close
Tob
Pincus
Minaj
Ernesto
##farm
leader
##umina
##onde
ANV
Kalan
sậy
Michal
Coent
Contact
1902
Oseni
##emic
##khi
Nung
Palu
ASC
##kir
Giầy
dy
##oming
process
CIF
spec
major
Zoe
quặt
access
Schumer
VNẢnh
Cuad
Fey
##obor
Payet
Hề
Luck
PVA
Drake
Salmonella
george
display
Mạt
##ẾU
Mickey
Weiss
player
##endar
Safety
Quét
Driver
Shannon
RED
school
##gari
##xe
Bebe
VỐN
law
Lara
Acid
diezen
economic
VAY
đợc
##arev
Pencak
root
Advisors
Broadway
dia
##63
Ashi
BBB
Đỡ
VIG
PU
Pratt
Reliance
Phia
##fat
##lem
CSKV
##orta
Zach
##idad
##asis
Fumio
TLĐ
##ilight
Bonus
Sawaco
kcal
iu
robert
##itas
Britain
##Lab
##Nhiều
Vej
sty
CHẾ
Temer
Ngực
Boe
Kolarov
bow
##vir
XMXT
TEDI
##teen
Martha
trip
Said
##cielago
Bui
Obi
Vazquez
Burj
BẰNG
Guide
sậu
##andan
KTTH
EBITDA
##Care
Tagged
VNAH
right
##obel
Gustavo
Zaha
IMAGES
Lager
XÂY
hoác
Thính
total
Wilk
oxit
Mầu
Simone
Dán
róc
bím
##hamm
Cortex
Airport
MST
1913
snack
Authority
Rail
##apter
##agliari
Verr
##titi
##corp
Forlan
Tốp
LẬP
FOR
Salisbury
Sank
Yin
Truong
Chắp
Saad
##ailbreak
EEZ
ExxonMobil
Inđ
Freddie
##zza
chin
gun
Nieto
##Bu
heart
Cebu
##jong
burg
ult
nhă
Pik
MacK
BGM
Masay
formaldehyde
images
SQL
gra
miê
Phức
Scudetto
##rana
##sie
NÓNG
Mukesh
Sco
BJC
Lồ
##berlake
Thin
lỏm
##gerald
##sual
##kes
Zak
NEW
##ists
Pưh
Rank
##tection
Mờ
Nutrition
Cũ
Rohingya
Twice
FCA
LOAN
Lovren
Mine
##atech
##eldon
xoe
Rupee
Cuadrado
##flot
Return
Madoff
Cagliari
Adventure
Table
##Đầu
Halle
##aign
##jah
##òi
xúy
Trượng
Larson
Millenn
khểnh
ASIAN
LTD
##sat
IDA
hano
Thornton
##imin
yamaha
Nigel
cod
Xáng
##fal
##elift
##currencies
##vezda
Thau
##ancing
NZD
tă
##MU
Beyond
VOS
VIE
##ilac
Any
Rec
Fang
Kiwi
##phi
Adnan
##ials
teleg
Uk
##OW
xoàng
Spread
plastic
adv
melamine
Confeder
##ript
HDC
ĐTV
Griffith
Huayra
Cuốc
##udin
Poker
tằng
Topol
Window
swap
giặm
##sol
Butter
ling
##Option
Order
##mob
Republic
States
##ichok
CRM
fbi
Barros
##arya
PMC
mưng
Signature
Hẻm
##street
Malibu
family
Nhuộm
Barak
##NB
Donna
##chem
Valentina
##rite
united
Leonid
Saakashvili
##PAS
Phích
##Queen
1905
Chro
xèng
Giăng
Sto
##quel
Rosen
Xyri
underground
Kesley
Shaq
Mevlut
Kyu
November
láu
suâ
Robb
Kovacic
Coentrao
##zon
Axel
Rosobor
Swee
hui
Malai
Seine
dến
##iliate
##ahce
Defoe
SHINee
##OVA
Foley
Aeros
UNH
CCI
##eopatra
ot
##gre
##61
##NDA
noel
Correa
Pittsburgh
aw
Kwan
##đầu
OH
##upta
1904
Gisele
##oel
##LN
January
Vallad
Yuki
pose
Imperia
##echan
Esco
##alam
Yoochun
Prak
cđv
million
Mứt
##tay
Richards
##fred
Rì
Creed
Mecca
wan
Arrow
About
MON
cute
Umtiti
Svet
Strike
Francesco
Oriental
ACBI
Germanwings
##Ar
chink
##build
close
Fantastic
##udan
Frozen
Brennan
thưc
Caucas
Init
Hamad
Akbar
NCL
##vertible
##gether
Deh
VPH
iMess
Rott
##you
làu
Marouane
Danielle
Insurance
##ches
TỐT
rọt
huýt
BOO
bugi
##zhal
Connor
##lich
sém
IND
MET
Vul
nhat
Crew
##ASH
Rục
##dez
##kham
Adelaide
Splend
Braun
##amount
##aniel
Electronic
Sừng
pad
##trum
BAC
##LĐTT
Flower
Wolfgang
vh
Natural
EVNGENCO
Giza
VĐT
##idium
Kanagawa
Tribune
##erd
serum
##aline
Lec
Maggie
nghệch
Payne
Woori
chic
Guiness
##ethoven
hđxx
Wald
rt
1660
Olympus
##ECS
Yoshihiko
Kuroda
Chá
thing
Coron
Geit
týp
##gioid
##poc
Gue
manager
building
Ari
drive
RAL
cg
Geely
Gavin
##blazer
Bike
ADBRO
Radamel
Yanuk
Fitness
##oco
XXII
##zar
cccd
Insight
CBOE
quẫy
trẩu
Trát
CIT
Lười
Clor
BXL
PHÓNG
nokia
Baku
##jas
xìu
##̣̆T
MTQG
Lyft
##borg
2060
##ezzi
CTXH
##shu
guộc
Izumo
khuyê
Britt
##estic
Jelly
Kb
Alumin
Elton
request
FHD
Sác
##ego
Zi
##ỮA
##swana
Đệm
Sven
NSUT
ngụa
Coleman
Networks
lèn
Memorial
Gotze
LƯƠNG
Swing
Dilma
economy
##aben
ôliu
Mara
##map
Vinacafé
Islands
CPA
Ghê
Dorsey
Emerald
DVB
own
Strait
SNG
Nasser
##CCP
Goethe
NINH
Audrey
pfizer
url
Safe
Nicol
đật
Tennis
Wick
##chung
TƯLĐTT
CDO
Claudia
Ein
thếp
##Năm
Livermore
Mustafa
Geithner
great
##ufacturing
shark
1916
melatonin
Dông
##tinh
Ramon
##LAND
1906
HOÀN
Alessandro
croptop
granite
Hoffman
##CPC
GSX
Yah
louis
##estyle
##cliffe
facebooker
SAOstar
BĐT
Eck
##hao
##tress
Timberlake
##uyu
Here
##byon
RBC
Avanza
##loh
Rowling
PVOil
RMX
Kalanick
iraq
##uzz
bath
lưa
connect
Lindsey
##kata
McQueen
plugin
##lipop
Comfort
##gorod
Hê
gièm
Sarmat
ECN
##ims
TRC
Stras
VINASAT
CIS
GĐĐH
Mead
THÌ
ICI
##ggy
##jajiva
Dẹp
##lie
EVE
Poll
Takashi
##̣Y
ĐIỀN
##Văn
martingale
McN
Fenerb
Ekater
EVNCPC
##ensis
Sessions
Lọt
xuô
##uster
Turan
##church
fire
##sd
Nướng
lị
Thược
##The
Pis
Investors
PVTM
##cribe
Zagreb
##hoyono
Kag
read
##kim
Monter
silicone
##XS
Cow
Second
Ais
AMT
Ladakh
Pany
Harmony
Siss
NĂNG
BIỂU
Impossible
Ultimate
Xavier
Handico
##otex
##odera
Sally
YT
##rett
Niz
astra
Yon
##Anh
Kool
##errari
MỞ
Shinji
shin
##Rich
Pinto
carl
##viz
Fix
khă
##igen
space
AIP
Tether
fai
vO
Leandro
Heathrow
##KL
Carmen
Bru
##onexport
ransomware
##amen
Milik
SBV
kilô
Huss
nik
##imura
fold
##pick
Tomo
amer
Yasuk
##ckes
##wijk
Cuồng
Sín
Beats
Belgrade
slow
##mor
##LI
Virt
Hến
TLS
DSLR
##andin
Murcielago
Walid
HẠ
##ados
##deen
FTM
Herbert
##mour
##Nhận
Adreno
December
Yanukovich
##gers
charlie
Gianluigi
##wayne
ĐẤT
Seri
PAM
##zuki
Glen
Hoo
Keys
Danl
Jaish
Cleopatra
Michele
Oscillator
Chak
Fate
Duk
hêrôin
CẢNH
Lây
Thuân
rủn
TUỆ
Lana
Giavang
##RTD
Peterburg
Ellis
##OVI
Halico
Rashid
Dền
TƯỜNG
##inel
Omaha
noãn
visit
Ola
##sense
Bastion
CIO
##kut
##BL
##gioididong
##OLD
through
##anos
Optima
Yudhoyono
Khinh
ĐẤU
##iktas
mớn
thank
Lives
macbook
Psaki
InstaForex
Ichi
Kac
chinhphu
bloomberg
Jed
Trú
Nôi
dop
##GO
Thoáng
nhõng
Kruger
Monkey
meeting
##itte
Arsh
Hiê
##estar
Living
Ottoman
##istor
rpm
lane
Vơ
Chạng
Teer
kít
Hammer
research
bứng
##shot
board
##atory
Lavezzi
Phys
Bett
Kass
Infantino
Sốp
Orch
Usain
Baht
oách
Rosoboronexport
Kats
Cosm
##oglobin
QTCT
##ovac
Seul
Pool
##ÔN
Generali
Fitzgerald
FXTM
EY
Gianni
Lina
hdd
Mango
kick
cuba
Penang
Columbus
##walt
##Thanh
phenol
NHẬP
Benteke
hẩm
Compact
Ligt
Yukio
Goodison
Elliot
##iment
Kato
KÝ
PHÂ
sequin
UpCOM
##friend
Hole
Alto
nguệch
Rosicky
VietnamFinance
##azia
rơmoóc
TOS
##iction
Dalat
##thanh
Topcare
DỰNG
Canyon
##shev
##cinn
YÊU
Teddy
kaki
LƯỢNG
##pen
Process
DBSK
Risk
##ledge
##zu
UDD
fat
trâ
VÌ
huhu
Vallecano
Caucasus
Nana
dũa
stre
Huồi
Rainsy
QW
Vejjajiva
##Show
Aquaman
tvN
BẮC
##aum
PVGas
adidas
Bose
##ewater
Gardens
##hny
Electro
Sicilia
##xa
chym
##lication
Pyi
Eve
UOB
Concord
Carrera
Gỏi
BKHĐT
hợ
Haizz
canô
Icahn
GEM
Stephan
##kers
##wai
wow
CTR
far
##ỀN
Rami
##afone
Ế
jacket
Choang
soóc
##lusive
rỏ
Sheryl
KING
Arun
Arjen
Stall
MTXT
Collection
##culus
ngoạm
CPĐT
Dìn
Tép
##rambler
acry
Egypt
bụp
palladium
##oulos
Prop
##Dự
Brain
WWDC
SEK
Strange
mall
Clichy
##former
Kosy
aka
##ulation
##ifilm
EMC
Produce
ell
Botswana
Dogecoin
##erman
##andar
client
Lèn
nhíu
POM
Giãn
source
Adriana
##năm
Ach
Kook
##bt
Inverter
##Boost
##anha
Cars
##301
Fenerbahce
##teel
martin
##vl
Heyn
Yue
Jek
Kiy
##72
##space
##gard
##orah
Muỗi
##Vid
##amar
Keylor
##nhe
Kém
##umb
Aduly
Mandal
Yosh
Pou
ite
mary
Spicer
Gogh
hamburger
Silat
Fillon
Shev
colle
##eki
SẼ
QNCN
##opharm
Organization
Nhỡ
Mok
TNA
Deadpool
##isenh
Pip
lữa
##gill
Cube
petro
Downey
hợm
HSD
SỞ
THO
è
small
Atlantis
clin
ui
Chiv
VinEco
Schneiderlin
pivot
Chơ
##ezh
Salzburg
Fb
Đấng
HAX
Dengue
##sẽ
Shaqiri
Yasukuni
##Lo
Edgar
##China
Godin
Sasha
MIX
##azu
hử
Khun
##nhà
October
mult
THP
Triple
##intosh
Kumho
Alberta
Lollipop
Cortana
Enterprises
vat
##tien
Castle
Ced
Phỉ
Tav
Novichok
Leonard
Birds
Grum
##UV
##otive
3060
Vodafone
Huda
Brugge
Levi
Analysis
##cco
Jadon
Monreal
Vanity
Jacqueline
config
setting
##dn
Giò
Stap
##eslav
Maddox
Aber
Hic
Labor
Reporter
cớm
CAT
##ônê
##bound
##atur
Kinzhal
Vermont
sui
Glong
Tsar
##atov
##redit
##ởn
##ffin
Nakamoto
Petron
front
##CCC
Ibar
##law
##oxy
Navigos
nầm
trập
nguô
Dantri
Yongbyon
##Market
Bikini
cry
truật
vói
Súa
MarketWatch
mềnh
##opoulos
ĐẶ
Drax
##ket
UBGS
Gloria
Yamamoto
##ipas
Amin
mèm
Transl
##gress
Symbian
##Sau
##cinnati
PTNN
sụ
##dock
background
Agn
##anet
khuê
GSMA
##ocket
Allah
Cuội
Thuduc
Adulyadej
Apps
##CNC
Đóa
chêm
Beethoven
Acecook
SPA
rón
tênh
##opal
BHX
Mafia
Jade
Nhứt
Sato
Zico
god
NDF
Dmitri
XDL
Harpoon
Properties
Milito
##chev
Profit
##shman
Volt
Robson
Duda
VCBF
SZ
CHẤT
mồn
##omiuri
##73
##phan
Vác
champagne
##geo
Côi
JCB
COPD
Bưng
tex
##QD
##linan
##zenegger
Daley
Ospina
##rew
Coup
streaming
##dad
##Liên
CẢ
Onodera
Mahar
##dget
Kier
Conference
Billionaires
incre
por
##jiang
NVQS
Tụng
Mung
Lok
Aeroflot
Fung
bẵng
##eil
Chlor
Variety
Bollywood
Chambers
HKT
lườm
lôm
Nun
Seap
Thunderbolt
khướt
child
##CON
LGC
Foo
Northrop
##addle
##loo
Vinicius
##entine
mèn
##olia
Besiktas
Vos
Williamson
##hun
##ishu
ITU
ROG
sav
pak
SSG
văcxin
##born
Kí
##ccer
Tara
Brett
Kepler
##uidi
strateg
Jump
LLVTND
binomo
chóe
##MNET
Điê
##ctose
Macri
Compet
vot
Strip
cow
##Commerce
KBSV
electron
Task
Inđônê
Múc
##atis
THIỆN
##eslie
spotlight
Barkley
##lang
##nin
nvcc
##zbank
Carp
ADSL
Pandora
Hair
Rực
Vietbuild
Rennes
Select
##ERTY
Vir
CFTC
##SN
Spo
BAE
##rove
Kasim
average
Đậm
##eling
##kat
Virgil
macOS
Kavkaz
##actor
Shift
sộp
##BF
NHIỆM
Shane
come
##zd
IDJ
never
Prenn
KSH
calorie
Theron
Verratti
Valladolid
Voy
visual
##love
Rovers
gày
Leningrad
QNS
Khaled
ppm
Chemical
Fico
Leader
Glasgow
Shopping
Pharmaceutical
lơn
zi
##wah
Tourism
##IÊM
##haj
Honeywell
express
##ayga
##assemia
FID
Naf
##dongsan
provide
##fran
Steam
lụm
Scal
LLTP
TTT
Broadcom
##bird
Wilfried
frame
VIETNAMNET
sượt
##Vì
giắt
Status
ể
Schum
Vasily
ruy
##ù
##những
##isenhower
Sue
Domen
Ow
Hanjin
##Đăng
##phine
##osta
##akorn
Daiwa
Phnôm
CGT
Federico
VMA
bư
bớp
Sanofi
AOL
CSR
please
XDLL
MICE
Mout
CZ
bươm
Vaart
mobi
##acter
Volume
Gazz
ĐE
Hâm
quàn
Knox
KF
##ilin
Khoác
indo
Păh
Cun
##ains
RV
##hard
Lippi
Mim
state
impact
Clap
Bashir
coffee
chaebol
CHND
Boon
##Advisor
Destin
fort
Lội
NVN
##ems
botox
exchange
GVHD
Mainz
Hasan
JYJ
##chlor
Davao
September
##fix
Nhiễu
##inia
McCartney
ĐỔI
IZ
##RY
Genn
pack
Federica
Alvarez
##roker
nhớp
Thiến
##uve
limit
FAM
commun
probi
Estate
emp
##the
Christchurch
##acus
##iralongkorn
##istel
BVCC
depot
YH
cream
wiki
##wards
scooter
##ewon
Mahal
VNINDEX
Bath
Mens
Matuidi
Ridge
##etime
Inquirer
CTI
Teaser
##2643
Wakefield
Yomiuri
BSA
Sorry
Kitch
cáy
donate
Gs
##PER
polyester
Chromebook
Paramount
Culture
Spiel
months
Brew
##evadep
Thethao
Nắp
chuy
ĐNÁ
Phy
Ơi
Halep
VGT
Samrin
Southwest
Ulsan
Gầm
halog
NÊN
##orrow
##ingo
XƯ
##ilion
##aday
hôị
HUTECH
Goldmark
KIỆN
Phăng
##ckho
ngồn
##Thu
Ruiz
DDoS
Droid
Đắng
dom
Obser
Sentinel
TỈNH
Shenz
SNT
Stellar
sẳn
##itung
TRE
Genco
##cognition
MacKenzie
VNH
seong
ruby
sề
Gilbert
training
ĐANG
##istance
Allan
HLA
Trent
CMS
bis
##graphy
Tick
##Phó
muông
AmCham
Clinic
Jap
Sard
##acity
Hicks
ITP
Salt
Taichinh
Vad
##gary
Plc
SVVN
##ls
Dunga
Lubitz
Xan
##rooy
SXD
Bênh
hiều
##shore
Fujifilm
MATIC
very
thaek
Norton
kai
##otin
Hehe
Cullinan
Johor
0904
##orts
##iste
##Rock
nuớc
ethereum
##Lieu
vố
ĐD
giaoduc
Cilic
Jaw
Prisc
KHÔI
Đếm
Hood
Trustbank
##̣̆C
Twilight
lesor
##illin
DTNN
STL
##itex
PAR
Piero
##amon
rướn
Gardner
##ynth
SMBC
roadshow
ze
##ows
Escobar
##eti
Matrix
Gina
càu
ur
BTA
wen
##here
Hỡi
##Phạm
CITES
halogen
Salim
gầu
Hossein
Zim
Cheol
Moura
##tnt
##ascadeur
Siv
##iad
NVS
KĐTM
Pran
##về
Glee
##abase
current
sãi
##araj
Benny
Vichai
Montp
Kau
nilong
Cún
Breakout
xm
##abh
Growth
lav
tuềnh
Ella
Rebel
Abel
đừ
kk
Cote
SII
TTVH
producer
vể
##lecht
Sót
##torini
MÁY
samurai
dello
##YO
##umf
Nón
##gaz
##ELL
Harold
##alore
QLĐT
Caball
Hannover
đúm
##ulib
Friedrich
Pulitzer
oánh
##uco
Jel
##jit
Bờm
bug
Noong
place
nớc
##pharm
cryptocurrencies
Paulson
Miner
Hamm
Imex
Squad
Koval
##istelrooy
Dzh
Christensen
CUỘC
##cũng
EK
##bee
PVR
TIG
bazan
Investor
Georges
Kôn
Gabon
Sears
##annie
Commerzbank
##ffiti
Amancio
##flo
vồn
Rét
ưỡn
##idge
##oitre
dog
Hern
##js
##eny
Vía
Tinna
TRÂM
VEIL
NDA
Puka
Grumman
Leong
AAP
Dex
Rene
Sả
SABECO
Panig
multi
Heynckes
Burundi
thơì
Vajiralongkorn
##Feed
DaiABank
Logic
Dup
Duẫn
Maurice
##uzi
math
xyanua
SAU
Alligator
##itsch
##eplay
TRADE
Indra
##rahman
rịn
HĐT
Trailblazer
Wings
Pamela
runner
0966
##weir
billion
Methamphetamine
hous
dota
Sweet
Màng
Gene
##cova
COO
Vary
##olph
Kvit
SBC
hó
ĐỘI
Bek
BTU
nhít
Fod
láp
##utique
Nistelrooy
keng
Casp
VIAC
Wyoming
##ograd
PHẨM
Petronas
pix
Khoevadep
##iving
UAZ
##aleed
Visual
iso
Cincinnati
Huntington
Cert
ghè
##tep
##jack
inches
Jackman
Chef
Tẻh
##schild
##tension
Shir
Fa
Hoi
Professional
PHP
Sportback
Piz
UNI
##ankovic
Rip
Đả
##81
Drian
Amal
TaiLieu
Cassano
Nhục
cảu
Dăm
Raw
##inn
QWERTY
Pena
Yath
##VNN
NTV
VĨNH
Gallup
Major
##kyu
Kolkata
triglycer
LOL
facelift
Pich
SỐNG
sma
Cui
##aban
##inbank
##MF
USTR
Leica
Cant
rương
##31
GMO
Brady
##ecut
Gigabyte
Laf
Bentayga
Quao
Direction
ESA
Nate
stable
##Giáo
days
UNA
TripAdvisor
Zumwalt
CĐVN
##raco
Kiềm
Paulinho
##apital
There
Keppel
Nọc
##inary
Witch
Huobi
Yev
trui
Flag
Vinamit
working
##Set
##ulibaly
Bard
TCP
Yêm
Pullman
Coach
##aurus
hub
##coun
Language
pk
##mut
Mercury
FP
Karn
Gyeonggi
##uôl
Portman
Mandarin
VFMVF
Products
Nhim
DSC
##86
##etho
PISA
##hna
##UYỆN
Grigor
OPT
fresh
Renato
Anderlecht
ball
##rup
Spur
Abbey
##chaft
Dwayne
trym
đbrr
##RV
sổng
Izvest
mesh
Springs
Agni
Russian
melanin
nhây
Gojek
Giằng
Wagner
Pentaxim
HHHV
Tie
##ỆT
Eisenhower
Méo
aero
Yum
shutterstock
Barroso
Lance
Punjab
lắk
##onghen
Nhộn
study
##fighter
loăng
Betty
Trends
Date
prot
Charlize
##kowski
Lars
Eui
Imag
hydrogen
Khod
##tham
GIẢM
##rêp
Legacy
Siti
Zvezda
VAC
Secure
Rama
TMDV
hạp
Nhóc
McCl
Krystal
jer
Klum
botulinum
special
##oland
Remy
##atore
2200
TradingView
iMessage
jam
Ngẫu
Nguyê
turbine
ted
percent
xiềng
UD
1903
Ryong
legging
##hot
##cope
Dokdo
bd
VAN
cola
Fern
Caesar
##uff
ngoải
##racement
rá
GLE
1792
UNFPA
##CTAD
##pass
Highlands
Seth
sida
##Link
##GF
HHTG
Bèo
UCL
ché
hyper
SKSS
VIF
etc
##Phân
taliban
Triumf
Vách
thới
Fav
mơí
Strasbourg
dạm
Khống
plutonium
Arbel
Eyes
##đó
Leno
##Smart
##redo
xDrive
Sánh
Jie
Tiktok
Rudy
ext
Paz
Tosh
##mersant
Caballero
Warburg
Khat
DPA
ampli
Revolution
Fagan
##cup
##opro
vector
Fam
fur
VinGroup
hydroxy
Pyong
AFD
xốn
Haf
ICU
Rakh
WH
GOT
Tir
##rics
Fabinho
Whitmore
##aram
Louvre
huơ
Palt
Navi
##dh
Chòi
##jani
Devon
Shenzhen
##abel
##store
Sến
kl
Etern
seller
MÀ
##ylen
kilôm
##rodex
Lovato
UNHCR
lẩy
##Cab
WGC
##odar
KHÁCH
Corporate
ộp
Cater
saxophone
Paw
##onnaise
Bionic
Eg
##ivity
kill
YZ
Berez
EcoBoost
Garner
##Hub
advertising
Cushman
UNCTAD
Junsu
Production
Supachai
Cộp
Chắt
##ỒN
Inđônêxia
Helix
Ef
author
##TCQG
Cond
Sien
2101
PVCFC
Nãy
##leum
##rien
midcap
Schwarzenegger
Jes
lich
Sêrêp
Director
Chonburi
Ext
Event
NCH
growth
Vôi
MDF
Priscilla
chỏm
xầm
hđqt
##ukh
BÀN
Const
kat
Amar
Arleigh
##rig
Vertonghen
mỗ
Sputniknews
argentina
wa
niken
Chuồn
Khảm
phthal
Chapo
Trươ
Tamil
Monti
Meir
Breaking
cos
Vectors
Spielberg
TĂCN
Vogt
Arbeloa
Kute
HAY
TFT
TTTP
MHC
Azure
##ordan
##guard
##flare
Mossack
Build
Ost
Thâu
##owler
Charge
Ech
##bev
Phiệt
Tomato
technology
tier
giadinh
Fake
Chì
Calendar
Ket
THAY
Thèm
##qh
Đù
Lori
Annabelle
kilôgam
Sắm
clear
Cly
##An
BGH
MGM
xoàn
oxytocin
zip
##gins
Trek
Nil
##eldorf
KTCN
Tảng
##ONA
Yoshida
##arto
carotenoid
Phapluatplus
DCC
hổn
Bendtner
Dwight
Pus
##ellier
Evoque
Stro
Asen
oil
##janic
CTM
bàu
##marketcap
Banh
xs
##ref
Shaba
Lé
##sel
##omen
hòe
Elo
##ốp
##nyder
Bullock
##orio
feat
capô
Spin
BAO
Ching
Airblade
Burns
Chievo
##eya
Zoo
Zaw
tâu
##adole
Reeves
##nette
Naing
NHTSA
quết
##aoli
Limit
BKHCN
lactic
##weireld
Pyeongchang
Prav
RAV
Kens
Vd
bĩu
NFSC
##Điểm
ACMECS
Aq
jae
xò
##iac
Amur
Kommersant
##ichie
NGÀNH
foreign
Musa
analysis
Vih
##fil
haizz
MSR
Kerala
Panigale
Akin
Huyến
Angry
##icent
1899
NHIÊN
Mills
Sấu
XPS
Patel
##osur
CSMT
Lì
TVS
ning
Guj
Galil
##loban
Barnier
##avaro
Birkin
RJ
Natuna
Shing
##leston
Lót
Match
neut
Rimario
NÔNG
Olsen
Mashable
Leah
karate
##hyt
##amilk
HBS
bidv
MCK
##khazia
Peak
ksnd
Lự
BCV
VĐTG
Rảnh
Cheung
##cell
##aden
Edwin
Javelin
Tua
Dimitrov
Pharaoh
Ethan
Fuller
HẠN
##ccus
##hui
##soft
Tacloban
mệ
Zayed
##sho
cồ
Khuynh
Giga
##ramework
XB
RIMPAC
Pả
##Bản
Davut
KGVX
Seasons
domain
Togo
Hariri
##ahara
##khot
Nd
mercedes
QLHC
1888
Raonic
HASTC
##ences
##tvn
Duff
Agric
Origi
Bittrex
WM
##atha
Metropolitan
Hanks
Scandin
Karlov
##888
factor
Draxler
##oros
LIL
##itive
Mistura
##ception
Bua
thút
##ushin
Bryant
Phomvi
Lộng
Abdulaziz
Ive
Laporta
pectin
CSC
Carra
Hertha
enterpr
fructose
Mip
Cọp
Seaprodex
rờ
Carlton
Havertz
TPC
acoustic
din
##TK
ASIC
Nikola
TRẬN
Prand
CSKH
dèm
EverRich
##Vàng
##icators
comm
##known
túa
oa
Mossad
##esha
Casey
DCL
##fc
Kimura
cardigan
Stephane
Gunn
mòng
vill
bul
Drama
Chester
Stoxx
nld
Tulip
BHTGVN
##TRA
lúp
jenn
##hus
duoc
##qing
##ankhamun
Ask
Borneo
Lorenz
Carly
Chuồng
Idea
Pepper
Lạy
Teresa
Phillippines
Journey
sượng
##assic
opMart
Faro
##CNO
nhiêm
##stand
quắc
tango
Transformer
##works
Cardi
Gijon
Elis
Koke
tony
JK
##DH
Palawan
FRT
Starl
sneakers
Dass
Pickford
ĐTC
BPA
1880
rẻo
##alli
Cecilia
##mt
##arte
Bùn
Dawson
UFJ
Marwijk
nót
Hanoim
Department
central
LÊN
sett
Bolivar
Societe
Tằm
##geny
Kym
##web
##onsan
Tembin
trek
##aces
Mean
Căm
Personal
##thai
performance
Gụ
Batista
##ope
LIM
AMA
Fati
Ragl
##evac
Alderweireld
ruô
##yar
ngú
Tracy
##anyang
Eid
##itra
moto
Múi
##aisal
nhom
Ngươ
TỨC
Deborah
Kg
must
Kijun
Ult
TECNO
bil
hỏn
Loc
seoul
1789
Borei
Davutoglu
##inem
Haq
Kaplan
Ải
KHANG
Mauritius
PHƯỢNG
Consadole
cỏn
bancassurance
##roft
SECC
##yot
##ques
basis
hcv
Ngậm
Voọc
Xie
##rand
Savannakhet
Át
HEAD
Haru
THTT
Subs
Bitfinex
Boyle
IEC
panh
Soccer
Savico
Pegas
##nov
##org
Abkhazia
Jonny
##osis
Precision
Sảnh
Raglai
Salad
Jenkins
Ment
Beet
Hmeimim
Melanie
computer
##ebox
Arshavin
Kik
##Xu
ĐSĐT
Prandelli
##pyeong
Sigur
Shanahan
Confederations
GTA
Oreal
##nell
Tool
Marino
Loo
##tăng
Alexey
DAR
háu
Vilanova
Hef
Eis
##Power
Ngú
Lặn
##waco
Samoa
Jacinda
##info
User
##anan
Huyn
Biếm
Hơ
##ustan
##iards
dancer
Sigma
##Tag
##oki
audi
QLĐB
Chậu
##adishu
Sook
##azir
silat
Stal
TIME
Camaro
Hospitality
##Banking
Perse
##gol
ISM
Deco
##Lu
laze
Ashraf
Miyagi
Aedes
Mnet
Parc
SIPRI
##raen
NVH
##ainting
##polev
CHUẨN
Anwar
partners
services
Reserve
##cke
VNDS
Mh
trg
##enza
GBU
Cs
##nev
##anews
Mian
##cium
##uten
Benelli
chọe
amoniac
Janice
Mnang
db
##Bài
dock
Willis
catalog
Benn
BoA
GVR
Golo
Vứt
ĐẠT
Vivian
HƠN
Gael
##OD
Sciences
Karate
Jimin
##nhưng
roaming
MCH
burger
##phen
Chòm
Canal
Rating
steam
NGUYEN
Illustrated
UHD
Demba
Maidan
Tets
Phạ
##bandoc
##ashtra
QUÁ
Falk
EFS
downtrend
LƯỢC
Wiz
##agel
Loub
Orb
IOM
Rocky
Wander
SHA
Gupta
Runner
jet
tuâ
Bras
Greens
Nãi
MẶT
##rano
ĐỘC
Niết
Trizzie
##ians
##999
Móc
mie
Chh
##idae
##osed
AJ
Fog
Alw
implement
gỏng
Đục
Rothschild
Stinger
##ContentDoc
##ĐĐ
##itel
vision
bâu
Hnx
àh
##TON
PVTrans
Bachelet
Kvitova
Nantes
##hood
##vanh
##ables
Boehner
Masayoshi
CNQSDĐ
Tupolev
##ieve
##itsipas
Rise
##arts
Ald
Barrett
capt
Grip
##SDF
##ulico
Izvestia
Hast
Lăn
thững
##mpho
gioi
##uchan
Priy
Lenta
UVB
Automotive
##ujah
Giuliani
FNA
##đê
Kimmich
Lieber
##ostridium
vưởng
Dimon
Worth
cuả
truờng
ACCA
CTT
Fib
Slavyansk
Hũ
##41
Yury
ptnt
Obrador
đự
CSS
BNNPTNT
CLV
Figo
zealand
##UL
Meryl
Casio
##olt
##clair
Palais
LIX
Tks
Scrambler
Rosson
##orra
Kumo
wy
Phết
rs
##Mua
ĐTTP
ATS
##ruz
Schur
Noor
Maxi
Ita
fandom
liếp
Ngó
##ERA
VTP
khẩy
##illar
FaceTime
Council
lien
Topix
CMG
##71
Levin
Ré
Gore
nhắt
Penthouse
dek
Champs
##lington
NGND
Salon
##cov
Oblak
Nhím
##cac
##ranational
##Chỉ
Kô
Kraft
security
Bón
JAL
GOA
Dragons
Pjanic
##erio
cascadeur
Doo
##TTE
##ruary
Noh
nas
Heywood
Yer
Local
ALP
##ql
Almer
FZ
Til
trô
Hyon
họat
milan
##ckey
Skrtel
Packard
khú
Mandalay
Shabaab
MFI
mk
lactose
Maute
##sheng
Yars
Domino
Rug
Đin
Neum
bye
##etown
karatedo
yeon
##kook
##vong
QPPL
RBS
dragon
Allison
Cabaye
##ensor
Halong
QPAN
Widow
OIS
Tee
##emes
DGC
Qian
##Script
Gadhafi
texas
Chớp
##ieva
MWp
phè
Phím
Leaf
Vime
Battery
xil
phạc
Staff
##binh
VGB
cdc
VĐL
government
HDI
##enia
MyS
Freeman
xyl
Phế
Vòi
ask
##station
Mặn
##ahid
Orient
##́mon
self
Ayat
Proton
caps
##awatt
Cosmopol
dB
GrabCar
Karatedo
KIỂM
Content
Rainbow
ADA
Moan
##zor
##uyt
Sakh
chris
##ovirus
Boca
premier
lởi
xbox
Montpellier
Tisco
TRƯỞNG
Usilk
Ivoire
Suntory
tẩn
MyTV
jailbreak
Volga
Avang
Terminal
Epstein
##etze
Forester
join
width
NEM
kẹc
##viết
càm
Donal
##lint
##pel
THƠ
Quantum
Mogadishu
Aid
SPS
kcn
##agwa
Streep
##seng
Azzurri
Och
##eba
##cont
DTQG
unlock
Shipping
Bourbon
##lette
Macan
Gót
Tier
##paper
Memory
Dv
push
Grim
Moonlight
LILAMA
##eze
##untu
Cartier
##lao
CTĐC
hống
sodium
webmoney
##indhoven
widget
bhyt
between
Mg
SNC
Naples
Earnest
Yorkshire
Sergi
Mustafi
Xuan
##orsky
Graphics
Thoải
Gyeongsang
nứng
##stat
##GV
Tasmania
Daddy
GIL
Tristan
##prene
della
##assi
Command
Help
điêù
phịch
pharaoh
HTT
NPC
##pack
Daikin
Qassem
cức
Ươm
Erling
Julius
EZ
##iegun
Follow
##angor
Cantona
Berger
1886
chái
##coccus
Alaves
ĐÁNH
richard
Nac
Petroleum
##illermo
Lươn
truyên
ÔNG
CHUYÊ
##MCA
Santafe
##tics
Desktop
Osh
dềnh
Sherman
Levine
Justa
Marty
hill
ré
Ballack
Lizzie
##uh
Churkin
VIệt
GPRS
Techo
Preston
progester
chận
Conrad
##HAN
nhạn
Jaysh
qc
skr
KTST
zingchart
Guerr
squat
GIS
Mahm
moscow
giô
Griffin
sach
Schae
CẬP
Bangalore
exper
##stadt
##oline
##azar
Angie
Ayatollah
Traore
lite
kungfu
Yur
Thames
Erin
histamin
Vyach
KYC
wikipedia
Glad
##uner
Bleacher
Bj
Dơ
Pú
##yneth
Python
IKEA
Masia
##uting
Motta
##inthi
chỉa
Vinaw
vởn
Pán
Elise
##actic
dd
##Ni
##rani
Sars
Curcumin
Phách
##riosity
Quest
Gob
Kép
Gift
FinTech
NÓI
Sampaoli
DẪN
bb
Khuân
Narita
##epoel
Supranational
Bissaka
quít
Emilia
##Quản
##desivir
Lưng
3008
term
Werder
##đến
Dua
Debit
Ủ
Pric
Leslie
mean
ngâu
bayern
ESC
##ailles
##ouard
choảng
##okémon
chểnh
chill
Aerospace
Chui
Homestay
kilômét
##riseco
tok
Severod
Ó
kv
pac
Pavilion
##awar
Corsair
Zouma
##antz
deadline
did
##inga
##charest
##cb
Convertible
Natri
Dos
hoắt
##đang
sõng
ASP
ANC
##mohan
Mobility
Vitas
Vinasat
Maison
Manning
Audition
##Giải
Carragher
biễn
VITM
Bowl
##vien
kimono
##Thời
Scriven
Vihear
Jair
##vào
thuôn
TTCKPS
Novotel
bùm
VNT
CKD
Nâm
COMA
Javi
Thổi
Nhuần
lira
##airs
khều
Caspian
Praw
nor
##fs
Vne
đười
##SEA
##ype
trad
Cobra
Maharashtra
Glu
Inca
2700
##epro
Macqu
seed
adren
Batsh
##wu
chòng
boongke
muồng
Rhein
lởn
Vorachith
Eindhoven
##bong
Booking
Mnangagwa
CDS
Guer
sướt
Nghèn
Wojc
pool
##apat
MCG
Vyacheslav
Where
Núp
##amu
nhột
KTTĐ
Ifeng
vx
##rn
##enez
soài
Leigh
Mex
Osborne
##Sat
Ixraen
Orban
Deposit
Đọ
tae
rose
NDTV
focus
##union
Terminator
io
##eban
IMG
##urself
TUYỂN
Avangard
mentor
suzuki
Paras
Sait
Rộn
##hau
##edic
johnson
Krasnodar
ash
##53
Dear
Negredo
Hạp
loằng
##umma
jav
Santo
adapter
Resp
rd
Phò
Inditex
##anz
Gede
Hihi
Phonearena
##eiroz
jon
##berger
##giá
Biegun
Cait
Hí
Bret
Ramirez
Reaper
##ended
SHTP
1058
##ÒO
Hook
Richmond
Middle
Lonely
midi
##rade
Capella
##option
USNS
BLGĐ
Ethiopian
Pulisic
Ibaraki
Rossoneri
pil
phat
Proc
Lấn
##VSA
Dian
Krak
mầy
trờng
##joy
VSMT
##XK
Virtual
BĐTV
Warmb
Essien
nen
FBS
Tía
##ipro
dopamine
Sồng
##aking
##ashima
calories
Bogota
Geum
##atoco
samba
Tsitsipas
stat
Givenchy
Loubout
VGS
quest
##elt
TBCK
Petrovic
dịnh
Andriy
Kamchat
##Tel
Warmbier
##indu
Kofi
##Đấu
Motegi
Dres
Swanepoel
Oculus
##uu
SATA
Phuc
VBMA
THƯỜNG
mind
##lab
VietA
sputnik
MOS
national
tâp
Suv
jones
Prat
Edouard
##uayi
Ville
kô
Manmohan
##eger
COMEX
##eep
Nal
Đc
QLD
Ion
TRD
microphone
Xerox
##uture
##insider
OR
RSX
Kandahar
Tus
Mòn
gon
##YS
Thót
rươ
Grav
DARPA
Launch
henry
##sico
Bôm
Yild
Mano
Corinthi
Goetze
Flora
moving
publishers
Nass
Tửu
Agriseco
Chopra
##atit
THĂNG
thều
##LAC
##hh
Hapulico
##espace
italy
##hoc
vích
Rae
accent
khênh
##otta
Sheen
Ngươi
Angelo
Sentosa
taka
##enoord
Vostok
pn
##BMT
nhuốc
Uhm
mobifone
4500
Zack
##uin
##icin
Disco
cafein
##eek
scal
Kristina
1885
Dolphin
Bouch
1070
##raine
##sio
TTGS
Rein
Butt
Schumacher
##Tự
Westlake
Wikimedia
Lv
Lột
Site
##mie
##olulu
CCDI
##words
Hewlett
Radwan
Pim
##str
##inol
##chie
Daes
Schurrle
Hôi
##agoza
change
Hog
adam
Yann
sõi
Queiroz
Eman
breakaway
Yazidi
Gớm
Haider
1889
Olimpico
##mphony
pump
traffic
ĐĂ
Zeman
##eer
##elan
Luther
Rinh
evn
##esia
CNhiệt
Cannavaro
SCS
iK
wir
##ibir
Verona
Rajevac
Vasco
Kusto
##Donald
##dain
Haye
##làm
Lounge
NGOẠI
Stern
RẤT
DNNY
Pret
lấu
mayonnaise
Selangor
0912
Clement
##ERN
Maple
Prabang
##64
##irim
Splendora
Siena
##club
ING
Tall
Maicon
Glam
Spike
bushel
GTT
##pei
WF
XNC
##aigon
Tuynh
Haiyang
Bullish
##sim
hood
Khưu
KOICA
trẫm
Sherlock
Brands
Lancet
brom
lutein
marvel
angeles
February
tak
##ibility
TBXH
ttvn
angel
Balo
Chenn
Evil
Curiosity
Jewel
rụm
##ared
##omori
Stepan
Vaio
Generale
Gwyneth
Tutankhamun
Kohl
ĐP
Shot
Geek
clutch
bốp
##eslam
Basic
TCCS
away
##itsky
Salvatore
Hani
Nes
Adelson
Willy
ĐỒ
BIG
Malia
quở
Thia
Kyrgios
xán
ADS
mơi
##oud
##58
Nhùn
Cọc
##avera
Rabi
##gun
Miko
Helena
Archives
Malawi
Kobani
Frost
JBL
XYZ
Forte
é
##mash
Ngoi
nombre
lảo
oxalic
Dau
Assist
disney
Xia
Beetle
ĐTXD
Guillermo
Manufacturing
##iguan
TPCĐ
cel
Sissoko
TRƯƠNG
nạnh
dúa
Khiên
Bucharest
Miliket
ketamine
Takeshi
Creek
Baines
Licencia
Hái
Parabolic
seeder
Nicky
VIA
DTT
đuông
Haji
NMNĐ
Nghiền
classic
chòe
CSP
Chèm
PYN
Quatt
Toby
Wool
mxh
Infographic
##hra
queen
Brookings
SGTT
##escu
Sriv
Banerjee
Zaragoza
gy
THIẾT
vt
##ivery
##EXPO
software
Đanh
Material
Hunger
Aptech
Gilles
##RNA
Shak
##adat
Nakamura
són
Damon
rađa
Mò
DOW
Admiral
##ierrez
Coman
##acombank
watt
lympho
Saeed
CLS
Hex
Liquid
Granit
EFSF
Vần
##ffle
ANCT
Furama
Priyanka
Bt
qq
Satya
hển
Radeon
ĐẠO
Buddha
##inhos
Pearson
MFN
##amal
Meiji
Nie
Blank
chã
TACN
flat
Shawn
##chool
GPP
Cadie
Flem
##152
wang
##ersk
Camila
Groupon
Trendline
Bleus
Government
Christophe
cntt
Sof
Valls
STAR
Vắt
Đư
ĐAN
##chet
##ments
Dunford
##wealth
sugar
ISE
TTQL
TRƯỚC
Northern
machine
Sug
items
BIẾT
lài
##ơc
cond
ent
Medina
VNBA
##omonitor
roy
##iard
Corinthians
Kog
Ritz
qr
##OG
LDR
##ubin
Nauert
Alien
FIR
Versailles
##York
KHAI
Guardians
bun
CBU
##cosmos
nẫng
amy
ANTG
Kors
Roche
##ubl
0054
Batshuayi
position
Better
Essential
vtc
##like
Sút
##woo
##inburg
hah
Louboutin
foot
Thò
CBPG
Gujarat
Fad
GLA
Bùa
##hanov
1860
PowerPoint
Bướm
Fine
TCBS
Ricons
##Box
FDIC
random
khoeo
chuâ
Tieu
trố
carn
CFC
Lác
##ystem
Feyenoord
Melo
##ually
Witness
ros
Toh
NSTW
Agr
Paddock
FWD
alibaba
JCS
Sì
kiển
NCĐT
##dra
nhắng
##enty
BĐG
Realtime
##oniex
Tấc
Bix
##VS
##hand
Alcar
Chuân
Wine
Suphan
Rotten
Kieran
HPC
3310
Diet
native
banbandoc
Cabin
Babylon
Study
Kampong
##apak
##SIM
leak
Lauder
Araf
Xỉ
ếu
##nergy
Dale
SDI
##zak
##elman
before
Kund
nar
acb
Commission
Bói
Jum
Rớ
##ccc
Inox
##đồng
Cage
Solsa
Đọi
##lis
##ombank
Gerber
Rudiger
ASF
Kenji
BPCK
Oddity
##PR
neteller
Frederick
##Quốc
##bet
##binary
##vonne
Gull
Area
typ
Rafinha
Zelenskiy
Tep
Vikram
##Credit
HMT
##reprene
Germany
success
Sae
ĐINH
Nul
bk
whey
Cac
LỤC
##allenge
Begovic
##case
NewYork
Brie
seok
Gerv
1898
tàm
Lùm
CÙNG
ea
DNVN
Napas
Kantar
Mask
Eder
##pat
DNC
Mariana
endor
Vand
xổng
LaF
ashi
trạnh
##mah
Meit
Kawin
##uation
Rót
Macquarie
##tại
##Video
zone
##rage
BEST
Jovetic
Schro
kiloton
Nug
##62
demand
Hanoimilk
##okes
Robotics
lườn
##nad
nhum
##utu
Brux
CNT
QLED
##quine
sật
such
Ort
TRẠNG
Coqu
Martins
bệch
sr
SDG
Shrek
Cốm
##Crunch
Vieira
SoC
1870
Kwok
Rs
FD
Wonsan
ing
YHCT
Phượt
Nhau
##ugu
Sting
xược
##amang
inverter
Petrov
Mobiistar
vina
##acts
##eneuve
Câ
bìm
##Ang
##icol
Opportun
TRỢ
Neal
vietinbank
Khalil
ALCII
tiển
##anna
Khatoco
MÀN
las
MÔN
afc
Yasen
chain
##quat
Wraith
Alcatel
Lagerfeld
##mill
Wilder
phệ
##ayashi
GIAN
##ecutive
WFP
sever
##Sự
Everything
phiểu
##emberg
1883
Kakao
Baba
vov
##rone
Cerezo
Varyag
Vọt
1850
Honolulu
##En
tiêng
Ink
Harman
Season
TRÚC
Tiguan
##ENT
Hoạn
Té
##eom
##icillin
senior
##IDA
NPR
direct
Aguilera
##456
Hed
Kuk
NamA
MotoGP
Sagri
Hp
gil
Monchengladbach
Selfie
Yasu
BCSĐ
Pace
lảnh
Khiếp
##acia
MaritimeBank
Mellon
##uctor
mirror
Mama
Pig
Vệt
hid
DĐĐT
Vodka
much
Ist
Phình
Police
graph
choét
bển
Nis
Thalassemia
Tite
##0001
Into
Guan
Hiddleston
lib
Giót
##oway
Hassanal
Crescent
little
##Direct
BHĐC
Million
Euromonitor
filter
Winslet
##sub
hnx
nitrit
##sto
##obu
Xôviết
Svetlana
##tex
##Cách
##imon
STP
thomas
##Tiền
##bv
hydr
APO
influ
gaps
##rum
##imal
##place
##front
##senko
Chô
Cum
CUP
TechCrunch
Roja
##brand
Goran
Margot
Boot
Excell
VNPost
Maver
Palmas
univers
Flu
##icide
osc
##blog
Thảnh
Trươi
##andong
Font
Shink
Makh
##flat
Auchan
Pờ
thin
Bitconnect
Komodo
Happ
mội
KHÂ
TBCKVN
DIA
gamma
DHS
Youtuber
gdtd
Cosmopolitan
patin
ure
##BK
Phai
VTHK
Lithium
mazút
##98
TTS
Pek
dbrr
town
Suh
PUB
Zip
SBU
CDMA
Boost
truyê
Janus
Bridgestone
OAS
##wear
Shiv
##Trưởng
Richie
meme
##chak
Basil
java
CCS
##gent
Chông
##ulk
##estern
Hubert
Katrina
divContentDoc
##BMTip
VTA
bịn
musk
benchmark
Auth
trụng
xn
nl
##eza
Supply
Milo
bẳn
Geras
Winnie
Welcome
gameplay
HACCP
Grove
Jude
SSL
Ổi
PDVSA
Stadium
đg
Jungkook
JJ
BNH
Gama
msi
##inski
Coke
PTB
Papa
##Môn
##imar
Vanguard
Tz
3912
VASCO
Solid
PVPower
sina
GGHB
Rikvip
skrill
Mả
ITD
monitor
ẹo
Novos
Trinidad
Spoiler
Vietstar
Nir
soul
ÁI
khạo
Andes
Subic
juventus
aerobic
Nym
cassette
Spar
ITF
SOHC
Vargas
##asse
##NHAP
Smol
Cocobay
1865
##chtenstein
SÂ
Effect
JV
Neh
Đrắk
Gutierrez
ACL
Slash
##edoisong
##bardier
Pine
Kiết
duong
Shevchenko
##irlik
NR
Hw
DAG
Cối
Hate
Vông
KỸ
##Tập
##roen
##edd
xức
uptrend
Hepza
posted
YJ
TSS
##Hồ
##ơr
nhnn
Rit
Myan
1816
Chou
seag
Bitmain
##kovsky
DQTV
NỔI
ờng
Vinapco
##DIT
Paltrow
jul
haw
CÒN
Riết
FactSet
nch
##lou
Youn
Damrey
officetel
Háng
Puk
each
UBNDTP
Sob
##Phát
Nutri
sgk
Neumann
Iq
penc
huong
0989
civ
##puy
Inbox
Emerson
Popular
Sakho
Sasco
Ensure
##Cơ
Sharm
Gothic
JavaScript
QPVN
whisky
NHCT
Commonwealth
##nv
Myint
8899
Malo
##hya
inside
Yeonpyeong
anchor
Guerrero
ược
##order
always
Ruud
TIC
##iche
worldometers
Hessen
Sip
emoji
sure
##agn
##itya
##ITED
##Chiến
Abidal
Sủng
Blackstone
asian
Alcaraz
Cé
Loft
##nection
Brigitte
Caffe
Meat
Hừng
##fell
Foden
bart
##ás
Dud
PVFI
1895
Samco
companies
Chivas
Marissa
Shiyou
Hummer
phyto
Phomvihane
BOE
Come
##ưt
pakistan
SGX
nghinh
KMR
Soluto
ultrabook
Boer
Hamlet
ABB
NLTT
##somol
Snyder
BÁ
##Thành
VNNIC
##ingen
sulf
Arafat
##ilder
should
Surin
Pari
lac
##ports
Ronan
Xồng
##dai
##czy
Simple
Filipe
Axi
Woody
Techfest
human
##mium
methamphetamine
lải
##hiri
VPL
DIỄN
fdi
##stay
Sua
Chit
Oreo
VFMVN
Kẹp
Luo
KHOẢN
Nể
Sởi
##IẾU
##oza
##nga
chatbot
Fabianski
xilanh
swe
##riev
YZF
Jupp
PSSI
Stephens
Hạch
Yel
##ivik
##ichelis
nhiện
Chery
##usto
##̣u
Valerie
ICS
Monday
Hellfire
Seagate
kaka
##ops
Hubble
ago
Kungfu
Quentin
Atlat
Nazar
Corbyn
Mec
##otou
##Chuyên
Questra
NDN
Almeria
Dở
Xr
lady
##seas
Forward
Branch
Chôn
IUCN
Lund
Spotlight
FAST
theme
##zad
Hayden
##IST
##iddle
XQ
##yen
Celerio
fall
lịa
HAP
xml
LHG
Ciaz
Sụt
Shr
Markus
1250
Bullet
gành
GTNT
sụa
nhiệp
3070
AirB
SKG
paper
Founder
##Phiên
ục
đôí
Elysee
Mét
HDL
Diogo
Years
Wim
aura
EFE
##asure
Sandwich
##gel
##adia
##onie
véc
Demichelis
motion
OBV
cỡm
outsource
UM
##LH
##tretho
Hally
Lẫm
Arro
Forrest
khoáy
##icl
Bernstein
Wozniak
Liechtenstein
Meazza
FLE
##icket
amino
Mateo
Fabius
Kee
##how
Theer
Coleen
Lancaster
BTO
DNP
LAI
hau
Fest
##eving
quâ
Shinoda
##Kat
Billie
Xuyền
##yuan
SDGs
luỵ
Itaewon
Aichi
recom
Always
##egan
Trojan
xuyệt
Categ
Heiko
Fallujah
##aukee
often
##erv
##arella
##aldi
Cừu
Once
TIÊN
Bombardier
##lipse
EST
##đd
Massimo
ERC
esports
rain
CAGR
Supr
Kirkuk
Teerasil
Venom
PCCCR
Cathy
NTTS
SFC
Stay
picnic
gừ
tộ
Barra
2029
##hihi
Belize
Gwangju
Sú
Lùn
Koji
Motorrad
basic
OB
CUNG
Presley
xylanh
Dre
Captiva
Meo
Quĩ
Mint
Biều
BYD
Hunts
Commod
Huong
Sheldon
##yana
##toro
ời
##orr
scale
Partner
##arovski
Watanabe
Imexpharm
Gazzetta
gía
nhât
rôi
contract
##zaghi
Hax
rx
##power
ực
##ckhoedoisong
Macc
Thit
SVR
Spartak
Ngạo
Sana
FOMO
xâ
phẩu
##stro
SAV
CTO
Hanc
Nico
QD
Antey
NHTƯ
Dagestan
Saitama
Goto
Sia
Ngụ
Gris
André
Athena
Mukherjee
##Bang
##ynn
Escal
##eward
GDMN
Incirlik
DIFC
##bak
tren
scott
##Sports
sandals
##iburg
##rosa
Musudan
Button
QTKD
ICAEW
Bọc
##icity
eP
Rompuy
Healthcare
PCIe
thết
Router
dắc
##Làm
laodong
Lieberman
HĐĐT
Kaf
Flamini
##ateau
Laporte
Oll
Yuen
Breivik
nhón
giảo
EMS
kẹ
Gillard
Oakland
Riley
Ukr
Rajas
Khảng
Seal
##amba
##areg
quắm
##ĐL
Nhài
Khon
Rodd
Jurassic
CHUYỂN
néo
##cic
Khuổi
##trak
fact
qđ
##ẤY
Remote
Kensington
Faisal
Arr
##orin
##athy
Vinacas
Ck
benzo
##ography
Radwanska
Yvonne
ĐỊA
Zai
##Bo
Maung
Thread
sù
VRC
##itical
ole
##kamp
MÌNH
Yeong
Countdown
##adio
Tou
Hennessy
UEF
para
rặt
##rance
Shoot
Unknown
Dial
##acob
1802
Maker
Zeus
Marko
Trum
standard
kpop
qi
##phar
Clostridium
HFIC
Clayton
rư
Nasr
##ptophan
##elac
Worldometers
santa
Rapid
##USB
Nid
##iative
Halo
vãnh
##fico
jan
##Daily
BHP
QHD
Official
##waukee
Cristian
##tribution
CGTN
kevin
SLBM
Pierce
UR
Barton
Glory
Reunion
##udung
gelatin
##trên
Hayes
Midnight
Komsomol
rin
Rhode
Bruxelles
##enciaga
KTSTQ
Sakai
ABAC
##opedia
Roscosmos
##ERO
Takah
CoinMarket
Crossover
yak
##ibao
prof
Works
Manaf
##odi
Factory
Pony
RÔ
Xào
gơ
ielts
Yildirim
salmonella
##rary
thuong
Conor
##Tăng
som
SASCO
KHẢO
TRIỀU
legend
Nôn
Gru
Wilm
KDF
Kimberly
NÂ
Mayor
pccc
##ishow
Josef
Fateh
ey
##như
Camilla
Pokémon
Vớ
VVF
ASA
Fidelity
IAS
Minuteman
BNG
VFVN
tgdd
##til
Bogdan
Asha
Fischer
tks
##upro
1896
Gud
Jimenez
Petraeus
##maly
##riere
Techcom
Abdeslam
Khodork
Holy
SMIC
##lava
XHH
Shea
Nymex
##otics
TÁ
Hách
yuan
##olina
Joey
Ledger
Uất
kin
lending
Weber
##guk
##ilee
corpor
Commerce
nilông
GEL
SAN
Reyes
fa
Abass
Dassault
cardio
Sheeran
tgian
phừng
Grind
McKenzie
Oliveira
MIỄN
##cim
Drink
Pocket
##brook
Alme
SaigonBank
Kamchatka
CIM
##awy
Miles
Matx
Bonnie
workshop
Ảng
##rane
Irkut
Montg
daniel
tiếm
reply
mastercard
Bogor
luyên
location
steve
yt
##yam
Phr
0511
NAY
Taek
##oslav
Chennai
satin
Rayo
bowling
##ifish
Frances
##lest
##rer
Flick
BGR
FLEGT
toner
PVV
Ahmet
Idaho
Coinmarketcap
VBI
##folk
##anovic
Chứt
Vettel
hall
##JPY
##amangala
GDCD
Geneve
split
still
nsưt
Bearish
Guangzhou
bridge
##oquine
##angle
1402
##addin
Brave
balance
Reuter
##telaar
Somers
Hsu
aug
Đáo
##ũng
Gim
stan
leon
Topic
Salomon
DEHP
kangaroo
Crush
##ươl
Rossiya
Pravda
CAV
TVX
Finviz
Hamza
jose
##91
Finn
##dsson
NTB
Poloniex
Gox
PEN
Đát
##ctions
Sudoku
hwan
ali
Ruột
Vitara
Marchisio
Cardin
CAEXPO
7300
##eshima
##vanhoa
GGB
Pue
Vico
ZX
##green
NAPAS
Celebr
Aeg
RUB
##linh
GIZ
fred
híp
Tồng
spin
Hardy
##ẦU
Esc
sd
uý
Tripp
GDQP
Balance
Formula
Laguna
Vander
Ràng
Veh
duối
##aric
Wallet
Dame
##idel
##rata
Phon
Alfonso
lic
gin
vốt
cents
Ecos
##Del
supply
Rangnick
WSS
dollars
xêm
matt
##pia
duc
lom
Santi
Georgetown
##Foods
##micro
chõ
BLLĐ
GOLD
MEA
NEX
hanoi
Tomatoes
jess
USMCA
Chaplin
sent
Huntelaar
Citimart
diếc
chuyen
Ebook
mama
Huề
Sonia
thếch
##theo
Sinovac
Dias
feng
##dee
SDT
Ballad
##Khi
Háo
Vâ
##alov
Rostec
##aching
##Act
##ideco
Aisyah
contin
camry
Mẹc
##ompi
Clint
TCCB
Sưa
##Web
hor
Viwaco
VinID
amip
##ulse
left
FAN
xởi
Nhồi
Madame
Chapter
BAFTA
váp
SKY
##bone
##inas
##isure
jordan
xửa
##agos
VNREA
vcb
TBC
Thiêng
Khos
Covax
TIẾNG
Ruz
uber
ngộn
Chát
Monero
##uolo
##engo
##check
policy
Joll
Andrej
ryzen
Fuch
ề
##Thế
Pilot
Kỉnh
TVN
Ruslan
RNA
triễn
TXT
##Để
Phốt
gluco
Cate
could
Ghe
reddit
Mushar
##shaw
hnay
cang
##hurst
##ndra
Albion
Publish
BNHV
Pana
Reese
Myster
##bour
NDAA
##oshima
Sinclair
##markt
ZR
##lers
##trip
xyz
Giát
##phos
##từ
##rose
Braga
Kathryn
Aceh
JX
Panel
Logitech
Champagne
míttinh
Cancel
passport
##otov
QHKT
Toro
##gsuban
##peng
Tomorrow
YONHAP
rh
zen
Palo
SPI
Denilson
Luigi
NGAY
Regal
##izan
##Blue
LaFerrari
##atom
6600
VPCC
GDT
VỊ
Bourdain
##minh
Hue
IPhone
season
Vantage
##adian
ZS
Kart
MSM
ROI
mits
##oba
##52
Santander
Lóp
Leung
Vỵ
Bernd
Primavera
Dắt
##Bất
Lakes
##cored
Cheo
mém
CoinMarketCap
TVXQ
Kost
AAM
patter
##cong
Touring
Wowy
##esson
##icken
lỏn
Plasma
Sg
##anthin
##vik
used
##astin
Courtney
Hayat
Norfolk
Dyn
##nix
##ulose
mứa
##Desk
##oser
##aloa
##ropria
Dota
entertainment
kp
##illard
Bihar
##aseco
Pheu
Champasak
Tsarna
Rach
Constant
Tinder
Patricio
Bora
##olve
##LCL
Jessie
7871
wi
Transport
2560
CIP
chit
VinCommerce
Tammy
jeff
ketamin
##rikh
##acula
Inzaghi
Emerick
##thor
Tram
Hoover
##ighty
Hogan
Donnar
stereo
Blanco
Caterp
Myanma
khuỵu
Powerball
##zej
##atron
1520
PQ
pcr
##UK
##idential
Nikko
Thaugsuban
Guitar
GIẢ
##sters
##87
Susilo
##resh
##TTQG
##1239
otofun
UBKTTW
##mith
##OK
Trich
Ngáo
hosting
Marquinhos
Rajasthan
Tone
0903
Pepsico
KIẾM
bbc
Mềm
Wired
Rust
SOA
cyan
Dip
Hefner
Cott
Mayo
lếch
vpbank
Giời
jang
Ascend
Gội
Symphony
NVDR
NHƯNG
Artemis
vập
khảng
Trac
##tructure
SỸ
Sigurdsson
Wire
##chính
ại
kiem
Tours
Dầm
guy
tottenham
##gence
##cone
Citroen
painting
##93
MDG
Integr
##even
Pulga
Hussain
CCP
DCT
##aged
OPTION
mah
##ibur
##ride
Strength
thưở
Revo
##abul
Weather
Carson
Nicos
milimet
Pitbull
##rison
##omatic
##zbach
CBA
ICBC
##helm
Silent
##SX
Rajamangala
VTVCab
Schiff
mân
Raffles
Vờ
Wies
##82
##apy
##hatsu
KEB
##Top
##amino
chẩm
Catfish
paste
Đơ
tips
Baron
SANG
Augsburg
##sunori
TTQLKT
Cork
TLG
Tic
Mendoza
##Đồng
CNPC
##odin
methyl
1820
Volg
Mers
##ncher
Yakuza
Bout
Freiburg
ting
##hnan
Addis
Manafort
Verd
Klim
##altse
ming
ớc
Shape
sector
Bari
Denise
Schulz
##kay
Medium
metal
where
Giôm
VPLS
##niya
Pulse
Fiin
prefix
##Vn
##ilov
Rizal
##ibee
Đãi
nhoẻn
GSMArena
Wade
##uven
##eye
AJC
Cable
##MĐ
Duty
Lef
REX
##encourt
ĂN
Gros
##plex
Lotteria
Arroyo
##GL
nghịu
They
##manov
Multimedia
Chirac
##ses
nicotin
##iera
##chon
TCTK
AOC
MJ
Sờ
Hode
##emitsu
##ugar
##uprofen
hằm
Currency
##mend
Pretoria
GƯ
bottom
Dielac
District
Museum
1088
Tsai
Extreme
##achal
SĨ
Lamela
##ctic
##panda
POSCO
##Up
Khoá
Reza
Alfredo
Coquelin
Ngâu
turn
vpn
Lôm
Dập
Vice
brown
Gagarin
Ov
subs
Ahrar
Habib
Cồng
rebound
vếu
login
TCD
Julien
anthocyan
Malef
##SIS
Aveo
AES
##iliano
Thamm
Judy
gluten
nọt
##Gon
Kaia
Mọc
##chid
nĩa
##eros
Maire
##illus
MIL
Shiloh
record
Khoo
Alert
rece
##evingne
##taro
##trada
UNO
Chướng
Commit
Richest
phuong
Lescott
bửu
Whole
Hindustan
MTTH
FDC
##mus
Chầu
Stories
Balenciaga
##iffer
Almeida
đíu
##ATGT
charles
clinton
Lorenzana
Kuyt
##ndham
##blatt
Khodorkovsky
ACS
Xquang
Ziy
##rei
HTL
Jeans
Lahore
Seol
NỢ
ITV
mx
PMH
AKP
NEU
SONG
##chner
Mangala
Kory
Klins
Kiko
Pape
ec
Sokol
##jian
ngưòi
Need
WR
Wurt
sync
Doyle
Please
airdrop
##trexim
CSA
SBBS
##certo
Ethernet
Booth
húy
##tocol
oct
Soda
##eyev
vinamilk
Password
nsnd
youtuber
Củi
IOTA
Ground
##terra
##trung
ĐẮC
Lucia
Fendi
Pug
Musharraf
##Vũ
##Fund
##Hai
##aceae
RFID
Nậu
Ryder
talent
mằn
Library
##inko
##nhy
##ceed
CFR
KienLong
MAUR
AST
above
Donnarumma
wat
Xén
Bundchen
bịnh
Besra
Isner
Shelby
##estrogen
##witz
DỤC
Sendai
##istorius
trog
jeep
Developer
aflat
crow
##ston
##stick
IPTV
Flan
Haxaco
Emre
##TAR
heiken
##vara
Cargill
##alish
Debaltse
##ández
##chino
##irs
Airdrop
Progress
Federal
Gerasimov
##Soft
khắm
3080
##thday
Kursk
wit
Patek
nhải
##anto
tut
taylor
BlackRock
##ghalo
##ddie
##augrana
manchester
Minute
Flowers
##ioid
Vú
Alison
taobao
wu
##ibal
hiv
liệng
ĐÁP
garden
trust
##oca
##egawa
Citizen
Esther
Templeton
##pages
Soha
Nặc
##rec
Caterpillar
##riona
##amate
EXID
##Bảo
hae
##lete
beer
##cking
##exim
Wasp
Mipec
Tei
##mex
STE
##riting
Success
Fos
QX
##LP
Keanu
Rapp
##hiep
Tyra
IIA
PCCN
MSX
##jie
##abry
Latitude
Eat
##zano
##eport
##aboo
Mahdi
Eugen
đia
BRIC
Jaime
GELEX
##mind
Gazeta
Subscribe
Champa
bòi
VUS
##aughn
Nuland
##rain
##itics
Ats
Fritz
Dove
nuke
img
WAN
SSN
Jensen
nato
##jector
Fortuna
Dehli
Nicotex
quality
Shaun
Swin
Sanches
FMCG
VTO
diểm
hặc
Matip
Lừng
trảng
Heaven
Masha
Yathotou
ràm
##mathan
##ertino
photpho
Tạc
##fman
##oooo
##alou
Methanol
Xịt
Tinnhanh
Kerber
Momentum
Maleficent
ỨNG
VCTV
Fork
##eos
NHC
PHIẾU
Ozawa
##eroxide
Hươ
QĐNS
Saison
Gamble
vet
##unov
GRU
TNTS
Gatt
nghẻ
nưa
##bian
##quire
Raab
Munoz
BMT
Lena
mtv
ruộm
TRINH
THẬT
VietNamnet
BIOS
Joanna
López
##igar
Ellie
debit
sửu
Aust
SCC
##hares
##onen
suk
Colgate
Nafiq
titanium
sarah
##arling
CÁI
flashmob
stocks
##dung
Luv
Chắn
##ASM
Bả
Hour
yoy
Essen
LỚN
Tsarnaev
Humph
RW
programs
regis
Cuộn
THUẬN
kara
chộn
mẹc
TUYỀN
Alwaleed
fel
ây
IFS
##kovic
Racer
UBGSTCQG
ọe
zô
##eble
Gervinho
soon
Picture
NỮ
vục
boom
Texhong
##ured
Salem
KitKat
nav
NGUỒN
Corning
Đâ
four
progesterone
Okhot
ướm
Faber
Borey
Emanuel
Foot
xáng
Cupertino
Itsunori
##iep
##HCMC
neymar
cia
Blaugrana
phọt
##Connect
CHKQT
Sihanoukville
##Số
Sienna
Career
DĐDN
Cội
##evan
##RES
Lombok
Qin
oppo
Klinsmann
Lid
DACA
save
Coppa
fiat
Marac
##ogy
Simmons
JBIC
ngợ
TRANH
Diến
Ighalo
mễ
##thực
##ffen
Prize
##thlon
florida
cooper
namespace
Poh
trekking
PUBG
Ngất
Gadot
##ropriate
dow
Give
Tesco
##Đề
Cúi
DTL
##tronic
differ
Conway
testosteron
helino
##ting
##ShowBMTip
Quochoi
Tatarstan
Sassuolo
##yeh
sẩn
##Fi
HTND
BAY
Carling
2102
Cowell
##igm
VietnamPost
Ayr
Bonn
sash
##fir
Dante
Rabiot
ECU
STOXX
Oái
GSK
Rate
lồn
hok
Shal
##Dragon
thàng
origin
Taka
Đậy
Vulcan
Pistorius
##vu
bodykit
sịp
BCVT
Deg
these
Boul
##hwa
Phất
xút
Willem
newbie
##blem
thừ
Amman
neg
TTN
##akah
##83
##ZY
Cluj
NGHIÊN
cỡn
ESM
VKP
AVF
##afood
Rogue
##acinco
Aiden
Try
vivo
VietCapital
Drift
Tanf
Baikal
Cloramin
1270
Cholimex
Blasio
LeB
Chuan
##phát
Bươu
Gripen
Hakim
Kre
bts
ngă
KHẢ
bem
Josephine
Cholesterol
Ủn
Peres
##RAD
Autod
KHẨU
sleep
##omery
Dalio
Krugman
##repreneur
diệc
kun
MetLife
japan
Quýnh
Swarovski
Chinanews
agribank
ebay
##Talk
thùa
Murad
ruỗng
aflatoxin
OFF
chien
Irish
##CAF
Vá
Andrzej
agency
UBTƯMTTQ
Udon
Bixby
Nafiqad
Miros
GAB
Russo
Cấy
##ibor
TNV
Grealish
LSE
ISBN
yao
##otos
CLA
Tienphong
##sui
##anta
hiêu
TCMR
Pyn
liga
EVO
Gemini
ịch
##trait
Seon
Milwaukee
Models
##VietNam
Temple
Dresden
SYT
##court
Gour
##eneres
##mc
Sửng
Canađa
zhang
CẨM
Ôx
##Game
MTG
Molniya
debt
Alamy
DQS
Fibo
##ILE
##imum
##ophar
##lori
AIS
Delevingne
SAGRI
probiotic
CLP
Nato
##riolet
Enable
##doi
##chez
Arseniy
Meadow
layout
investors
##kot
Isarel
Michiko
Door
mourinho
Jenna
Nostr
Buss
tơí
Wii
Techno
freelancer
OI
##utes
##vince
##kow
Elie
INC
Ony
3700
Irắc
PKL
Hobbit
folder
Greenspan
NGƯT
outfit
FDP
Kou
Turn
Dưng
##Vin
##suke
Ekaterina
TST
Marta
Lử
Sumo
THẺ
Dn
##imitsu
Wolverine
UBDT
Hotboy
Publ
##lum
Maersk
Smithson
Wheel
##jt
Jrai
zona
Sasaki
VPT
##edov
##chison
Moran
ICJ
citric
Ngây
##astics
Kumamoto
Macro
1030
##azawa
##ambao
##XA
Loic
pích
Higher
Maximark
##nschaft
KHANH
APH
VUSTA
Cob
Sanest
Nichol
Malouda
Tiago
mão
##hoe
##ension
Nabil
##ddy
georg
Hông
lốn
fluor
đụn
nguẩy
Cậy
JE
Mè
Mút
Oleks
banks
Mhz
bộp
liber
##cd
scot
##Hoàng
Fong
thẹo
đển
Carrington
Cisse
Kah
Hachi
Xách
sarin
##Te
##bab
##chứng
ITPC
##Express
says
Records
BHNN
loàn
Malmo
Romance
Satan
##jer
three
##idin
##iography
Nikolay
Amelia
##Kết
Thaibev
KCDC
Bulgari
##rastructure
Gry
clg
TỤC
Half
##ibis
Shih
##rakami
##esto
Vine
Esteban
Koran
vovinam
Kyong
##REN
BitMEX
Salehi
Cordoba
Competition
KOL
##categ
Phồng
Xùa
##allic
Tele
Echos
Euras
RIC
Parasite
Nuốt
Chíp
atiso
Gork
ợc
Duck
VITA
iKON
Cill
##sam
income
Rosell
budget
Dad
Vern
THÂN
##see
##skaia
Triền
lupus
CUV
Flat
hemoglobin
Lombardy
Experience
Eze
Bettencourt
##enma
Equipe
Kpă
ghệ
CATW
Debbie
Commons
Buffaloes
Khabib
partnership
Piêu
##Bí
##CTA
Self
Razer
ryan
##̃Y
Soup
Djo
##averse
SCA
MILK
lik
graffiti
khiu
xè
Syed
##allos
Thammavong
Lán
##kông
Ilyushin
##icop
##akura
Marl
Profile
Chopin
Ht
Trám
Ngứa
##chant
Still
##PV
Bhar
Sexy
cir
futures
sup
THY
##aicin
Dunn
ATLĐ
Mianma
##ivid
Karak
Baekhyun
Loftus
chul
Gaston
Clapper
##east
Ồn
##ataka
Keis
Donovan
Devil
##plate
GROUP
##hari
##NNER
Accor
vas
##PD
VTEC
ĐẢNG
Ava
##sley
Schill
##Nguồn
Congress
limited
##chilles
ger
chúm
##ipper
Poy
Scotia
Đứt
đàu
##dao
##kha
##ahoi
Yasuy
NCHMF
Hallyu
Ziz
##Điều
Ferreira
Carolyn
oscillator
Roz
Henrikh
Greene
Trap
Darvas
Gog
buồi
battle
##kis
MIUI
mashup
##Key
##aney
##Im
lew
ỹ
##kol
##phải
##CHR
khg
TUYÊN
Meet
mRNA
xố
##FG
Sanyo
Jammu
GIF
Dalian
modul
HHC
kiot
Nerazz
sorry
Lúng
Erit
Current
Statham
##igail
lũa
PSD
TNXH
Fallon
because
##ewall
Seen
Hyder
Archie
##Share
Sáo
educ
Nhọc
pinbar
VPĐD
PXL
giga
##uanov
AGP
fw
Archer
Preview
Freeland
guardian
nhê
nhổn
Taisho
VASS
Lẹ
##isu
Gnabry
##DECO
Dien
##shing
maria
Hacinco
##kai
TĐCS
IBC
##lain
Hou
##akarta
Platt
##gear
Kalim
Ecol
RBA
##lastic
Avenger
Similac
CHỤP
SMB
ĐCTT
Cuô
Vass
##TEC
##biza
settings
sem
##Tee
THIỆU
Rolld
DVCTT
RDS
Umar
##jana
koo
thèn
Vnindex
AMV
Miyako
mik
coup
Rakhine
##abol
Libert
Barbados
jimmy
Shun
Hepburn
Naga
lily
RỦI
Opal
##OOD
Hại
Environment
Taipei
Vư
nian
##ỐT
Edmund
Rouge
Theory
1024
PTCS
##atrader
Bứt
TCV
##PH
Tsuk
Lẻ
NRA
##abar
Saj
Instant
LAF
##cyc
##pink
Trót
DeG
countries
Gyl
Tó
Nour
lgbt
##84
##kie
Nept
Vasil
HMTN
##dat
Tos
Fiber
Rahim
ig
##alm
joon
thịch
botnet
VCR
Roddick
Yakh
chạ
##tera
Wurtzbach
##acks
OneDrive
Contest
QSMT
CHP
NCAP
##hammuddin
Puea
##anor
##GH
Bahn
TRUYỀN
Gravity
MRC
CSKT
Amos
Sahel
VNRED
##zawa
##Se
cửi
##api
##igma
Daihatsu
Catriona
Mimi
##xt
ĐMT
XỬ
Craft
Pí
Ride
dar
##nu
Fowler
exe
lua
Bunmathan
spo
viral
HĐBT
Calm
pencak
côm
##ometer
fish
rowing
##onductor
Yous
Brandt
Ngán
BUY
Lh
Scale
tryptophan
Suwon
PHỐ
Marks
Scha
UL
Sunhouse
Greenwich
Excellence
kd
Thien
##HANOI
Wide
geisha
##eou
Qune
extension
McMen
VKT
##oes
Medley
NPV
Gmb
Mulsanne
Vivienne
Holt
Porn
ĐGN
Moya
BigBang
Piper
Đom
##Chi
ComBE
Rally
Tetra
Suleiman
##emann
##ulture
JO
##siy
Pegasus
Giant
socket
##leh
8003
##atsby
triêu
Chày
ABG
##tài
##SPC
MISA
Delph
Svay
Dent
HÂ
ICIJ
Khamp
Nghẹn
offroad
TFSI
Feth
Gãy
Pohang
viagra
Takeshima
hý
##ased
##umar
##covax
Jungle
Tb
bell
Backstreet
Iduna
Sokha
Cứng
Gwen
idea
oled
Mannschaft
Evel
##ask
PSY
Jansen
IAF
twin
EVNHCMC
##ght
AWA
Evolution
Cút
Frederic
EG
Piet
##awut
cop
mômen
Kana
Pais
Vén
Novgorod
##archenko
##iland
Roch
0909
Sênh
Wechat
bullish
##ication
BẬT
Siluanov
THTK
##oscored
bangkok
Newsflare
Quneitra
##ORT
Guyana
eur
VKSTC
Igla
Hasakah
Mav
hóp
##SAT
smith
Haiz
Trevor
##dang
hoằng
VIỆN
Bốt
ĐƠN
béc
Architecture
Thiếp
Sportage
##elope
journal
Shimizu
hum
##Hat
##ising
Urum
##elease
Nuri
Sparta
NNCNC
Pioneer
UNG
Jimmi
Poo
Ante
##akul
Sinaloa
Biti
Acoustic
##como
Erawan
Hutech
Vale
##phal
SaiGon
Menez
Inada
##otto
intr
Solution
sportbike
Hg
Sure
fuck
Exness
Nadia
Ketamine
##Cho
##asta
MBV
EVNSPC
ASXH
##ikaa
VKFTA
dei
Moratti
activ
DCS
CẢM
Pretty
Agri
ĐKCC
calcium
fib
##juring
Ferrag
Vinawaco
Ekip
Thă
##rou
Arist
Bén
Damien
PHỤ
##mallow
Faw
##guez
nhiểu
Hancock
Jihad
##roller
Bóp
Albu
inline
polo
realme
##ƠI
GEF
Vifon
##ardyce
BJ
Fannie
Karius
joo
xd
##ija
Griffiths
Orig
calci
Kow
Tiều
Initiative
GIỮ
TYT
ZING
##wara
0988
Brahimi
toxic
##osterone
Brittany
Xiên
##vee
Gosling
VATM
VPQH
TÂY
vcđ
Hishammuddin
váo
wibu
HOẶC
##riza
##Pod
Emm
Manny
Cory
Taeyang
Notes
Gennady
Ober
##sons
##amboo
Montre
Tbil
##alur
##olod
##ailable
Premi
##KC
wha
##harm
##aphone
Nozza
Ayman
Trophy
Probi
dalit
##ilt
Eminem
Ultron
intern
Gamal
Nerazzurri
Eritrea
Sou
Walters
TỐ
Malaixia
Fem
Techmart
Ventura
DEA
anna
Savan
Karlie
##Sec
##ebus
TSQ
Datuk
PW
partic
Riviera
cin
ghẽ
markets
##laing
Húng
ỏ
sác
Sukh
Ababa
##inderella
fadil
##ève
sạo
Phớt
##ske
Jacky
3974
Supe
Dìu
ƯCV
##phe
Mila
fer
Suning
swift
mit
ICG
Japanese
Gus
Comics
Stoploss
Boutique
NOA
##QLQ
WTC
ya
Admiralty
Watts
WMO
##etco
##adaily
##chỉ
Creta
production
intellig
Chany
Bla
mủn
Syng
latin
##ansen
##este
3300
Nafoods
context
Nạo
CMOS
bern
##CLC
HLG
##swear
Sebast
KKR
PVE
##enbauer
đúa
Qúy
##ffron
Hanna
Cannon
##antic
Klara
Mio
walk
phiu
##enner
MIG
Fergie
##cash
Buds
##định
choẹt
EVNHANOI
##giers
tl
##ossa
##ips
0938
Charlton
Soleil
generic
Hennessey
Theerathon
##sao
hose
Moe
##ayoko
peer
Guido
Pitch
##điều
straddle
final
##isô
Futenma
##inov
Feel
GGBinary
woman
##Stock
trợt
Xui
NVMe
##xxxx
##uchy
Fot
eun
##Dịch
##kul
Syriza
Greater
CHÚNG
being
kind
tuoitre
Savic
KTTN
Hisp
Nashville
0001
##oduo
cart
ther
Legan
##illion
Shiz
Copyright
Vadim
##kran
hoach
bỡn
Executive
Rupiah
Jota
##Sense
quyen
Weis
CREDIT
Díaz
##động
Amaq
ocean
vks
Bana
TBM
ơng
BMD
MIK
Gerd
Bă
FRE
chuck
Aks
##ege
##gaard
##Giao
ITAR
Mainichi
Dép
bính
##onne
SKDS
EDC
Gantz
Jut
WT
##akawa
UCA
##anas
Sheik
epic
Béc
hẵn
##51
##akin
##Street
Fighter
##END
##rep
rob
Cycle
thâý
founder
##mastic
##ôk
Daniela
LPR
##keye
Ibiza
##mitt
##anker
Newport
CÂU
Ngai
##torm
##print
Idemitsu
Cavico
chím
Bohem
##sko
granit
TRIỆU
##presso
ĐGNL
LỆ
cara
strength
Cess
Zeng
CHUYỆN
AUX
Johann
Mesa
xẩu
##marena
##urin
Lautaro
mw
##vote
brad
Tbilisi
##rr
force
CBV
Avram
Peer
LINK
Suicide
minishow
accord
##aiss
##TCOM
Heiken
Bony
JM
Pill
TMA
Valeria
Sinopharm
Bandung
##tronics
Búng
##onezh
##antine
##lied
Lagos
##toum
VPbank
##ellin
Zhen
Sinop
PCMT
ÂU
Đấm
Views
PHỦ
ĐMST
jiang
Albic
ngiệp
Vồng
Viral
##iris
STDA
herpes
Siêng
hed
##Tình
##57
##Nhật
GU
NFA
rada
Mìn
RL
rề
##dis
##prop
##akar
EFI
##ilar
Reset
fo
Brill
HỎI
##tyn
Ebay
Keisuke
##IÊU
CBO
Kumgang
Jianlin
Ake
##vinsk
Turkish
##folio
lé
chếnh
##mansk
Agusta
VSSA
customers
Kalimantan
Lions
Marub
##ugia
Rolldock
Colt
Bandar
Geoffrey
tỏng
SMT
esp
##ramento
Bani
Swap
Economy
ald
iod
ẳng
HỌ
Keyboard
Canary
Kunio
Ushakov
cello
##lead
2032
Nawaz
Huntsman
Olympiacos
##umoto
Gav
##CHQ
beck
Sain
câù
drift
volt
Schwartz
FG
Eurofighter
##ussier
CŨNG
##czema
JustaTee
##aurant
##azan
HAT
##ynthia
tồ
##arium
Baj
Shutter
FSO
Iwobi
##Off
VNL
##ƠNG
Hutch
Pian
Saadi
Shake
##hniki
Ubuntu
MNS
iQ
Smithsonian
dood
outside
Prawit
mort
boeing
mọe
Matxcova
stablecoin
Volgograd
Chey
Sayasone
NMD
Ceres
Rondo
VLC
đn
##YA
0975
Enron
Cantho
Corriere
ĐẸP
HIS
Lea
johnny
Dại
Refin
##ILL
IMC
Lower
Móa
rười
cácbon
Garc
finance
Father
##alie
##aci
CÁ
Amr
NNC
menswear
##enso
Waterg
OCA
GTNFoods
##Olymp
nhò
Dorothy
BIỆT
Goss
##tman
phuc
##phat
Delete
CONCA
Ortiz
##nama
##Khởi
##adamus
Daniele
pullback
##vay
Giun
##icles
##ianto
MIN
##ERC
##ificial
Larsson
Aurel
NUS
3100
lạo
##Điện
##bad
##comp
Bakayoko
Hidden
hắng
##riel
6500
gallery
khuyếch
ful
búc
SATRA
Fanning
rống
Cano
Fethullah
Pé
Lun
##ensate
Whitman
Murakami
UAC
Damacus
##cycle
##anes
Allardyce
Somerset
Premiership
Zot
Algiers
TSĐB
Weeknd
Phenikaa
ản
pon
##sal
##éb
Soh
Protection
Shearer
hoodie
vid
##iec
Sharia
HKPhone
##ankar
##renco
##chise
SBA
KLM
Thir
Fry
##thì
CĐSP
NGOA
##gnac
BIẾN
Ốp
Scam
STD
Dracula
##ensinh
Rambo
Vincenzo
Fei
field
Tundra
Voucher
FXCM
Kes
gải
counter
Xian
McNam
##izzard
ILA
ddr
IH
tậm
uss
trieu
Jamona
Mest
ủn
Roub
Simona
ITS
pow
##Xtra
Lass
##RN
Quint
##quiel
Kiz
UBATGT
Stennis
hydrocarbon
##aua
1897
Training
gear
##iak
Article
##ifier
Seabank
MƯ
bok
##icyl
DST
Zig
caramel
đễnh
##acar
fant
APA
##ramine
Dray
Engulfing
LIMITED
ECC
##iors
WhiteHat
Babis
Ragnar
Nghiêu
React
Extra
Constrexim
Satur
things
Saka
CHƯA
##ycin
TUẦN
##iyah
CONCACAF
bold
tram
Túm
Smartlink
SIA
##Du
corset
Ú
##Cov
CoinDesk
Vec
mitsubishi
Fence
Vanh
virg
Elder
##ONN
Ngố
Senkou
Maldini
Merck
Portal
hướm
KTNB
asiad
Kbps
PRE
lổn
Anita
method
Misrata
CFDs
Administr
nghiep
Goni
Soe
##khăm
eco
##xacin
##glish
GTNfoods
##Sản
##sted
##inium
xồm
Trĩ
nhuâ
Maru
response
Codex
Khor
Verde
BTN
Vario
##bayev
Pastore
yoo
Thiet
##ingway
Plate
Nostradamus
Hử
Blackpool
STC
##rung
Micron
##556
Ase
DTS
Lít
nuoc
Alvin
##forex
cruiser
DAS
##lear
##onews
McF
Weight
Hlaing
##oligan
Viper
Ranee
less
Luta
1288
Supachok
Talal
Impact
Kitchen
##oue
Tools
RBI
##rip
##chka
products
đv
Afgan
Poz
Stry
Rakuten
ross
##stimes
truớc
Coli
Krul
1868
Browser
Nicholson
Lộn
##hall
Takahashi
nắc
1022
Devils
bodysuit
HNB
engulfing
Duss
xúp
vocal
Sector
xp
Whoscored
Digest
GmbH
move
##ebi
Asad
feel
Clarkson
Zeitung
Shaar
Iberia
Kinder
##lestone
loai
Luzhniki
Normal
Alpari
Hia
plac
Avalon
##ological
HVNCLC
##ibirsk
##hisa
VNTB
Stav
Wonders
hedge
rí
dean
##ocy
Module
TCKT
Paracetamol
message
giạ
##cient
##mf
UVA
UNODC
sòn
##noy
Phạn
##afer
WOR
##LINE
react
HLD
Hột
##54
muôi
Zav
Whelan
Technical
batman
hmm
##qg
ngồng
Ngoãn
##asea
Chật
Berezovsky
##Sung
##íguez
Khar
##cara
hoắm
Soa
Êđê
Church
Scho
Bure
billy
lụn
GoPro
Jollibee
Prey
dress
Vỗ
##nos
Voronezh
Severodvinsk
Gott
Anand
HNC
Apec
OCBC
Kèn
kH
ghz
HĐTS
##stall
prices
HRW
Hứng
ngoắc
Disk
##trâylia
Nơn
##ecaf
NSĐP
##Apple
Vita
##isman
muc
Nhương
##urtney
BuzzFeed
sấn
##efa
Carb
##houn
##ooker
Edo
Danube
fract
##mà
VIMS
Vinacapital
Byă
Cabello
CTQLQ
bổi
##Lãi
##Un
NIC
##lik
##usi
Toe
măt
##andex
nui
Cabriolet
Culpo
JCG
Ora
##xem
XIN
Pope
polyme
Diablo
Liệp
Xeon
##hips
Europol
##auri
Amit
TNI
interested
Hyderabad
Coupon
InBev
redmi
##fils
Giặt
Toong
DKRA
wireless
##ssa
hoat
##esday
SET
Jagd
Eclipse
TẮT
Achilles
Reh
##ugat
Pedia
##WF
INR
database
Tobago
Rory
SMĐH
Macy
##gwick
##ngo
Reven
MBT
HMAS
Dimitri
Basico
Client
Somyot
##rian
Daniels
Bagan
golden
##dự
##eout
Leading
##opy
##uche
TIE
Hutchison
##isso
Mêkông
Cheek
múp
Kasper
##lean
Azev
Chee
VietnamWorks
##dient
xấc
Lavenue
NNN
##ỏm
Diar
adx
while
williams
Dest
Faith
##idian
Cót
LÔ
##rino
1232
sports
diến
Dalglish
messenger
Hah
INV
Klu
##ocr
##duong
Fiona
##Mar
LHC
Xẻo
bib
##rox
luyn
Sine
##dos
McI
RAF
carry
NPL
Gly
Gén
Ready
##illi
Brabus
methadone
Nub
gab
hùi
expect
##IMEX
IRR
metan
equity
torrent
nxb
Soompi
Neul
Occ
##km
PAD
Device
CỬ
PAMM
##inco
Hawkeye
Kobane
Seedorf
Sparrow
Thửa
##202
Ipsos
Electrolux
Khmeimim
Sejong
Gáo
mế
Phến
lờn
Papad
##iravir
Butterfly
BEA
Oro
hụ
Thải
Spacy
##phuong
BFC
YẾU
HCL
VMC
bp
Suites
Mandy
##osuka
Paragon
##UẬN
tọt
##limited
##uen
##Bi
tòm
Clij
xuông
Cốp
Styles
Cinderella
##erin
Micros
Rosatom
Leganes
Rig
dồng
Conc
TRÙNG
histamine
Urumqi
Ehome
##reement
Nobita
##ecoming
TTGSNH
pier
crash
##olon
Tớp
mia
##ioni
Alone
Beauties
Pencil
beh
Eurostat
rush
Outs
##vist
##OME
Bondarev
MIA
Viền
phướn
##ende
Sanjay
##Sửa
official
Vicofa
Sứa
##peed
Bôly
Tis
mig
meta
nut
Ròm
CBP
BacABank
BXMĐ
Miệt
vàm
##aclan
##shahi
Sevent
Nếnh
##ogue
Palau
Trippier
Cessna
SOC
webpages
Fahasa
RMB
Genève
Zhukov
Semen
##fm
Galactic
notch
Dirk
##leo
Thâ
carbs
CMA
Siber
MOB
McMenemy
##appropriate
bait
Psych
Yung
LaS
##Chain
Britann
AHA
BIỂN
Lamb
Vidifi
##bye
##ussalam
Syngenta
nguậy
##quis
TÌM
Tatum
podcast
Ochoa
htt
TTKTTV
TRẢ
Kazuo
VÔ
NSNA
EXPO
Lakers
##iclosan
AnTheo
UNC
Fighting
Ssang
Tx
2300
nucle
Gatsby
rui
##evision
Grud
xxxx
##̆́T
Newman
Skyfall
default
even
justin
sacombank
Quartz
Alec
##96
hoạc
Bungari
Novosibirsk
LeBron
Staffan
north
##Hàng
Thm
thoibao
##ombia
ặ
Harr
Helmand
UTGT
Bnews
Jankovic
##YP
Myers
Goul
Souza
LEAD
##sik
##flav
Bradford
Mài
ĐVSN
Sync
ISC
address
PTTM
NXBGD
Underground
Committee
Zhe
vic
[...]
